{
  "version": "1.0",
  "truncation": null,
  "padding": null,
  "added_tokens": [
    {
      "id": 0,
      "content": "[UNK]",
      "single_word": false,
      "lstrip": false,
      "rstrip": false,
      "normalized": false,
      "special": true
    },
    {
      "id": 1,
      "content": "[PAD]",
      "single_word": false,
      "lstrip": false,
      "rstrip": false,
      "normalized": false,
      "special": true
    },
    {
      "id": 2,
      "content": "[CLS]",
      "single_word": false,
      "lstrip": false,
      "rstrip": false,
      "normalized": false,
      "special": true
    },
    {
      "id": 3,
      "content": "[SEP]",
      "single_word": false,
      "lstrip": false,
      "rstrip": false,
      "normalized": false,
      "special": true
    },
    {
      "id": 4,
      "content": "[MASK]",
      "single_word": false,
      "lstrip": false,
      "rstrip": false,
      "normalized": false,
      "special": true
    }
  ],
  "normalizer": {
    "type": "Sequence",
    "normalizers": [
      {
        "type": "NFD"
      },
      {
        "type": "Lowercase"
      }
    ]
  },
  "pre_tokenizer": {
    "type": "Whitespace"
  },
  "post_processor": null,
  "decoder": null,
  "model": {
    "type": "BPE",
    "dropout": null,
    "unk_token": "[UNK]",
    "continuing_subword_prefix": null,
    "end_of_word_suffix": null,
    "fuse_unk": false,
    "byte_fallback": false,
    "ignore_merges": false,
    "vocab": {
      "[UNK]": 0,
      "[PAD]": 1,
      "[CLS]": 2,
      "[SEP]": 3,
      "[MASK]": 4,
      "!": 5,
      "\"": 6,
      "#": 7,
      "$": 8,
      "%": 9,
      "&": 10,
      "'": 11,
      "(": 12,
      ")": 13,
      "*": 14,
      "+": 15,
      ",": 16,
      "-": 17,
      ".": 18,
      "/": 19,
      "0": 20,
      "1": 21,
      "2": 22,
      "3": 23,
      "4": 24,
      "5": 25,
      "6": 26,
      "7": 27,
      "8": 28,
      "9": 29,
      ":": 30,
      ";": 31,
      ">": 32,
      "?": 33,
      "@": 34,
      "[": 35,
      "]": 36,
      "_": 37,
      "`": 38,
      "a": 39,
      "b": 40,
      "c": 41,
      "d": 42,
      "e": 43,
      "f": 44,
      "g": 45,
      "h": 46,
      "i": 47,
      "j": 48,
      "k": 49,
      "l": 50,
      "m": 51,
      "n": 52,
      "o": 53,
      "p": 54,
      "q": 55,
      "r": 56,
      "s": 57,
      "t": 58,
      "u": 59,
      "v": 60,
      "w": 61,
      "x": 62,
      "y": 63,
      "z": 64,
      "": 65,
      "": 66,
      "£": 67,
      "̀": 68,
      "́": 69,
      "̂": 70,
      "̣": 71,
      "‏": 72,
      "–": 73,
      "—": 74,
      "―": 75,
      "‘": 76,
      "’": 77,
      "“": 78,
      "”": 79,
      "…": 80,
      "": 81,
      "﻿": 82,
      "th": 83,
      "in": 84,
      "the": 85,
      "er": 86,
      "an": 87,
      "at": 88,
      "on": 89,
      "re": 90,
      "en": 91,
      "ed": 92,
      "st": 93,
      "or": 94,
      "al": 95,
      "is": 96,
      "of": 97,
      "to": 98,
      "ou": 99,
      "as": 100,
      "ar": 101,
      "ing": 102,
      "it": 103,
      "and": 104,
      "es": 105,
      "ic": 106,
      "ion": 107,
      "le": 108,
      "ent": 109,
      "om": 110,
      "il": 111,
      "id": 112,
      "that": 113,
      "ig": 114,
      "ch": 115,
      "se": 116,
      "ad": 117,
      "be": 118,
      "wh": 119,
      "ve": 120,
      "am": 121,
      "he": 122,
      "for": 123,
      "ol": 124,
      "ac": 125,
      "no": 126,
      "ver": 127,
      "ro": 128,
      "im": 129,
      "go": 130,
      "ay": 131,
      "un": 132,
      "ir": 133,
      "bu": 134,
      "de": 135,
      "ate": 136,
      "pe": 137,
      "ation": 138,
      "are": 139,
      "ill": 140,
      "eri": 141,
      "ag": 142,
      "su": 143,
      "ct": 144,
      "ment": 145,
      "sa": 146,
      "fr": 147,
      "nig": 148,
      "ers": 149,
      "ly": 150,
      "con": 151,
      "res": 152,
      "tr": 153,
      "com": 154,
      "nigeri": 155,
      "op": 156,
      "ce": 157,
      "we": 158,
      "ha": 159,
      "ter": 160,
      "was": 161,
      "our": 162,
      "ab": 163,
      "ur": 164,
      "has": 165,
      "ow": 166,
      "ld": 167,
      "em": 168,
      "not": 169,
      "said": 170,
      "wi": 171,
      "ak": 172,
      "all": 173,
      "bo": 174,
      "sh": 175,
      "with": 176,
      "te": 177,
      "ne": 178,
      "pro": 179,
      "ther": 180,
      "if": 181,
      "mo": 182,
      "by": 183,
      "ap": 184,
      "ain": 185,
      "ul": 186,
      "ist": 187,
      "us": 188,
      "pl": 189,
      "will": 190,
      "one": 191,
      "so": 192,
      "have": 193,
      "state": 194,
      "oun": 195,
      "po": 196,
      "man": 197,
      "his": 198,
      "gover": 199,
      "govern": 200,
      "this": 201,
      "who": 202,
      "nigeria": 203,
      "out": 204,
      "they": 205,
      "ere": 206,
      "ity": 207,
      "lo": 208,
      "ice": 209,
      "et": 210,
      "iv": 211,
      "from": 212,
      "la": 213,
      "ex": 214,
      "art": 215,
      "ut": 216,
      "pres": 217,
      "their": 218,
      "ess": 219,
      "ies": 220,
      "20": 221,
      "ive": 222,
      "ould": 223,
      "do": 224,
      "pr": 225,
      "ort": 226,
      "br": 227,
      "wor": 228,
      "day": 229,
      "you": 230,
      "ore": 231,
      "ant": 232,
      "ke": 233,
      "au": 234,
      "port": 235,
      "fe": 236,
      "ident": 237,
      "ie": 238,
      "har": 239,
      "af": 240,
      "ye": 241,
      "peop": 242,
      "act": 243,
      "now": 244,
      "people": 245,
      "di": 246,
      "ans": 247,
      "comm": 248,
      "me": 249,
      "igh": 250,
      "end": 251,
      "but": 252,
      "ok": 253,
      "government": 254,
      "gr": 255,
      "od": 256,
      "other": 257,
      "up": 258,
      "qu": 259,
      "per": 260,
      "pol": 261,
      "ial": 262,
      "ated": 263,
      "201": 264,
      "ju": 265,
      "coun": 266,
      "ia": 267,
      "ge": 268,
      "ll": 269,
      "ary": 270,
      "igbo": 271,
      "um": 272,
      "her": 273,
      "part": 274,
      "gh": 275,
      "new": 276,
      "cr": 277,
      "lect": 278,
      "der": 279,
      "were": 280,
      "him": 281,
      "them": 282,
      "min": 283,
      "been": 284,
      "ob": 285,
      "president": 286,
      "du": 287,
      "wom": 288,
      "li": 289,
      "ack": 290,
      "ich": 291,
      "any": 292,
      "ome": 293,
      "had": 294,
      "can": 295,
      "dis": 296,
      "age": 297,
      "cour": 298,
      "she": 299,
      "med": 300,
      "inter": 301,
      "mar": 302,
      "what": 303,
      "cl": 304,
      "also": 305,
      "cor": 306,
      "there": 307,
      "ast": 308,
      "wo": 309,
      "tim": 310,
      "ade": 311,
      "when": 312,
      "off": 313,
      "ight": 314,
      "ip": 315,
      "ber": 316,
      "ding": 317,
      "ous": 318,
      "co": 319,
      "year": 320,
      "nation": 321,
      "ake": 322,
      "est": 323,
      "ach": 324,
      "elect": 325,
      "would": 326,
      "ition": 327,
      "its": 328,
      "thing": 329,
      "ame": 330,
      "ace": 331,
      "nigerian": 332,
      "gu": 333,
      "ile": 334,
      "jo": 335,
      "ss": 336,
      "court": 337,
      "str": 338,
      "pre": 339,
      "which": 340,
      "ot": 341,
      "ong": 342,
      "aw": 343,
      "ine": 344,
      "buhar": 345,
      "buhari": 346,
      "countr": 347,
      "ide": 348,
      "ure": 349,
      "about": 350,
      "cau": 351,
      "dr": 352,
      "ub": 353,
      "ence": 354,
      "know": 355,
      "att": 356,
      "work": 357,
      "fore": 358,
      "iz": 359,
      "ough": 360,
      "some": 361,
      "ib": 362,
      "ard": 363,
      "call": 364,
      "ren": 365,
      "air": 366,
      "fo": 367,
      "ue": 368,
      "ance": 369,
      "ish": 370,
      "form": 371,
      "over": 372,
      "ical": 373,
      "cause": 374,
      "again": 375,
      "mu": 376,
      "ass": 377,
      "cent": 378,
      "fir": 379,
      "ho": 380,
      "spe": 381,
      "ild": 382,
      "ser": 383,
      "ree": 384,
      "ose": 385,
      "governor": 386,
      "news": 387,
      "ase": 388,
      "sec": 389,
      "ank": 390,
      "very": 391,
      "ts": 392,
      "red": 393,
      "afr": 394,
      "cial": 395,
      "country": 396,
      "sion": 397,
      "eral": 398,
      "lead": 399,
      "because": 400,
      "after": 401,
      "sp": 402,
      "women": 403,
      "cy": 404,
      "ev": 405,
      "iver": 406,
      "police": 407,
      "way": 408,
      "child": 409,
      "ound": 410,
      "election": 411,
      "own": 412,
      "ek": 413,
      "pers": 414,
      "mem": 415,
      "ied": 416,
      "sen": 417,
      "afric": 418,
      "those": 419,
      "comp": 420,
      "ail": 421,
      "sc": 422,
      "sin": 423,
      "vel": 424,
      "bra": 425,
      "get": 426,
      "two": 427,
      "ign": 428,
      "col": 429,
      "ty": 430,
      "should": 431,
      "law": 432,
      "ted": 433,
      "ud": 434,
      "able": 435,
      "national": 436,
      "ory": 437,
      "ind": 438,
      "ents": 439,
      "time": 440,
      "sed": 441,
      "where": 442,
      "abu": 443,
      "vic": 444,
      "ates": 445,
      "against": 446,
      "rest": 447,
      "more": 448,
      "just": 449,
      "bb": 450,
      "ved": 451,
      "reg": 452,
      "under": 453,
      "cer": 454,
      "while": 455,
      "ors": 456,
      "nigerians": 457,
      "lic": 458,
      "fer": 459,
      "world": 460,
      "oup": 461,
      "used": 462,
      "bet": 463,
      "person": 464,
      "ef": 465,
      "sup": 466,
      "kill": 467,
      "like": 468,
      "years": 469,
      "say": 470,
      "old": 471,
      "wu": 472,
      "many": 473,
      "first": 474,
      "how": 475,
      "ful": 476,
      "come": 477,
      "did": 478,
      "than": 479,
      "anam": 480,
      "before": 481,
      "cont": 482,
      "vis": 483,
      "ities": 484,
      "minist": 485,
      "ivers": 486,
      "anambra": 487,
      "ik": 488,
      "my": 489,
      "ions": 490,
      "mr": 491,
      "mon": 492,
      "alth": 493,
      "made": 494,
      "ult": 495,
      "2019": 496,
      "og": 497,
      "into": 498,
      "ck": 499,
      "ning": 500,
      "play": 501,
      "amp": 502,
      "land": 503,
      "mat": 504,
      "these": 505,
      "ained": 506,
      "fed": 507,
      "pub": 508,
      "ite": 509,
      "adu": 510,
      "ress": 511,
      "well": 512,
      "ham": 513,
      "av": 514,
      "ret": 515,
      "cted": 516,
      "bbc": 517,
      "je": 518,
      "interest": 519,
      "men": 520,
      "ission": 521,
      "des": 522,
      "ian": 523,
      "tion": 524,
      "want": 525,
      "acc": 526,
      "owore": 527,
      "bre": 528,
      "ire": 529,
      "ug": 530,
      "group": 531,
      "19": 532,
      "mark": 533,
      "sowore": 534,
      "ally": 535,
      "called": 536,
      "every": 537,
      "mil": 538,
      "reat": 539,
      "told": 540,
      "road": 541,
      "ged": 542,
      "sel": 543,
      "bor": 544,
      "pp": 545,
      "int": 546,
      "test": 547,
      "ma": 548,
      "public": 549,
      "vice": 550,
      "les": 551,
      "ry": 552,
      "vest": 553,
      "gan": 554,
      "ives": 555,
      "woman": 556,
      "ned": 557,
      "sol": 558,
      "el": 559,
      "ations": 560,
      "show": 561,
      "sou": 562,
      "uk": 563,
      "ency": 564,
      "univers": 565,
      "wa": 566,
      "hou": 567,
      "eng": 568,
      "apc": 569,
      "ath": 570,
      "ja": 571,
      "war": 572,
      "today": 573,
      "gos": 574,
      "uring": 575,
      "house": 576,
      "ction": 577,
      "lagos": 578,
      "fa": 579,
      "cho": 580,
      "char": 581,
      "dif": 582,
      "led": 583,
      "chan": 584,
      "aking": 585,
      "federal": 586,
      "sy": 587,
      "ting": 588,
      "devel": 589,
      "develop": 590,
      "ating": 591,
      "report": 592,
      "milit": 593,
      "mone": 594,
      "inc": 595,
      "invest": 596,
      "arrest": 597,
      "ution": 598,
      "offic": 599,
      "children": 600,
      "ah": 601,
      "fam": 602,
      "ious": 603,
      "stud": 604,
      "als": 605,
      "being": 606,
      "attack": 607,
      "king": 608,
      "ness": 609,
      "00": 610,
      "oc": 611,
      "inst": 612,
      "see": 613,
      "amer": 614,
      "polit": 615,
      "money": 616,
      "gen": 617,
      "three": 618,
      "only": 619,
      "bel": 620,
      "military": 621,
      "don": 622,
      "head": 623,
      "sur": 624,
      "nor": 625,
      "ited": 626,
      "leg": 627,
      "bers": 628,
      "ph": 629,
      "thr": 630,
      "oll": 631,
      "pet": 632,
      "most": 633,
      "prom": 634,
      "south": 635,
      "bank": 636,
      "came": 637,
      "went": 638,
      "ths": 639,
      "inv": 640,
      "start": 641,
      "ased": 642,
      "ily": 643,
      "ctor": 644,
      "pos": 645,
      "things": 646,
      "cess": 647,
      "read": 648,
      "health": 649,
      "ced": 650,
      "take": 651,
      "incl": 652,
      "commission": 653,
      "ens": 654,
      "nam": 655,
      "why": 656,
      "university": 657,
      "spo": 658,
      "secur": 659,
      "ga": 660,
      "lt": 661,
      "let": 662,
      "good": 663,
      "happ": 664,
      "expl": 665,
      "support": 666,
      "fun": 667,
      "high": 668,
      "ped": 669,
      "put": 670,
      "ife": 671,
      "meet": 672,
      "through": 673,
      "bill": 674,
      "during": 675,
      "four": 676,
      "hand": 677,
      "win": 678,
      "chi": 679,
      "dec": 680,
      "cond": 681,
      "aff": 682,
      "giv": 683,
      "ven": 684,
      "stand": 685,
      "che": 686,
      "add": 687,
      "commun": 688,
      ".'": 689,
      "fin": 690,
      "ale": 691,
      "americ": 692,
      "kan": 693,
      "tal": 694,
      "produ": 695,
      "ball": 696,
      "ci": 697,
      "cal": 698,
      "ko": 699,
      "kid": 700,
      "ise": 701,
      "look": 702,
      "present": 703,
      "food": 704,
      "africa": 705,
      "security": 706,
      "ric": 707,
      "rup": 708,
      "2018": 709,
      "members": 710,
      "differ": 711,
      "ru": 712,
      "vie": 713,
      "your": 714,
      "trans": 715,
      "ship": 716,
      "foot": 717,
      "since": 718,
      "justice": 719,
      "ves": 720,
      "still": 721,
      "ason": 722,
      "place": 723,
      "development": 724,
      "cap": 725,
      "dy": 726,
      "hu": 727,
      "pon": 728,
      "rel": 729,
      "accor": 730,
      "last": 731,
      "party": 732,
      "ep": 733,
      "ri": 734,
      "row": 735,
      "jud": 736,
      "known": 737,
      "cup": 738,
      "madu": 739,
      "states": 740,
      "ola": 741,
      "less": 742,
      "ten": 743,
      "super": 744,
      "contin": 745,
      "fire": 746,
      "chair": 747,
      "hel": 748,
      "need": 749,
      "may": 750,
      "use": 751,
      "ative": 752,
      "rele": 753,
      "cons": 754,
      "fl": 755,
      "nap": 756,
      "another": 757,
      "organ": 758,
      "itu": 759,
      "ower": 760,
      "according": 761,
      "dss": 762,
      "down": 763,
      "five": 764,
      "ix": 765,
      "ised": 766,
      "leaders": 767,
      "african": 768,
      "ject": 769,
      "car": 770,
      "ving": 771,
      "ists": 772,
      "ka": 773,
      "mis": 774,
      "os": 775,
      "pt": 776,
      "scho": 777,
      "atik": 778,
      "issu": 779,
      "mother": 780,
      "does": 781,
      "member": 782,
      "school": 783,
      "ble": 784,
      "ces": 785,
      "could": 786,
      "wer": 787,
      "wit": 788,
      "team": 789,
      "office": 790,
      "former": 791,
      "football": 792,
      "atiku": 793,
      "cur": 794,
      "ony": 795,
      "ital": 796,
      "killed": 797,
      "long": 798,
      "make": 799,
      "order": 800,
      "ick": 801,
      "sure": 802,
      "contr": 803,
      "different": 804,
      "ds": 805,
      "right": 806,
      "imo": 807,
      "bur": 808,
      "media": 809,
      "back": 810,
      "ear": 811,
      "ji": 812,
      "wat": 813,
      "got": 814,
      "meeting": 815,
      "ask": 816,
      "body": 817,
      "prof": 818,
      "self": 819,
      "kidnap": 820,
      "bar": 821,
      "care": 822,
      "par": 823,
      "respon": 824,
      "main": 825,
      "won": 826,
      "resu": 827,
      "ster": 828,
      "among": 829,
      "demo": 830,
      "ween": 831,
      "even": 832,
      "between": 833,
      "chairman": 834,
      "case": 835,
      "ze": 836,
      "ann": 837,
      "ief": 838,
      "qual": 839,
      "father": 840,
      "family": 841,
      "students": 842,
      "cle": 843,
      "life": 844,
      "son": 845,
      "sal": 846,
      "muham": 847,
      "),": 848,
      "ba": 849,
      "ben": 850,
      "clo": 851,
      "vi": 852,
      "stated": 853,
      "jor": 854,
      "ple": 855,
      "power": 856,
      "going": 857,
      "without": 858,
      "pay": 859,
      "fect": 860,
      "igbos": 861,
      "service": 862,
      "market": 863,
      "soldi": 864,
      "given": 865,
      "democr": 866,
      "pare": 867,
      "sing": 868,
      "ta": 869,
      "import": 870,
      "commit": 871,
      "corrup": 872,
      "inclu": 873,
      "econ": 874,
      "far": 875,
      "foll": 876,
      "oy": 877,
      "took": 878,
      "abuja": 879,
      "econom": 880,
      "follow": 881,
      "fal": 882,
      "kes": 883,
      "ues": 884,
      "story": 885,
      "second": 886,
      "ular": 887,
      "ought": 888,
      "investig": 889,
      "fight": 890,
      "nal": 891,
      "stop": 892,
      "sum": 893,
      "arrested": 894,
      "hold": 895,
      "ra": 896,
      "tak": 897,
      "thir": 898,
      "set": 899,
      "stru": 900,
      "political": 901,
      "happen": 902,
      "view": 903,
      "cha": 904,
      "dem": 905,
      "terr": 906,
      "boko": 907,
      "haram": 908,
      "bak": 909,
      "dp": 910,
      "dan": 911,
      "mill": 912,
      "six": 913,
      "ugu": 914,
      "such": 915,
      "oper": 916,
      "dire": 917,
      "general": 918,
      "ca": 919,
      "gress": 920,
      "hip": 921,
      "vent": 922,
      "vide": 923,
      "inde": 924,
      "appe": 925,
      "ways": 926,
      "muhammadu": 927,
      "give": 928,
      "ner": 929,
      "ator": 930,
      "ars": 931,
      "compet": 932,
      "died": 933,
      "eag": 934,
      "ps": 935,
      "pdp": 936,
      "enugu": 937,
      "ash": 938,
      "coming": 939,
      "crim": 940,
      "obi": 941,
      "position": 942,
      "camp": 943,
      "reason": 944,
      "days": 945,
      "started": 946,
      "human": 947,
      "bab": 948,
      "ike": 949,
      "oye": 950,
      "ism": 951,
      "ics": 952,
      "sub": 953,
      "tra": 954,
      "soci": 955,
      "post": 956,
      "others": 957,
      "quest": 958,
      "soldiers": 959,
      "bl": 960,
      "cu": 961,
      "jour": 962,
      "ins": 963,
      "tow": 964,
      "social": 965,
      "ended": 966,
      "minister": 967,
      ",'": 968,
      "cas": 969,
      "fur": 970,
      "fem": 971,
      "ger": 972,
      "rul": 973,
      "ina": 974,
      "ana": 975,
      "edu": 976,
      "olog": 977,
      "local": 978,
      "iving": 979,
      "match": 980,
      "corruption": 981,
      "10": 982,
      "east": 983,
      "found": 984,
      "mal": 985,
      "ama": 986,
      "acy": 987,
      "busin": 988,
      "ific": 989,
      "bring": 990,
      "comple": 991,
      "business": 992,
      "ec": 993,
      "rece": 994,
      "ility": 995,
      "ross": 996,
      "statement": 997,
      "secret": 998,
      "bia": 999,
      "ators": 1000,
      "recent": 1001,
      "trad": 1002,
      "activ": 1003,
      "inec": 1004,
      "uel": 1005,
      "change": 1006,
      "same": 1007,
      "real": 1008,
      "death": 1009,
      "const": 1010,
      "ived": 1011,
      "senate": 1012,
      "explained": 1013,
      "great": 1014,
      "home": 1015,
      "iend": 1016,
      "peri": 1017,
      "then": 1018,
      "ision": 1019,
      "god": 1020,
      "defe": 1021,
      "friend": 1022,
      "abia": 1023,
      "polic": 1024,
      "ump": 1025,
      "international": 1026,
      "ded": 1027,
      "fact": 1028,
      "ms": 1029,
      "mor": 1030,
      "ocha": 1031,
      "pat": 1032,
      "ink": 1033,
      "remember": 1034,
      "proper": 1035,
      "join": 1036,
      "born": 1037,
      "america": 1038,
      "ft": 1039,
      "fac": 1040,
      "lish": 1041,
      "name": 1042,
      "ual": 1043,
      "wr": 1044,
      "ying": 1045,
      "olved": 1046,
      "buil": 1047,
      "project": 1048,
      "pris": 1049,
      "youths": 1050,
      "ible": 1051,
      "must": 1052,
      "ukwu": 1053,
      "belie": 1054,
      "cation": 1055,
      "list": 1056,
      "mb": 1057,
      "na": 1058,
      "num": 1059,
      "indu": 1060,
      "ici": 1061,
      "concer": 1062,
      "tell": 1063,
      "drug": 1064,
      "special": 1065,
      "company": 1066,
      "vict": 1067,
      "help": 1068,
      "gun": 1069,
      "here": 1070,
      "det": 1071,
      "peace": 1072,
      "ural": 1073,
      "uss": 1074,
      "plan": 1075,
      "poor": 1076,
      "hard": 1077,
      "countries": 1078,
      "iano": 1079,
      "paren": 1080,
      "cit": 1081,
      "cult": 1082,
      "pa": 1083,
      "sim": 1084,
      "ref": 1085,
      "represent": 1086,
      "seven": 1087,
      "never": 1088,
      "poin": 1089,
      "commissioner": 1090,
      "asked": 1091,
      "million": 1092,
      "30": 1093,
      "cla": 1094,
      "ever": 1095,
      "run": 1096,
      "val": 1097,
      "ared": 1098,
      "conf": 1099,
      "tru": 1100,
      "week": 1101,
      "much": 1102,
      "saying": 1103,
      "officer": 1104,
      "spokes": 1105,
      "eagles": 1106,
      "industr": 1107,
      "bas": 1108,
      "done": 1109,
      "ried": 1110,
      "chief": 1111,
      "lood": 1112,
      "action": 1113,
      "workers": 1114,
      "ards": 1115,
      "vices": 1116,
      "profess": 1117,
      "pend": 1118,
      "anut": 1119,
      "always": 1120,
      "become": 1121,
      "agency": 1122,
      "wever": 1123,
      "tech": 1124,
      "however": 1125,
      "score": 1126,
      "cre": 1127,
      "den": 1128,
      "hun": 1129,
      "pect": 1130,
      "ages": 1131,
      "point": 1132,
      "leader": 1133,
      "competition": 1134,
      "biafr": 1135,
      "bro": 1136,
      "sign": 1137,
      "vir": 1138,
      "goal": 1139,
      "prote": 1140,
      "pob": 1141,
      "posed": 1142,
      "formation": 1143,
      "services": 1144,
      "ekwer": 1145,
      "journal": 1146,
      "ekwerem": 1147,
      "chr": 1148,
      "protest": 1149,
      "ety": 1150,
      "exec": 1151,
      "okor": 1152,
      "partic": 1153,
      "obiano": 1154,
      "break": 1155,
      "major": 1156,
      "leadership": 1157,
      "bakar": 1158,
      "citiz": 1159,
      "big": 1160,
      "ipob": 1161,
      "anjo": 1162,
      "urn": 1163,
      "proble": 1164,
      "expres": 1165,
      "abubakar": 1166,
      "effect": 1167,
      "matter": 1168,
      "claim": 1169,
      "aign": 1170,
      "met": 1171,
      "san": 1172,
      "tain": 1173,
      "stem": 1174,
      "best": 1175,
      "dead": 1176,
      "contest": 1177,
      "process": 1178,
      "better": 1179,
      "says": 1180,
      "months": 1181,
      "campaign": 1182,
      "iate": 1183,
      "tit": 1184,
      "too": 1185,
      "leag": 1186,
      "left": 1187,
      "urs": 1188,
      "appro": 1189,
      "using": 1190,
      "dia": 1191,
      "kanu": 1192,
      "curren": 1193,
      "viol": 1194,
      "taken": 1195,
      "happened": 1196,
      "'.": 1197,
      "lon": 1198,
      "mi": 1199,
      "past": 1200,
      "arch": 1201,
      "omoye": 1202,
      "force": 1203,
      "depart": 1204,
      "area": 1205,
      "urch": 1206,
      "command": 1207,
      "dise": 1208,
      "times": 1209,
      "ized": 1210,
      "incre": 1211,
      "result": 1212,
      "further": 1213,
      "omoyele": 1214,
      "band": 1215,
      "gir": 1216,
      "lim": 1217,
      "nair": 1218,
      "sar": 1219,
      "twit": 1220,
      "ste": 1221,
      "ala": 1222,
      "alu": 1223,
      "ments": 1224,
      "wel": 1225,
      "progress": 1226,
      "pray": 1227,
      "crit": 1228,
      "community": 1229,
      "water": 1230,
      "democracy": 1231,
      "including": 1232,
      "video": 1233,
      "industry": 1234,
      "naira": 1235,
      "ban": 1236,
      "hic": 1237,
      "late": 1238,
      "nw": 1239,
      "por": 1240,
      "sat": 1241,
      "sent": 1242,
      "information": 1243,
      "sto": 1244,
      "asse": 1245,
      "ari": 1246,
      "held": 1247,
      "unity": 1248,
      "dece": 1249,
      "trump": 1250,
      "education": 1251,
      "execut": 1252,
      "girl": 1253,
      "twitter": 1254,
      "ging": 1255,
      "ling": 1256,
      "sport": 1257,
      "ture": 1258,
      "tues": 1259,
      "thank": 1260,
      "ories": 1261,
      "omin": 1262,
      "chall": 1263,
      "advis": 1264,
      "shop": 1265,
      "ified": 1266,
      "club": 1267,
      "coll": 1268,
      "ministry": 1269,
      "system": 1270,
      "crimin": 1271,
      "building": 1272,
      "okorocha": 1273,
      "tuesday": 1274,
      "dam": 1275,
      "mber": 1276,
      "nwo": 1277,
      "nnam": 1278,
      "ran": 1279,
      "sun": 1280,
      "ton": 1281,
      "aring": 1282,
      "around": 1283,
      "itution": 1284,
      "seen": 1285,
      "goals": 1286,
      "open": 1287,
      "tele": 1288,
      "ploy": 1289,
      "presid": 1290,
      "200": 1291,
      "obas": 1292,
      "hosp": 1293,
      "victim": 1294,
      "desp": 1295,
      "gave": 1296,
      "tradition": 1297,
      "techn": 1298,
      "scored": 1299,
      "citizens": 1300,
      "ago": 1301,
      "cil": 1302,
      "cus": 1303,
      "eze": 1304,
      "ges": 1305,
      "ration": 1306,
      "side": 1307,
      "wed": 1308,
      "ensure": 1309,
      "ord": 1310,
      "def": 1311,
      "within": 1312,
      "wants": 1313,
      "incident": 1314,
      "christ": 1315,
      "nnamdi": 1316,
      "obasanjo": 1317,
      "face": 1318,
      "free": 1319,
      "gar": 1320,
      "hus": 1321,
      "mit": 1322,
      "pass": 1323,
      "uary": 1324,
      "iday": 1325,
      "vehic": 1326,
      "olution": 1327,
      "agric": 1328,
      "suf": 1329,
      "cep": 1330,
      "both": 1331,
      "moham": 1332,
      "cially": 1333,
      "attacked": 1334,
      "involved": 1335,
      "important": 1336,
      "husband": 1337,
      "12": 1338,
      "cc": 1339,
      "civ": 1340,
      "dist": 1341,
      "mus": 1342,
      "uwa": 1343,
      "uche": 1344,
      "xt": 1345,
      "republic": 1346,
      "espe": 1347,
      "ention": 1348,
      "union": 1349,
      "peter": 1350,
      "compl": 1351,
      "wife": 1352,
      "allow": 1353,
      "mean": 1354,
      "agement": 1355,
      "nations": 1356,
      "foreign": 1357,
      "understand": 1358,
      "killing": 1359,
      "interesting": 1360,
      "north": 1361,
      "issue": 1362,
      "clear": 1363,
      "struct": 1364,
      "biafra": 1365,
      "ekweremadu": 1366,
      "agricult": 1367,
      "especially": 1368,
      "50": 1369,
      "fail": 1370,
      "hist": 1371,
      "jan": 1372,
      "lat": 1373,
      "light": 1374,
      "rev": 1375,
      "isation": 1376,
      "church": 1377,
      "search": 1378,
      "united": 1379,
      "aged": 1380,
      "traff": 1381,
      "book": 1382,
      "gram": 1383,
      "away": 1384,
      "ize": 1385,
      "charge": 1386,
      "continu": 1387,
      "falcons": 1388,
      "holders": 1389,
      "despite": 1390,
      "bn": 1391,
      "mak": 1392,
      "nat": 1393,
      "rate": 1394,
      "aled": 1395,
      "olu": 1396,
      "bud": 1397,
      "emer": 1398,
      "next": 1399,
      "yester": 1400,
      "crib": 1401,
      "awa": 1402,
      "199": 1403,
      "decision": 1404,
      "female": 1405,
      "department": 1406,
      "cand": 1407,
      "fif": 1408,
      "mad": 1409,
      "pop": 1410,
      "vo": 1411,
      "var": 1412,
      "vot": 1413,
      "yet": 1414,
      "ered": 1415,
      "atic": 1416,
      "atives": 1417,
      "ene": 1418,
      "ided": 1419,
      "administ": 1420,
      "suc": 1421,
      "fru": 1422,
      "friday": 1423,
      "opport": 1424,
      "net": 1425,
      "2015": 1426,
      "achie": 1427,
      "prevent": 1428,
      "official": 1429,
      "ready": 1430,
      "billion": 1431,
      "activities": 1432,
      "number": 1433,
      "drugs": 1434,
      "hospital": 1435,
      "civil": 1436,
      "candid": 1437,
      "az": 1438,
      "city": 1439,
      "eb": 1440,
      "ken": 1441,
      "lad": 1442,
      "onment": 1443,
      "top": 1444,
      "sever": 1445,
      "sell": 1446,
      "adv": 1447,
      "roch": 1448,
      "ime": 1449,
      "france": 1450,
      "wealth": 1451,
      "aki": 1452,
      "ants": 1453,
      "selves": 1454,
      "plement": 1455,
      "terror": 1456,
      "mbly": 1457,
      "league": 1458,
      "assembly": 1459,
      "mohammed": 1460,
      "hol": 1461,
      "live": 1462,
      "line": 1463,
      "lives": 1464,
      "ures": 1465,
      "vill": 1466,
      "think": 1467,
      "ines": 1468,
      "nothing": 1469,
      "trib": 1470,
      "having": 1471,
      "emi": 1472,
      "tee": 1473,
      "doctor": 1474,
      "brought": 1475,
      "count": 1476,
      "council": 1477,
      "gest": 1478,
      "presidential": 1479,
      "awka": 1480,
      "event": 1481,
      "persons": 1482,
      "visit": 1483,
      "month": 1484,
      "released": 1485,
      "independ": 1486,
      "town": 1487,
      "secretary": 1488,
      "current": 1489,
      "budget": 1490,
      "yesterday": 1491,
      "bal": 1492,
      "bish": 1493,
      "blood": 1494,
      "eu": 1495,
      "making": 1496,
      "pun": 1497,
      "associ": 1498,
      "fort": 1499,
      "unt": 1500,
      "ours": 1501,
      "ney": 1502,
      "program": 1503,
      "move": 1504,
      "plac": 1505,
      "management": 1506,
      "loss": 1507,
      "brit": 1508,
      "auth": 1509,
      "few": 1510,
      "fected": 1511,
      "parts": 1512,
      "cancer": 1513,
      "regul": 1514,
      "fully": 1515,
      "farm": 1516,
      "economic": 1517,
      "ology": 1518,
      "diabet": 1519,
      "presidency": 1520,
      "traffic": 1521,
      "eat": 1522,
      "kol": 1523,
      "mess": 1524,
      "ny": 1525,
      "ses": 1526,
      "sam": 1527,
      "ua": 1528,
      "yu": 1529,
      "inju": 1530,
      "lea": 1531,
      "lear": 1532,
      "level": 1533,
      "deli": 1534,
      "fron": 1535,
      "boy": 1536,
      "keep": 1537,
      "married": 1538,
      "working": 1539,
      "elections": 1540,
      "showed": 1541,
      "american": 1542,
      "release": 1543,
      "kidnapped": 1544,
      "following": 1545,
      "parents": 1546,
      "professor": 1547,
      "protect": 1548,
      "saraki": 1549,
      "executive": 1550,
      "injured": 1551,
      "dred": 1552,
      "fi": 1553,
      "lit": 1554,
      "living": 1555,
      "nu": 1556,
      "ron": 1557,
      "seri": 1558,
      "tro": 1559,
      "taking": 1560,
      "eration": 1561,
      "reve": 1562,
      "staff": 1563,
      "china": 1564,
      "ada": 1565,
      "beh": 1566,
      "decl": 1567,
      "comes": 1568,
      "noted": 1569,
      "teach": 1570,
      "doing": 1571,
      "common": 1572,
      "ground": 1573,
      "ghana": 1574,
      "governorship": 1575,
      "rule": 1576,
      "tax": 1577,
      "ruling": 1578,
      "period": 1579,
      "defeated": 1580,
      "hundred": 1581,
      "disease": 1582,
      "',": 1583,
      "ais": 1584,
      "div": 1585,
      "hi": 1586,
      "sch": 1587,
      "yin": 1588,
      "ern": 1589,
      "ones": 1590,
      "chukwu": 1591,
      "across": 1592,
      "immed": 1593,
      "cele": 1594,
      "abd": 1595,
      "shua": 1596,
      "aining": 1597,
      "words": 1598,
      "due": 1599,
      "cannot": 1600,
      "award": 1601,
      "accused": 1602,
      "check": 1603,
      "transport": 1604,
      "judge": 1605,
      "investigation": 1606,
      "complete": 1607,
      "writ": 1608,
      "rochas": 1609,
      ").": 1610,
      "equ": 1611,
      "eight": 1612,
      "fish": 1613,
      "gn": 1614,
      "gre": 1615,
      "io": 1616,
      "lu": 1617,
      "mas": 1618,
      "ners": 1619,
      "ral": 1620,
      "ris": 1621,
      "russ": 1622,
      "treat": 1623,
      "reed": 1624,
      "recor": 1625,
      "eding": 1626,
      "tour": 1627,
      "beg": 1628,
      "agree": 1629,
      "acted": 1630,
      "ization": 1631,
      "mrs": 1632,
      "accident": 1633,
      "capital": 1634,
      "watch": 1635,
      "announ": 1636,
      "third": 1637,
      "thirty": 1638,
      "satur": 1639,
      "several": 1640,
      "kolanut": 1641,
      "immediate": 1642,
      "abdul": 1643,
      "dau": 1644,
      "ither": 1645,
      "job": 1646,
      "ky": 1647,
      "kind": 1648,
      "kalu": 1649,
      "nn": 1650,
      "nt": 1651,
      "rid": 1652,
      "ti": 1653,
      "tle": 1654,
      "uz": 1655,
      "wro": 1656,
      "wap": 1657,
      "remain": 1658,
      "stay": 1659,
      "step": 1660,
      "iswap": 1661,
      "iti": 1662,
      "sector": 1663,
      "ades": 1664,
      "pected": 1665,
      "condu": 1666,
      "urged": 1667,
      "sho": 1668,
      "ght": 1669,
      "class": 1670,
      "code": 1671,
      "draw": 1672,
      "ogun": 1673,
      "000": 1674,
      "banks": 1675,
      "witness": 1676,
      "control": 1677,
      "rights": 1678,
      "respons": 1679,
      "economy": 1680,
      "director": 1681,
      "question": 1682,
      "policy": 1683,
      "culture": 1684,
      "sports": 1685,
      "victims": 1686,
      "administration": 1687,
      "bishop": 1688,
      "celebr": 1689,
      "saturday": 1690,
      "wrote": 1691,
      ".”": 1692,
      "aj": 1693,
      "bad": 1694,
      "cul": 1695,
      "ech": 1696,
      "grow": 1697,
      "kola": 1698,
      "mission": 1699,
      "youn": 1700,
      "thous": 1701,
      "envir": 1702,
      "oral": 1703,
      "tober": 1704,
      "bey": 1705,
      "sust": 1706,
      "saw": 1707,
      "ability": 1708,
      "eme": 1709,
      "employ": 1710,
      "share": 1711,
      "means": 1712,
      "que": 1713,
      "2017": 1714,
      "themselves": 1715,
      "interview": 1716,
      "played": 1717,
      "196": 1718,
      "october": 1719,
      "legal": 1720,
      "phone": 1721,
      "address": 1722,
      "talent": 1723,
      "demand": 1724,
      "problem": 1725,
      "continued": 1726,
      "author": 1727,
      "thousand": 1728,
      "11": 1729,
      "17": 1730,
      "bid": 1731,
      "fil": 1732,
      "sick": 1733,
      "tar": 1734,
      "ute": 1735,
      "vious": 1736,
      "ata": 1737,
      "consum": 1738,
      "resident": 1739,
      "prov": 1740,
      "lost": 1741,
      "utes": 1742,
      "key": 1743,
      "answer": 1744,
      "ending": 1745,
      "grant": 1746,
      "corps": 1747,
      "cover": 1748,
      "joshua": 1749,
      "ically": 1750,
      "assist": 1751,
      "central": 1752,
      "speech": 1753,
      "lawy": 1754,
      "vision": 1755,
      "added": 1756,
      "finan": 1757,
      "friends": 1758,
      "spokesman": 1759,
      "london": 1760,
      "bir": 1761,
      "find": 1762,
      "glo": 1763,
      "hon": 1764,
      "ija": 1765,
      "lan": 1766,
      "mer": 1767,
      "mass": 1768,
      "sm": 1769,
      "reach": 1770,
      "ently": 1771,
      "amin": 1772,
      "una": 1773,
      "nigh": 1774,
      "condem": 1775,
      "mot": 1776,
      "lot": 1777,
      "exp": 1778,
      "coach": 1779,
      "firmed": 1780,
      "speaking": 1781,
      "collect": 1782,
      "cert": 1783,
      "supposed": 1784,
      "players": 1785,
      "breast": 1786,
      "attacks": 1787,
      "communic": 1788,
      "continue": 1789,
      "issues": 1790,
      "benef": 1791,
      "include": 1792,
      "territ": 1793,
      "black": 1794,
      "eastern": 1795,
      "criminal": 1796,
      "history": 1797,
      "various": 1798,
      "fruit": 1799,
      "24": 1800,
      "ium": 1801,
      "mag": 1802,
      "inno": 1803,
      "ang": 1804,
      "stom": 1805,
      "assu": 1806,
      "ili": 1807,
      "season": 1808,
      "heart": 1809,
      "buy": 1810,
      "dest": 1811,
      "areas": 1812,
      "ender": 1813,
      "percent": 1814,
      "lier": 1815,
      "anyone": 1816,
      "hope": 1817,
      "speak": 1818,
      "avo": 1819,
      "return": 1820,
      "describ": 1821,
      "letter": 1822,
      "looking": 1823,
      "relation": 1824,
      "earlier": 1825,
      "joined": 1826,
      "believe": 1827,
      "listen": 1828,
      "brother": 1829,
      "expressed": 1830,
      "candidate": 1831,
      "association": 1832,
      "diabetes": 1833,
      "based": 1834,
      "dic": 1835,
      "fety": 1836,
      "situ": 1837,
      "twent": 1838,
      "thurs": 1839,
      "ats": 1840,
      "once": 1841,
      "onits": 1842,
      "stake": 1843,
      "alf": 1844,
      "champ": 1845,
      "role": 1846,
      "implement": 1847,
      "deb": 1848,
      "aging": 1849,
      "susp": 1850,
      "safety": 1851,
      "respect": 1852,
      "lled": 1853,
      "medical": 1854,
      "electoral": 1855,
      "gust": 1856,
      "sci": 1857,
      "roads": 1858,
      "consid": 1859,
      "cases": 1860,
      "victory": 1861,
      "points": 1862,
      "challeng": 1863,
      "nwosu": 1864,
      "until": 1865,
      "aisha": 1866,
      "young": 1867,
      "night": 1868,
      "thursday": 1869,
      "onitsha": 1870,
      "15": 1871,
      "aid": 1872,
      "cing": 1873,
      "hy": 1874,
      "nine": 1875,
      "tur": 1876,
      "ties": 1877,
      "ubu": 1878,
      "inent": 1879,
      "infr": 1880,
      "infl": 1881,
      "ons": 1882,
      "ondo": 1883,
      "redu": 1884,
      "alo": 1885,
      "already": 1886,
      "idence": 1887,
      "became": 1888,
      "impro": 1889,
      "gov": 1890,
      "deal": 1891,
      "ify": 1892,
      "ains": 1893,
      "exchange": 1894,
      "2020": 1895,
      "pract": 1896,
      "affected": 1897,
      "himself": 1898,
      "anything": 1899,
      "cost": 1900,
      "electric": 1901,
      "governors": 1902,
      "senator": 1903,
      "reports": 1904,
      "talk": 1905,
      "carry": 1906,
      "osun": 1907,
      "particular": 1908,
      "technology": 1909,
      "later": 1910,
      "revolution": 1911,
      "leave": 1912,
      "environment": 1913,
      "financial": 1914,
      "14": 1915,
      "cath": 1916,
      "ead": 1917,
      "gender": 1918,
      "ibe": 1919,
      "kwu": 1920,
      "non": 1921,
      "pho": 1922,
      "round": 1923,
      "sit": 1924,
      "inte": 1925,
      "attr": 1926,
      "ences": 1927,
      "alle": 1928,
      "ising": 1929,
      "arr": 1930,
      "adam": 1931,
      "olic": 1932,
      "ateg": 1933,
      "termin": 1934,
      "shut": 1935,
      "nel": 1936,
      "soyin": 1937,
      "poss": 1938,
      "whose": 1939,
      "lock": 1940,
      "priv": 1941,
      "actions": 1942,
      "march": 1943,
      "strong": 1944,
      "aware": 1945,
      "uba": 1946,
      "attle": 1947,
      "someone": 1948,
      "spir": 1949,
      "access": 1950,
      "everything": 1951,
      "officers": 1952,
      "instead": 1953,
      "reads": 1954,
      "product": 1955,
      "appeal": 1956,
      "paid": 1957,
      "journalist": 1958,
      "thanked": 1959,
      "success": 1960,
      "serious": 1961,
      "revealed": 1962,
      "birth": 1963,
      "avoid": 1964,
      "situation": 1965,
      "twenty": 1966,
      "soyinka": 1967,
      "bed": 1968,
      "da": 1969,
      "fut": 1970,
      "hours": 1971,
      "iam": 1972,
      "might": 1973,
      "pur": 1974,
      "ward": 1975,
      "ys": 1976,
      "yam": 1977,
      "zie": 1978,
      "ering": 1979,
      "enced": 1980,
      "ald": 1981,
      "assa": 1982,
      "least": 1983,
      "sex": 1984,
      "adem": 1985,
      "deput": 1986,
      "true": 1987,
      "ources": 1988,
      "abor": 1989,
      "ablish": 1990,
      "board": 1991,
      "shot": 1992,
      "mob": 1993,
      "expected": 1994,
      "august": 1995,
      "fell": 1996,
      "establish": 1997,
      "premi": 1998,
      "spect": 1999,
      "cerem": 2000,
      "promised": 2001,
      "prominent": 2002,
      "giving": 2003,
      "kano": 2004,
      "riage": 2005,
      "close": 2006,
      "committee": 2007,
      "direct": 2008,
      "baby": 2009,
      "travel": 2010,
      "constitu": 2011,
      "pati": 2012,
      "facil": 2013,
      "concerning": 2014,
      "pointed": 2015,
      "agricultural": 2016,
      "popular": 2017,
      "votes": 2018,
      "village": 2019,
      "tribal": 2020,
      "euro": 2021,
      "codeine": 2022,
      "catholic": 2023,
      "photo": 2024,
      "deputy": 2025,
      "16": 2026,
      "cast": 2027,
      "cross": 2028,
      "cbn": 2029,
      "fic": 2030,
      "fall": 2031,
      "ior": 2032,
      "jun": 2033,
      "nk": 2034,
      "oke": 2035,
      "pan": 2036,
      "rain": 2037,
      "sack": 2038,
      "wake": 2039,
      "threat": 2040,
      "inking": 2041,
      "along": 2042,
      "arsen": 2043,
      "account": 2044,
      "imum": 2045,
      "agreed": 2046,
      "sahar": 2047,
      "confirmed": 2048,
      "shall": 2049,
      "ivid": 2050,
      "experi": 2051,
      "ghter": 2052,
      "guar": 2053,
      "forest": 2054,
      "firm": 2055,
      "compan": 2056,
      "getting": 2057,
      "wanted": 2058,
      "everyone": 2059,
      "english": 2060,
      "diffic": 2061,
      "legis": 2062,
      "condition": 2063,
      "foods": 2064,
      "democratic": 2065,
      "custom": 2066,
      "received": 2067,
      "recently": 2068,
      "morning": 2069,
      "projects": 2070,
      "prison": 2071,
      "claimed": 2072,
      "advised": 2073,
      "opportunity": 2074,
      "behind": 2075,
      "certific": 2076,
      "described": 2077,
      "stakeholders": 2078,
      "electricity": 2079,
      "ceremony": 2080,
      "coup": 2081,
      "dou": 2082,
      "each": 2083,
      "gone": 2084,
      "nut": 2085,
      "pic": 2086,
      "ply": 2087,
      "till": 2088,
      "yor": 2089,
      "though": 2090,
      "insur": 2091,
      "ani": 2092,
      "stat": 2093,
      "asion": 2094,
      "aries": 2095,
      "armed": 2096,
      "omi": 2097,
      "ched": 2098,
      "whe": 2099,
      "emp": 2100,
      "empt": 2101,
      "fear": 2102,
      "iest": 2103,
      "minutes": 2104,
      "marriage": 2105,
      "corp": 2106,
      "gue": 2107,
      "joh": 2108,
      "caught": 2109,
      "overse": 2110,
      "leading": 2111,
      "senators": 2112,
      "individ": 2113,
      "groups": 2114,
      "invasion": 2115,
      "production": 2116,
      "longer": 2117,
      "joromi": 2118,
      "takes": 2119,
      "caused": 2120,
      "refused": 2121,
      "create": 2122,
      "particip": 2123,
      "vehicle": 2124,
      "residents": 2125,
      "destro": 2126,
      "relationship": 2127,
      "challenges": 2128,
      "difficult": 2129,
      "ahead": 2130,
      "dro": 2131,
      "dreads": 2132,
      "ff": 2133,
      "lar": 2134,
      "lif": 2135,
      "oil": 2136,
      "rich": 2137,
      "ya": 2138,
      "thought": 2139,
      "alleg": 2140,
      "toge": 2141,
      "amb": 2142,
      "olam": 2143,
      "bul": 2144,
      "cept": 2145,
      "ems": 2146,
      "movie": 2147,
      "willie": 2148,
      "pot": 2149,
      "exper": 2150,
      "prim": 2151,
      "priest": 2152,
      "parties": 2153,
      "airport": 2154,
      "forms": 2155,
      "evil": 2156,
      "region": 2157,
      "bread": 2158,
      "marks": 2159,
      "borno": 2160,
      "reported": 2161,
      "donald": 2162,
      "ensive": 2163,
      "named": 2164,
      "happy": 2165,
      "needed": 2166,
      "onyi": 2167,
      "resul": 2168,
      "title": 2169,
      "violence": 2170,
      "december": 2171,
      "ordin": 2172,
      "music": 2173,
      "ebonyi": 2174,
      "british": 2175,
      "message": 2176,
      "commonwealth": 2177,
      "daughter": 2178,
      "global": 2179,
      "together": 2180,
      "22": 2181,
      "bail": 2182,
      "cies": 2183,
      "dut": 2184,
      "data": 2185,
      "ez": 2186,
      "fake": 2187,
      "fuel": 2188,
      "gur": 2189,
      "jer": 2190,
      "mur": 2191,
      "mult": 2192,
      "nd": 2193,
      "nas": 2194,
      "pal": 2195,
      "pap": 2196,
      "sac": 2197,
      "ually": 2198,
      "requ": 2199,
      "total": 2200,
      "army": 2201,
      "itut": 2202,
      "illegal": 2203,
      "sequ": 2204,
      "adding": 2205,
      "beat": 2206,
      "white": 2207,
      "forts": 2208,
      "academ": 2209,
      "delt": 2210,
      "determin": 2211,
      "prosec": 2212,
      "outbreak": 2213,
      "exist": 2214,
      "price": 2215,
      "2016": 2216,
      "discus": 2217,
      "clim": 2218,
      "aster": 2219,
      "works": 2220,
      "something": 2221,
      "centre": 2222,
      "efforts": 2223,
      "playing": 2224,
      "breaking": 2225,
      "pped": 2226,
      "maid": 2227,
      "includ": 2228,
      "organization": 2229,
      "burnt": 2230,
      "closed": 2231,
      "committed": 2232,
      "stopped": 2233,
      "femi": 2234,
      "victor": 2235,
      "detention": 2236,
      "spokesperson": 2237,
      "makers": 2238,
      "achieve": 2239,
      "learn": 2240,
      "troop": 2241,
      "target": 2242,
      "condemned": 2243,
      "arsenal": 2244,
      "delta": 2245,
      "bon": 2246,
      "bag": 2247,
      "cir": 2248,
      "eg": 2249,
      "eth": 2250,
      "ians": 2251,
      "lay": 2252,
      "nes": 2253,
      "nomin": 2254,
      "osc": 2255,
      "pu": 2256,
      "pen": 2257,
      "ping": 2258,
      "turn": 2259,
      "zy": 2260,
      "inau": 2261,
      "ange": 2262,
      "rever": 2263,
      "research": 2264,
      "stories": 2265,
      "iting": 2266,
      "vember": 2267,
      "ami": 2268,
      "formed": 2269,
      "accep": 2270,
      "november": 2271,
      "lying": 2272,
      "congress": 2273,
      "ressed": 2274,
      "cell": 2275,
      "short": 2276,
      "thern": 2277,
      "press": 2278,
      "feeding": 2279,
      "acting": 2280,
      "oka": 2281,
      "served": 2282,
      "regime": 2283,
      "ference": 2284,
      "efcc": 2285,
      "avid": 2286,
      "avail": 2287,
      "shows": 2288,
      "universities": 2289,
      "warned": 2290,
      "politics": 2291,
      "winner": 2292,
      "affair": 2293,
      "final": 2294,
      "quality": 2295,
      "payment": 2296,
      "planning": 2297,
      "running": 2298,
      "ception": 2299,
      "failed": 2300,
      "january": 2301,
      "independent": 2302,
      "deliver": 2303,
      "front": 2304,
      "lawyer": 2305,
      "langu": 2306,
      "implementation": 2307,
      "future": 2308,
      "john": 2309,
      "troops": 2310,
      "13": 2311,
      "18": 2312,
      "ibut": 2313,
      "jail": 2314,
      "ls": 2315,
      "ost": 2316,
      "rice": 2317,
      "tin": 2318,
      "tre": 2319,
      "yemi": 2320,
      "thinking": 2321,
      "anim": 2322,
      "ara": 2323,
      "ices": 2324,
      "began": 2325,
      "ames": 2326,
      "ament": 2327,
      "niger": 2328,
      "trou": 2329,
      "trial": 2330,
      "trade": 2331,
      "embar": 2332,
      "shi": 2333,
      "necess": 2334,
      "moved": 2335,
      "anti": 2336,
      "porters": 2337,
      "febr": 2338,
      "grace": 2339,
      "july": 2340,
      "umu": 2341,
      "eff": 2342,
      "ugg": 2343,
      "197": 2344,
      "198": 2345,
      "institution": 2346,
      "healthcare": 2347,
      "needs": 2348,
      "kidnappers": 2349,
      "respond": 2350,
      "single": 2351,
      "foundation": 2352,
      "reality": 2353,
      "naija": 2354,
      "truth": 2355,
      "journalists": 2356,
      "critical": 2357,
      "sunday": 2358,
      "fifty": 2359,
      "lady": 2360,
      "yusuf": 2361,
      "little": 2362,
      "masqu": 2363,
      "begin": 2364,
      "announced": 2365,
      "filed": 2366,
      "territories": 2367,
      "integr": 2368,
      "alleged": 2369,
      "companies": 2370,
      "certificate": 2371,
      "whether": 2372,
      "corpse": 2373,
      "bit": 2374,
      "doll": 2375,
      "gi": 2376,
      "hig": 2377,
      "iance": 2378,
      "kad": 2379,
      "lin": 2380,
      "mand": 2381,
      "mom": 2382,
      "ume": 2383,
      "yed": 2384,
      "ature": 2385,
      "really": 2386,
      "aling": 2387,
      "aria": 2388,
      "oma": 2389,
      "seek": 2390,
      "aded": 2391,
      "bear": 2392,
      "olves": 2393,
      "room": 2394,
      "areporters": 2395,
      "ceed": 2396,
      "emek": 2397,
      "bok": 2398,
      "appl": 2399,
      "manuel": 2400,
      "youth": 2401,
      "aud": 2402,
      "meas": 2403,
      "okp": 2404,
      "course": 2405,
      "marry": 2406,
      "elected": 2407,
      "sss": 2408,
      "strateg": 2409,
      "prepare": 2410,
      "calls": 2411,
      "colanut": 2412,
      "regist": 2413,
      "federation": 2414,
      "borrow": 2415,
      "phil": 2416,
      "spoke": 2417,
      "fund": 2418,
      "chibok": 2419,
      "communities": 2420,
      "contract": 2421,
      "qualified": 2422,
      "importance": 2423,
      "struction": 2424,
      "operation": 2425,
      "property": 2426,
      "effective": 2427,
      "increased": 2428,
      "traditional": 2429,
      "wednes": 2430,
      "programme": 2431,
      "russia": 2432,
      "conduct": 2433,
      "improve": 2434,
      "saharareporters": 2435,
      "overseas": 2436,
      "language": 2437,
      "february": 2438,
      "emeka": 2439,
      "wednesday": 2440,
      "bom": 2441,
      "die": 2442,
      "david": 2443,
      "eas": 2444,
      "gb": 2445,
      "half": 2446,
      "jur": 2447,
      "kwe": 2448,
      "mic": 2449,
      "rol": 2450,
      "river": 2451,
      "sil": 2452,
      "reco": 2453,
      "itself": 2454,
      "icide": 2455,
      "igence": 2456,
      "heav": 2457,
      "try": 2458,
      "owo": 2459,
      "aka": 2460,
      "teen": 2461,
      "artist": 2462,
      "brid": 2463,
      "fest": 2464,
      "aft": 2465,
      "commer": 2466,
      "2014": 2467,
      "shehu": 2468,
      "internet": 2469,
      "astru": 2470,
      "wood": 2471,
      "ilekan": 2472,
      "joy": 2473,
      "driver": 2474,
      "rench": 2475,
      "lawmakers": 2476,
      "indic": 2477,
      "player": 2478,
      "names": 2479,
      "hands": 2480,
      "handle": 2481,
      "produce": 2482,
      "looked": 2483,
      "ordered": 2484,
      "early": 2485,
      "appear": 2486,
      "subs": 2487,
      "constitution": 2488,
      "ussd": 2489,
      "representative": 2490,
      "problems": 2491,
      "contesting": 2492,
      "critic": 2493,
      "tured": 2494,
      "complain": 2495,
      "currently": 2496,
      "punish": 2497,
      "placed": 2498,
      "teachers": 2499,
      "treatment": 2500,
      "immediately": 2501,
      "growth": 2502,
      "viously": 2503,
      "infrastru": 2504,
      "olamilekan": 2505,
      "breadfruit": 2506,
      "available": 2507,
      "kaduna": 2508,
      "infrastruct": 2509,
      "broad": 2510,
      "ele": 2511,
      "eye": 2512,
      "echi": 2513,
      "fill": 2514,
      "game": 2515,
      "hin": 2516,
      "hit": 2517,
      "ired": 2518,
      "kore": 2519,
      "native": 2520,
      "ring": 2521,
      "sold": 2522,
      "tig": 2523,
      "tained": 2524,
      "treason": 2525,
      "uals": 2526,
      "vant": 2527,
      "wal": 2528,
      "inary": 2529,
      "atory": 2530,
      "onwu": 2531,
      "encies": 2532,
      "stre": 2533,
      "stic": 2534,
      "tot": 2535,
      "toile": 2536,
      "ings": 2537,
      "anda": 2538,
      "hest": 2539,
      "vers": 2540,
      "petr": 2541,
      "ctors": 2542,
      "lywood": 2543,
      "consu": 2544,
      "trying": 2545,
      "abi": 2546,
      "emen": 2547,
      "alloc": 2548,
      "appoint": 2549,
      "whole": 2550,
      "loc": 2551,
      "ival": 2552,
      "fever": 2553,
      "afcon": 2554,
      "mechan": 2555,
      "governments": 2556,
      "ichi": 2557,
      "clus": 2558,
      "wole": 2559,
      "jose": 2560,
      "hood": 2561,
      "owned": 2562,
      "cola": 2563,
      "certain": 2564,
      "kills": 2565,
      "olden": 2566,
      "full": 2567,
      "deser": 2568,
      "charges": 2569,
      "institut": 2570,
      "goods": 2571,
      "ribut": 2572,
      "fighting": 2573,
      "rather": 2574,
      "operatives": 2575,
      "society": 2576,
      "ification": 2577,
      "properties": 2578,
      "icians": 2579,
      "iciary": 2580,
      "concern": 2581,
      "bases": 2582,
      "campaigns": 2583,
      "collabor": 2584,
      "orders": 2585,
      "garba": 2586,
      "vehicles": 2587,
      "trafficking": 2588,
      "samuel": 2589,
      "division": 2590,
      "innocent": 2591,
      "champion": 2592,
      "products": 2593,
      "europe": 2594,
      "customers": 2595,
      "inaugur": 2596,
      "masquer": 2597,
      "infrastructure": 2598,
      "100": 2599,
      "27": 2600,
      "40": 2601,
      "bichi": 2602,
      "camer": 2603,
      "eld": 2604,
      "either": 2605,
      "flood": 2606,
      "ihe": 2607,
      "ibra": 2608,
      "lines": 2609,
      "mp": 2610,
      "nur": 2611,
      "ndi": 2612,
      "swe": 2613,
      "squ": 2614,
      "udo": 2615,
      "intell": 2616,
      "anal": 2617,
      "encour": 2618,
      "alone": 2619,
      "sept": 2620,
      "separ": 2621,
      "forum": 2622,
      "imm": 2623,
      "bus": 2624,
      "suicide": 2625,
      "convic": 2626,
      "construction": 2627,
      "tried": 2628,
      "training": 2629,
      "west": 2630,
      "aba": 2631,
      "uri": 2632,
      "ember": 2633,
      "emmanuel": 2634,
      "note": 2635,
      "appointed": 2636,
      "plate": 2637,
      "outside": 2638,
      "iven": 2639,
      "expect": 2640,
      "harm": 2641,
      "commended": 2642,
      "jukwu": 2643,
      "partners": 2644,
      "cris": 2645,
      "mind": 2646,
      "minimum": 2647,
      "anybody": 2648,
      "canada": 2649,
      "strugg": 2650,
      "predic": 2651,
      "ibility": 2652,
      "personal": 2653,
      "didn": 2654,
      "student": 2655,
      "politicians": 2656,
      "ruiz": 2657,
      "captured": 2658,
      "judg": 2659,
      "judiciary": 2660,
      "carried": 2661,
      "false": 2662,
      "danger": 2663,
      "questions": 2664,
      "towards": 2665,
      "receiving": 2666,
      "defeat": 2667,
      "believed": 2668,
      "denied": 2669,
      "increase": 2670,
      "girls": 2671,
      "television": 2672,
      "republicans": 2673,
      "vote": 2674,
      "farmers": 2675,
      "green": 2676,
      "agreement": 2677,
      "abdulla": 2678,
      "assured": 2679,
      "possible": 2680,
      "spirit": 2681,
      "facilities": 2682,
      "legisl": 2683,
      "doub": 2684,
      "insurg": 2685,
      "accepted": 2686,
      "affairs": 2687,
      "okpala": 2688,
      "recogn": 2689,
      "ibrahim": 2690,
      "intelligence": 2691,
      "september": 2692,
      "21": 2693,
      "23": 2694,
      "26": 2695,
      "dap": 2696,
      "domin": 2697,
      "hous": 2698,
      "hence": 2699,
      "mour": 2700,
      "ojukwu": 2701,
      "pm": 2702,
      "pain": 2703,
      "rank": 2704,
      "rail": 2705,
      "sle": 2706,
      "send": 2707,
      "tree": 2708,
      "uch": 2709,
      "vs": 2710,
      "wish": 2711,
      "yes": 2712,
      "zi": 2713,
      "ona": 2714,
      "rep": 2715,
      "reven": 2716,
      "sty": 2717,
      "stad": 2718,
      "orji": 2719,
      "itor": 2720,
      "enter": 2721,
      "ilies": 2722,
      "igwe": 2723,
      "chance": 2724,
      "select": 2725,
      "ado": 2726,
      "heard": 2727,
      "forced": 2728,
      "accept": 2729,
      "nobody": 2730,
      "rodu": 2731,
      "ayo": 2732,
      "iri": 2733,
      "ately": 2734,
      "mention": 2735,
      "track": 2736,
      "ource": 2737,
      "abs": 2738,
      "empower": 2739,
      "boss": 2740,
      "shed": 2741,
      "provide": 2742,
      "thering": 2743,
      "moke": 2744,
      "appre": 2745,
      "plat": 2746,
      "plant": 2747,
      "soil": 2748,
      "pose": 2749,
      "love": 2750,
      "grap": 2751,
      "counts": 2752,
      "minute": 2753,
      "pread": 2754,
      "knows": 2755,
      "attend": 2756,
      "calling": 2757,
      "musa": 2758,
      "host": 2759,
      "serving": 2760,
      "space": 2761,
      "ekiti": 2762,
      "sina": 2763,
      "indig": 2764,
      "regular": 2765,
      "visited": 2766,
      "plays": 2767,
      "ugwu": 2768,
      "introdu": 2769,
      "fai": 2770,
      "ahmed": 2771,
      "families": 2772,
      "funds": 2773,
      "standing": 2774,
      "standard": 2775,
      "issued": 2776,
      "response": 2777,
      "maintain": 2778,
      "followed": 2779,
      "indeed": 2780,
      "trave": 2781,
      "inside": 2782,
      "brings": 2783,
      "profession": 2784,
      "limited": 2785,
      "latest": 2786,
      "stock": 2787,
      "shops": 2788,
      "suffer": 2789,
      "distribut": 2790,
      "agriculture": 2791,
      "natal": 2792,
      "selling": 2793,
      "advant": 2794,
      "holding": 2795,
      "nuj": 2796,
      "remains": 2797,
      "employment": 2798,
      "queen": 2799,
      "granted": 2800,
      "inflation": 2801,
      "patients": 2802,
      "sacked": 2803,
      "individuals": 2804,
      "paper": 2805,
      "includes": 2806,
      "okafor": 2807,
      "necessary": 2808,
      "highest": 2809,
      "moment": 2810,
      "dapchi": 2811,
      "70": 2812,
      "bi": 2813,
      "bour": 2814,
      "creat": 2815,
      "dress": 2816,
      "fair": 2817,
      "french": 2818,
      "gives": 2819,
      "ibu": 2820,
      "low": 2821,
      "lack": 2822,
      "mid": 2823,
      "male": 2824,
      "ncc": 2825,
      "obey": 2826,
      "som": 2827,
      "spread": 2828,
      "tw": 2829,
      "wage": 2830,
      "wolves": 2831,
      "inspe": 2832,
      "initi": 2833,
      "injur": 2834,
      "ond": 2835,
      "almost": 2836,
      "ises": 2837,
      "andal": 2838,
      "iced": 2839,
      "ils": 2840,
      "idris": 2841,
      "whom": 2842,
      "ford": 2843,
      "acity": 2844,
      "rob": 2845,
      "imp": 2846,
      "build": 2847,
      "agu": 2848,
      "mental": 2849,
      "save": 2850,
      "resources": 2851,
      "abo": 2852,
      "abdu": 2853,
      "urant": 2854,
      "shown": 2855,
      "neigh": 2856,
      "ulation": 2857,
      "uses": 2858,
      "pover": 2859,
      "governance": 2860,
      "artic": 2861,
      "bris": 2862,
      "worth": 2863,
      "auto": 2864,
      "ield": 2865,
      "affect": 2866,
      "cru": 2867,
      "liby": 2868,
      "anya": 2869,
      "marx": 2870,
      "thered": 2871,
      "adequ": 2872,
      "achukwu": 2873,
      "ured": 2874,
      "type": 2875,
      "resta": 2876,
      "monday": 2877,
      "else": 2878,
      "ukrain": 2879,
      "earth": 2880,
      "benin": 2881,
      "benue": 2882,
      "tai": 2883,
      "commitment": 2884,
      "crime": 2885,
      "businesses": 2886,
      "activist": 2887,
      "detail": 2888,
      "paul": 2889,
      "challen": 2890,
      "collap": 2891,
      "telecom": 2892,
      "passed": 2893,
      "officials": 2894,
      "transportation": 2895,
      "sustain": 2896,
      "sickness": 2897,
      "motor": 2898,
      "adamawa": 2899,
      "june": 2900,
      "destroyed": 2901,
      "primary": 2902,
      "murder": 2903,
      "discussion": 2904,
      "effici": 2905,
      "bomb": 2906,
      "crisis": 2907,
      "judgment": 2908,
      "abdullahi": 2909,
      ",”": 2910,
      "25": 2911,
      "28": 2912,
      "45": 2913,
      "base": 2914,
      "crow": 2915,
      "cattle": 2916,
      "date": 2917,
      "dies": 2918,
      "fav": 2919,
      "gl": 2920,
      "ier": 2921,
      "kat": 2922,
      "kha": 2923,
      "mere": 2924,
      "none": 2925,
      "site": 2926,
      "tren": 2927,
      "tank": 2928,
      "usu": 2929,
      "insu": 2930,
      "rearrest": 2931,
      "ener": 2932,
      "edo": 2933,
      "stars": 2934,
      "ases": 2935,
      "asking": 2936,
      "arin": 2937,
      "aration": 2938,
      "ington": 2939,
      "ites": 2940,
      "entire": 2941,
      "omo": 2942,
      "ida": 2943,
      "ides": 2944,
      "imes": 2945,
      "impe": 2946,
      "unities": 2947,
      "agencies": 2948,
      "sued": 2949,
      "fraud": 2950,
      "resolved": 2951,
      "resolution": 2952,
      "comment": 2953,
      "tered": 2954,
      "ably": 2955,
      "boost": 2956,
      "bobris": 2957,
      "neither": 2958,
      "soon": 2959,
      "manag": 2960,
      "loot": 2961,
      "ext": 2962,
      "examp": 2963,
      "docu": 2964,
      "worn": 2965,
      "craft": 2966,
      "medic": 2967,
      "cook": 2968,
      "coco": 2969,
      "coordin": 2970,
      "joint": 2971,
      "strike": 2972,
      "pregn": 2973,
      "idea": 2974,
      "dry": 2975,
      "evidence": 2976,
      "showing": 2977,
      "syr": 2978,
      "occas": 2979,
      "instance": 2980,
      "belong": 2981,
      "surv": 2982,
      "suring": 2983,
      "northern": 2984,
      "gathering": 2985,
      "function": 2986,
      "higher": 2987,
      "fourth": 2988,
      "decided": 2989,
      "addition": 2990,
      "related": 2991,
      "relevant": 2992,
      "itude": 2993,
      "miss": 2994,
      "schools": 2995,
      "contribut": 2996,
      "gotten": 2997,
      "wonder": 2998,
      "fathers": 2999,
      "singer": 3000,
      "investigating": 3001,
      "reasons": 3002,
      "postnatal": 3003,
      "ological": 3004,
      "amaechi": 3005,
      "conflic": 3006,
      "created": 3007,
      "approach": 3008,
      "commander": 3009,
      "progressives": 3010,
      "wedding": 3011,
      "muslim": 3012,
      "meanwhile": 3013,
      "opportunities": 3014,
      "neymar": 3015,
      "declaration": 3016,
      "scheme": 3017,
      "recorded": 3018,
      "nnabu": 3019,
      "assistant": 3020,
      "small": 3021,
      "communications": 3022,
      "fellow": 3023,
      "constituency": 3024,
      "picture": 3025,
      "sacr": 3026,
      "determination": 3027,
      "measures": 3028,
      "heavy": 3029,
      "korea": 3030,
      "doubt": 3031,
      "twice": 3032,
      "poverty": 3033,
      "libya": 3034,
      "restaurant": 3035,
      "katsina": 3036,
      "bobrisky": 3037,
      "example": 3038,
      "cop": 3039,
      "eke": 3040,
      "eji": 3041,
      "flo": 3042,
      "fast": 3043,
      "mate": 3044,
      "mist": 3045,
      "mates": 3046,
      "mike": 3047,
      "nol": 3048,
      "nff": 3049,
      "pc": 3050,
      "rap": 3051,
      "roll": 3052,
      "table": 3053,
      "ube": 3054,
      "wide": 3055,
      "yst": 3056,
      "zak": 3057,
      "oni": 3058,
      "ongoing": 3059,
      "ense": 3060,
      "ension": 3061,
      "orney": 3062,
      "alive": 3063,
      "isi": 3064,
      "arm": 3065,
      "icial": 3066,
      "entered": 3067,
      "sey": 3068,
      "rog": 3069,
      "imag": 3070,
      "demon": 3071,
      "agents": 3072,
      "train": 3073,
      "eman": 3074,
      "bot": 3075,
      "neg": 3076,
      "near": 3077,
      "ifo": 3078,
      "moi": 3079,
      "ession": 3080,
      "dog": 3081,
      "feel": 3082,
      "identified": 3083,
      "commend": 3084,
      "commence": 3085,
      "igbokwe": 3086,
      "disclosed": 3087,
      "joe": 3088,
      "ota": 3089,
      "attorney": 3090,
      "focus": 3091,
      "afraid": 3092,
      "abuse": 3093,
      "retur": 3094,
      "jected": 3095,
      "accusing": 3096,
      "uguri": 3097,
      "changed": 3098,
      "investors": 3099,
      "norway": 3100,
      "petition": 3101,
      "mostly": 3102,
      "promot": 3103,
      "promise": 3104,
      "winning": 3105,
      "decamp": 3106,
      "capacity": 3107,
      "burial": 3108,
      "qualif": 3109,
      "positions": 3110,
      "posted": 3111,
      "malami": 3112,
      "policemen": 3113,
      "moral": 3114,
      "built": 3115,
      "majority": 3116,
      "express": 3117,
      "titled": 3118,
      "christian": 3119,
      "facebook": 3120,
      "punch": 3121,
      "responsible": 3122,
      "beyond": 3123,
      "sustained": 3124,
      "consumer": 3125,
      "covered": 3126,
      "reached": 3127,
      "speaker": 3128,
      "locked": 3129,
      "private": 3130,
      "awareness": 3131,
      "premier": 3132,
      "experience": 3133,
      "guaran": 3134,
      "dropped": 3135,
      "large": 3136,
      "duty": 3137,
      "prosecution": 3138,
      "maiduguri": 3139,
      "nominated": 3140,
      "broadcast": 3141,
      "street": 3142,
      "toilet": 3143,
      "joseph": 3144,
      "institutions": 3145,
      "plateau": 3146,
      "insurgents": 3147,
      "stadium": 3148,
      "advantage": 3149,
      "adequate": 3150,
      "ukraine": 3151,
      "khafi": 3152,
      "impeach": 3153,
      "nnabuihe": 3154,
      ".\"": 3155,
      "aver": 3156,
      "aut": 3157,
      "cut": 3158,
      "cough": 3159,
      "ders": 3160,
      "field": 3161,
      "games": 3162,
      "jona": 3163,
      "kin": 3164,
      "kuk": 3165,
      "ler": 3166,
      "lind": 3167,
      "lassa": 3168,
      "ram": 3169,
      "rac": 3170,
      "rates": 3171,
      "rivers": 3172,
      "source": 3173,
      "ugo": 3174,
      "udu": 3175,
      "yout": 3176,
      "ane": 3177,
      "ano": 3178,
      "anch": 3179,
      "rem": 3180,
      "remin": 3181,
      "request": 3182,
      "enem": 3183,
      "enough": 3184,
      "enjoy": 3185,
      "stu": 3186,
      "oring": 3187,
      "orig": 3188,
      "aldo": 3189,
      "tom": 3190,
      "esp": 3191,
      "leice": 3192,
      "leav": 3193,
      "ilar": 3194,
      "chad": 3195,
      "olve": 3196,
      "goog": 3197,
      "unle": 3198,
      "bum": 3199,
      "bukola": 3200,
      "deploy": 3201,
      "sug": 3202,
      "supre": 3203,
      "ctions": 3204,
      "compe": 3205,
      "cement": 3206,
      "term": 3207,
      "abroad": 3208,
      "tel": 3209,
      "ulated": 3210,
      "istics": 3211,
      "exclus": 3212,
      "ively": 3213,
      "doctors": 3214,
      "antly": 3215,
      "actors": 3216,
      "actual": 3217,
      "dian": 3218,
      "okon": 3219,
      "partner": 3220,
      "object": 3221,
      "obviously": 3222,
      "therefore": 3223,
      "iple": 3224,
      "ously": 3225,
      "achi": 3226,
      "prepar": 3227,
      "attempt": 3228,
      "izing": 3229,
      "cyber": 3230,
      "events": 3231,
      "cold": 3232,
      "laws": 3233,
      "ferred": 3234,
      "accus": 3235,
      "border": 3236,
      "solarin": 3237,
      "engine": 3238,
      "warri": 3239,
      "syrup": 3240,
      "reporters": 3241,
      "occur": 3242,
      "install": 3243,
      "heads": 3244,
      "petrole": 3245,
      "explain": 3246,
      "finance": 3247,
      "relations": 3248,
      "judicial": 3249,
      "continent": 3250,
      "missing": 3251,
      "evening": 3252,
      "pleas": 3253,
      "please": 3254,
      "bakare": 3255,
      "index": 3256,
      "ruled": 3257,
      "listed": 3258,
      "concerned": 3259,
      "planned": 3260,
      "parent": 3261,
      "similar": 3262,
      "basis": 3263,
      "welcome": 3264,
      "allowed": 3265,
      "clearly": 3266,
      "terrorists": 3267,
      "independence": 3268,
      "britain": 3269,
      "nysc": 3270,
      "ronaldo": 3271,
      "equip": 3272,
      "tournam": 3273,
      "adesina": 3274,
      "responsibility": 3275,
      "interviewed": 3276,
      "authority": 3277,
      "provid": 3278,
      "honour": 3279,
      "particularly": 3280,
      "ethn": 3281,
      "tinubu": 3282,
      "dollars": 3283,
      "bridge": 3284,
      "commercial": 3285,
      "iveness": 3286,
      "medicine": 3287,
      "jonathan": 3288,
      "youtube": 3289,
      "leicester": 3290,
      "google": 3291,
      "petroleum": 3292,
      "..": 3293,
      "37": 3294,
      "500": 3295,
      "``": 3296,
      "aim": 3297,
      "battle": 3298,
      "cow": 3299,
      "cli": 3300,
      "card": 3301,
      "cise": 3302,
      "fans": 3303,
      "hom": 3304,
      "ires": 3305,
      "jim": 3306,
      "kare": 3307,
      "lab": 3308,
      "lap": 3309,
      "np": 3310,
      "naf": 3311,
      "oz": 3312,
      "ọ": 3313,
      "ote": 3314,
      "rat": 3315,
      "ril": 3316,
      "rass": 3317,
      "rally": 3318,
      "skills": 3319,
      "twe": 3320,
      "tip": 3321,
      "task": 3322,
      "vig": 3323,
      "wum": 3324,
      "throw": 3325,
      "ination": 3326,
      "ince": 3327,
      "india": 3328,
      "ery": 3329,
      "oned": 3330,
      "onoun": 3331,
      "online": 3332,
      "repre": 3333,
      "oration": 3334,
      "ali": 3335,
      "asing": 3336,
      "argu": 3337,
      "ese": 3338,
      "ionages": 3339,
      "entrepre": 3340,
      "seat": 3341,
      "seem": 3342,
      "amoun": 3343,
      "forward": 3344,
      "robb": 3345,
      "suspect": 3346,
      "concl": 3347,
      "reser": 3348,
      "comfort": 3349,
      "opin": 3350,
      "wash": 3351,
      "alliance": 3352,
      "box": 3353,
      "moses": 3354,
      "april": 3355,
      "manu": 3356,
      "loved": 3357,
      "laun": 3358,
      "examin": 3359,
      "arters": 3360,
      "pronoun": 3361,
      "dialo": 3362,
      "gry": 3363,
      "quarters": 3364,
      "counsel": 3365,
      "lectur": 3366,
      "obama": 3367,
      "cance": 3368,
      "adele": 3369,
      "guard": 3370,
      "drink": 3371,
      "worker": 3372,
      "ibom": 3373,
      "serve": 3374,
      "senior": 3375,
      "scandal": 3376,
      "ignment": 3377,
      "uded": 3378,
      "whereas": 3379,
      "regard": 3380,
      "although": 3381,
      "gang": 3382,
      "charged": 3383,
      "investment": 3384,
      "ahia": 3385,
      "famous": 3386,
      "gener": 3387,
      "supporters": 3388,
      "handling": 3389,
      "cheap": 3390,
      "relig": 3391,
      "tenham": 3392,
      "organisation": 3393,
      "itute": 3394,
      "salary": 3395,
      "salaries": 3396,
      "corrupt": 3397,
      "keshi": 3398,
      "summit": 3399,
      "rape": 3400,
      "psg": 3401,
      "casual": 3402,
      "completed": 3403,
      "wrong": 3404,
      "trust": 3405,
      "truck": 3406,
      "signed": 3407,
      "appropr": 3408,
      "diseases": 3409,
      "praying": 3410,
      "adviser": 3411,
      "damages": 3412,
      "2007": 3413,
      "makes": 3414,
      "emerged": 3415,
      "1999": 3416,
      "madrid": 3417,
      "movement": 3418,
      "declared": 3419,
      "written": 3420,
      "record": 3421,
      "jobs": 3422,
      "conducted": 3423,
      "employed": 3424,
      "scient": 3425,
      "science": 3426,
      "revolutionary": 3427,
      "statistics": 3428,
      "allegation": 3429,
      "expert": 3430,
      "embarrass": 3431,
      "umuahia": 3432,
      "integrity": 3433,
      "subsid": 3434,
      "tottenham": 3435,
      "european": 3436,
      "faith": 3437,
      "abducted": 3438,
      "favour": 3439,
      "manager": 3440,
      "guarantee": 3441,
      "origin": 3442,
      "espionages": 3443,
      "supreme": 3444,
      "tweet": 3445,
      "entreprene": 3446,
      "?.": 3447,
      "bol": 3448,
      "dac": 3449,
      "dail": 3450,
      "gif": 3451,
      "greg": 3452,
      "han": 3453,
      "hor": 3454,
      "iy": 3455,
      "lig": 3456,
      "lony": 3457,
      "mac": 3458,
      "ng": 3459,
      "ns": 3460,
      "oth": 3461,
      "pow": 3462,
      "ption": 3463,
      "pharm": 3464,
      "rum": 3465,
      "rhin": 3466,
      "sr": 3467,
      "sir": 3468,
      "song": 3469,
      "tor": 3470,
      "tact": 3471,
      "wast": 3472,
      "yo": 3473,
      "zor": 3474,
      "theme": 3475,
      "anci": 3476,
      "onye": 3477,
      "ream": 3478,
      "repe": 3479,
      "ena": 3480,
      "ened": 3481,
      "ensuring": 3482,
      "station": 3483,
      "orge": 3484,
      "orious": 3485,
      "isra": 3486,
      "ofor": 3487,
      "arily": 3488,
      "itation": 3489,
      "items": 3490,
      "ication": 3491,
      "ential": 3492,
      "chines": 3493,
      "adop": 3494,
      "beaut": 3495,
      "whate": 3496,
      "veget": 3497,
      "forman": 3498,
      "forty": 3499,
      "goes": 3500,
      "bush": 3501,
      "buying": 3502,
      "suit": 3503,
      "suspe": 3504,
      "wear": 3505,
      "akwa": 3506,
      "moving": 3507,
      "ister": 3508,
      "ples": 3509,
      "william": 3510,
      "manif": 3511,
      "manner": 3512,
      "governing": 3513,
      "exer": 3514,
      "extra": 3515,
      "uta": 3516,
      "prior": 3517,
      "brand": 3518,
      "felony": 3519,
      "ighalo": 3520,
      "gra": 3521,
      "grat": 3522,
      "permission": 3523,
      "performan": 3524,
      "2012": 3525,
      "2013": 3526,
      "ghalu": 3527,
      "disqualified": 3528,
      "offer": 3529,
      "joke": 3530,
      "courts": 3531,
      "preced": 3532,
      "knowing": 3533,
      "knowled": 3534,
      "attention": 3535,
      "workshop": 3536,
      "aircraft": 3537,
      "sense": 3538,
      "fulfill": 3539,
      "materi": 3540,
      "channel": 3541,
      "studies": 3542,
      "instag": 3543,
      "institute": 3544,
      "promote": 3545,
      "inclus": 3546,
      "explains": 3547,
      "supporting": 3548,
      "talking": 3549,
      "kids": 3550,
      "eping": 3551,
      "helped": 3552,
      "helps": 3553,
      "organis": 3554,
      "mothers": 3555,
      "bai": 3556,
      "soldier": 3557,
      "investigate": 3558,
      "appeared": 3559,
      "eagle": 3560,
      "malaria": 3561,
      "receive": 3562,
      "numer": 3563,
      "detained": 3564,
      "peaceful": 3565,
      "representatives": 3566,
      "weeks": 3567,
      "biafran": 3568,
      "viral": 3569,
      "nwag": 3570,
      "sentenced": 3571,
      "stood": 3572,
      "deceased": 3573,
      "buildings": 3574,
      "opened": 3575,
      "defend": 3576,
      "killings": 3577,
      "emerg": 3578,
      "advoc": 3579,
      "eaten": 3580,
      "nutr": 3581,
      "witnesses": 3582,
      "1967": 3583,
      "consumers": 3584,
      "expensive": 3585,
      "benefit": 3586,
      "suspension": 3587,
      "reduce": 3588,
      "environmental": 3589,
      "sitting": 3590,
      "birthday": 3591,
      "mobil": 3592,
      "experts": 3593,
      "climb": 3594,
      "penal": 3595,
      "johnson": 3596,
      "trouble": 3597,
      "strategic": 3598,
      "tiger": 3599,
      "treasonable": 3600,
      "conviction": 3601,
      "houses": 3602,
      "revenue": 3603,
      "distribution": 3604,
      "robber": 3605,
      "above": 3606,
      "challenge": 3607,
      "usually": 3608,
      "document": 3609,
      "cocoyam": 3610,
      "occasion": 3611,
      "mikel": 3612,
      "suggest": 3613,
      "exclusive": 3614,
      "occurred": 3615,
      "tournament": 3616,
      "ethnic": 3617,
      "kareem": 3618,
      "nafdac": 3619,
      "opinion": 3620,
      "dialogue": 3621,
      "daily": 3622,
      "ancient": 3623,
      "chinese": 3624,
      "whatever": 3625,
      "suspected": 3626,
      "knowledge": 3627,
      "60": 3628,
      "bay": 3629,
      "bash": 3630,
      "dil": 3631,
      "dig": 3632,
      "dome": 3633,
      "dance": 3634,
      "flying": 3635,
      "gy": 3636,
      "hum": 3637,
      "kins": 3638,
      "lion": 3639,
      "mun": 3640,
      "nis": 3641,
      "ngo": 3642,
      "nne": 3643,
      "osho": 3644,
      "pie": 3645,
      "plead": 3646,
      "rant": 3647,
      "sw": 3648,
      "sad": 3649,
      "sources": 3650,
      "tn": 3651,
      "tem": 3652,
      "udi": 3653,
      "va": 3654,
      "vation": 3655,
      "wak": 3656,
      "wale": 3657,
      "wise": 3658,
      "zer": 3659,
      "thom": 3660,
      "iness": 3661,
      "repl": 3662,
      "removed": 3663,
      "ening": 3664,
      "enforce": 3665,
      "star": 3666,
      "stage": 3667,
      "stren": 3668,
      "arawa": 3669,
      "ita": 3670,
      "lege": 3671,
      "sets": 3672,
      "seems": 3673,
      "becoming": 3674,
      "hear": 3675,
      "acu": 3676,
      "acqu": 3677,
      "root": 3678,
      "impris": 3679,
      "uni": 3680,
      "delay": 3681,
      "safe": 3682,
      "saudi": 3683,
      "rescu": 3684,
      "traged": 3685,
      "oph": 3686,
      "weight": 3687,
      "weah": 3688,
      "hael": 3689,
      "ternal": 3690,
      "terms": 3691,
      "ables": 3692,
      "urg": 3693,
      "ema": 3694,
      "notorious": 3695,
      "shal": 3696,
      "shame": 3697,
      "provision": 3698,
      "iful": 3699,
      "mode": 3700,
      "moghalu": 3701,
      "apart": 3702,
      "istic": 3703,
      "losing": 3704,
      "lazy": 3705,
      "utical": 3706,
      "pressure": 3707,
      "door": 3708,
      "pra": 3709,
      "brain": 3710,
      "bride": 3711,
      "brief": 3712,
      "kee": 3713,
      "kept": 3714,
      "afford": 3715,
      "acts": 3716,
      "actor": 3717,
      "active": 3718,
      "actress": 3719,
      "okoye": 3720,
      "okocha": 3721,
      "okuta": 3722,
      "ially": 3723,
      "counter": 3724,
      "george": 3725,
      "llor": 3726,
      "umn": 3727,
      "herds": 3728,
      "minu": 3729,
      "oblig": 3730,
      "anyi": 3731,
      "ache": 3732,
      "aceutical": 3733,
      "server": 3734,
      "serena": 3735,
      "newsmen": 3736,
      "cylind": 3737,
      "igned": 3738,
      "college": 3739,
      "regret": 3740,
      "personnel": 3741,
      "supplement": 3742,
      "contro": 3743,
      "ika": 3744,
      "everybody": 3745,
      "max": 3746,
      "engage": 3747,
      "england": 3748,
      "symp": 3749,
      "kings": 3750,
      "seeing": 3751,
      "banky": 3752,
      "invaded": 3753,
      "gathered": 3754,
      "putting": 3755,
      "winners": 3756,
      "stands": 3757,
      "producing": 3758,
      "consist": 3759,
      "flag": 3760,
      "organised": 3761,
      "kidnapper": 3762,
      "cleared": 3763,
      "powerful": 3764,
      "falana": 3765,
      "secondary": 3766,
      "raised": 3767,
      "millions": 3768,
      "operations": 3769,
      "complex": 3770,
      "believes": 3771,
      "telling": 3772,
      "valid": 3773,
      "value": 3774,
      "confident": 3775,
      "ekweremmadu": 3776,
      "biggest": 3777,
      "prayer": 3778,
      "uwaifo": 3779,
      "understands": 3780,
      "understanding": 3781,
      "succeed": 3782,
      "tribun": 3783,
      "fortun": 3784,
      "places": 3785,
      "losses": 3786,
      "regulator": 3787,
      "completely": 3788,
      "writer": 3789,
      "eighty": 3790,
      "drawn": 3791,
      "addressing": 3792,
      "provided": 3793,
      "motiv": 3794,
      "debate": 3795,
      "turned": 3796,
      "influ": 3797,
      "established": 3798,
      "panel": 3799,
      "conditions": 3800,
      "couple": 3801,
      "yoruba": 3802,
      "priests": 3803,
      "results": 3804,
      "palm": 3805,
      "academic": 3806,
      "oscar": 3807,
      "oscars": 3808,
      "respondent": 3809,
      "borrowed": 3810,
      "michael": 3811,
      "mechanisation": 3812,
      "prediction": 3813,
      "mentioned": 3814,
      "appreci": 3815,
      "travell": 3816,
      "ibute": 3817,
      "somet": 3818,
      "article": 3819,
      "telecoms": 3820,
      "efficient": 3821,
      "tanker": 3822,
      "insul": 3823,
      "syrian": 3824,
      "nollywood": 3825,
      "demonstr": 3826,
      "decamped": 3827,
      "average": 3828,
      "kukah": 3829,
      "leaving": 3830,
      "amount": 3831,
      "washington": 3832,
      "pharmaceutical": 3833,
      "beautiful": 3834,
      "manifest": 3835,
      "performance": 3836,
      "instagram": 3837,
      "numerous": 3838,
      "domestic": 3839,
      "streng": 3840,
      "imprisonment": 3841,
      "cylinders": 3842,
      "supplementary": 3843,
      "bin": 3844,
      "bil": 3845,
      "bare": 3846,
      "bless": 3847,
      "fig": 3848,
      "fash": 3849,
      "gas": 3850,
      "hur": 3851,
      "hot": 3852,
      "ih": 3853,
      "iation": 3854,
      "ked": 3855,
      "kog": 3856,
      "lament": 3857,
      "mail": 3858,
      "nc": 3859,
      "ndu": 3860,
      "narr": 3861,
      "oshi": 3862,
      "pin": 3863,
      "pes": 3864,
      "pir": 3865,
      "path": 3866,
      "rad": 3867,
      "race": 3868,
      "rural": 3869,
      "sco": 3870,
      "session": 3871,
      "tu": 3872,
      "van": 3873,
      "zed": 3874,
      "thus": 3875,
      "inho": 3876,
      "informed": 3877,
      "anth": 3878,
      "ancy": 3879,
      "atu": 3880,
      "onu": 3881,
      "reau": 3882,
      "recall": 3883,
      "review": 3884,
      "restruct": 3885,
      "eni": 3886,
      "enable": 3887,
      "stor": 3888,
      "ora": 3889,
      "isa": 3890,
      "ison": 3891,
      "iter": 3892,
      "itive": 3893,
      "icit": 3894,
      "icated": 3895,
      "lee": 3896,
      "idem": 3897,
      "chose": 3898,
      "chelse": 3899,
      "advice": 3900,
      "beha": 3901,
      "amid": 3902,
      "hearing": 3903,
      "forbid": 3904,
      "olar": 3905,
      "unknown": 3906,
      "unanya": 3907,
      "bureau": 3908,
      "deleg": 3909,
      "atest": 3910,
      "illness": 3911,
      "consc": 3912,
      "conference": 3913,
      "weak": 3914,
      "hair": 3915,
      "haji": 3916,
      "akin": 3917,
      "bog": 3918,
      "proceed": 3919,
      "iff": 3920,
      "moder": 3921,
      "ulu": 3922,
      "usi": 3923,
      "outcome": 3924,
      "lai": 3925,
      "launder": 3926,
      "arts": 3927,
      "princ": 3928,
      "feed": 3929,
      "feature": 3930,
      "harass": 3931,
      "peoples": 3932,
      "diver": 3933,
      "ends": 3934,
      "endu": 3935,
      "odu": 3936,
      "upon": 3937,
      "juvent": 3938,
      "herself": 3939,
      "crash": 3940,
      "observed": 3941,
      "dubai": 3942,
      "liament": 3943,
      "dismis": 3944,
      "intervent": 3945,
      "cos": 3946,
      "achuz": 3947,
      "jos": 3948,
      "previous": 3949,
      "drivers": 3950,
      "ibade": 3951,
      "hotel": 3952,
      "newspaper": 3953,
      "spain": 3954,
      "spurs": 3955,
      "evacu": 3956,
      "ounds": 3957,
      "gets": 3958,
      "colour": 3959,
      "column": 3960,
      "indow": 3961,
      "supply": 3962,
      "contained": 3963,
      "ministers": 3964,
      "iversary": 3965,
      "monitor": 3966,
      "desire": 3967,
      "breach": 3968,
      "engaging": 3969,
      "study": 3970,
      "bello": 3971,
      "phys": 3972,
      "promises": 3973,
      "invited": 3974,
      "poses": 3975,
      "spoken": 3976,
      "ltd": 3977,
      "letide": 3978,
      "funding": 3979,
      "handed": 3980,
      "wins": 3981,
      "decis": 3982,
      "presently": 3983,
      "flour": 3984,
      "flash": 3985,
      "background": 3986,
      "parliament": 3987,
      "annual": 3988,
      "anniversary": 3989,
      "clement": 3990,
      "salad": 3991,
      "happening": 3992,
      "danie": 3993,
      "babies": 3994,
      "insist": 3995,
      "rules": 3996,
      "ificant": 3997,
      "statements": 3998,
      "patric": 3999
    },
    "merges": [
      [
        "t",
        "h"
      ],
      [
        "i",
        "n"
      ],
      [
        "th",
        "e"
      ],
      [
        "e",
        "r"
      ],
      [
        "a",
        "n"
      ],
      [
        "a",
        "t"
      ],
      [
        "o",
        "n"
      ],
      [
        "r",
        "e"
      ],
      [
        "e",
        "n"
      ],
      [
        "e",
        "d"
      ],
      [
        "s",
        "t"
      ],
      [
        "o",
        "r"
      ],
      [
        "a",
        "l"
      ],
      [
        "i",
        "s"
      ],
      [
        "o",
        "f"
      ],
      [
        "t",
        "o"
      ],
      [
        "o",
        "u"
      ],
      [
        "a",
        "s"
      ],
      [
        "a",
        "r"
      ],
      [
        "in",
        "g"
      ],
      [
        "i",
        "t"
      ],
      [
        "an",
        "d"
      ],
      [
        "e",
        "s"
      ],
      [
        "i",
        "c"
      ],
      [
        "i",
        "on"
      ],
      [
        "l",
        "e"
      ],
      [
        "en",
        "t"
      ],
      [
        "o",
        "m"
      ],
      [
        "i",
        "l"
      ],
      [
        "i",
        "d"
      ],
      [
        "th",
        "at"
      ],
      [
        "i",
        "g"
      ],
      [
        "c",
        "h"
      ],
      [
        "s",
        "e"
      ],
      [
        "a",
        "d"
      ],
      [
        "b",
        "e"
      ],
      [
        "w",
        "h"
      ],
      [
        "v",
        "e"
      ],
      [
        "a",
        "m"
      ],
      [
        "h",
        "e"
      ],
      [
        "f",
        "or"
      ],
      [
        "o",
        "l"
      ],
      [
        "a",
        "c"
      ],
      [
        "n",
        "o"
      ],
      [
        "v",
        "er"
      ],
      [
        "r",
        "o"
      ],
      [
        "i",
        "m"
      ],
      [
        "g",
        "o"
      ],
      [
        "a",
        "y"
      ],
      [
        "u",
        "n"
      ],
      [
        "i",
        "r"
      ],
      [
        "b",
        "u"
      ],
      [
        "d",
        "e"
      ],
      [
        "at",
        "e"
      ],
      [
        "p",
        "e"
      ],
      [
        "at",
        "ion"
      ],
      [
        "a",
        "re"
      ],
      [
        "il",
        "l"
      ],
      [
        "er",
        "i"
      ],
      [
        "a",
        "g"
      ],
      [
        "s",
        "u"
      ],
      [
        "c",
        "t"
      ],
      [
        "m",
        "ent"
      ],
      [
        "s",
        "a"
      ],
      [
        "f",
        "r"
      ],
      [
        "n",
        "ig"
      ],
      [
        "er",
        "s"
      ],
      [
        "l",
        "y"
      ],
      [
        "c",
        "on"
      ],
      [
        "re",
        "s"
      ],
      [
        "t",
        "r"
      ],
      [
        "c",
        "om"
      ],
      [
        "nig",
        "eri"
      ],
      [
        "o",
        "p"
      ],
      [
        "c",
        "e"
      ],
      [
        "w",
        "e"
      ],
      [
        "h",
        "a"
      ],
      [
        "t",
        "er"
      ],
      [
        "w",
        "as"
      ],
      [
        "ou",
        "r"
      ],
      [
        "a",
        "b"
      ],
      [
        "u",
        "r"
      ],
      [
        "h",
        "as"
      ],
      [
        "o",
        "w"
      ],
      [
        "l",
        "d"
      ],
      [
        "e",
        "m"
      ],
      [
        "no",
        "t"
      ],
      [
        "sa",
        "id"
      ],
      [
        "w",
        "i"
      ],
      [
        "a",
        "k"
      ],
      [
        "al",
        "l"
      ],
      [
        "b",
        "o"
      ],
      [
        "s",
        "h"
      ],
      [
        "wi",
        "th"
      ],
      [
        "t",
        "e"
      ],
      [
        "n",
        "e"
      ],
      [
        "p",
        "ro"
      ],
      [
        "the",
        "r"
      ],
      [
        "i",
        "f"
      ],
      [
        "m",
        "o"
      ],
      [
        "b",
        "y"
      ],
      [
        "a",
        "p"
      ],
      [
        "a",
        "in"
      ],
      [
        "u",
        "l"
      ],
      [
        "i",
        "st"
      ],
      [
        "u",
        "s"
      ],
      [
        "p",
        "l"
      ],
      [
        "w",
        "ill"
      ],
      [
        "on",
        "e"
      ],
      [
        "s",
        "o"
      ],
      [
        "ha",
        "ve"
      ],
      [
        "st",
        "ate"
      ],
      [
        "ou",
        "n"
      ],
      [
        "p",
        "o"
      ],
      [
        "m",
        "an"
      ],
      [
        "h",
        "is"
      ],
      [
        "go",
        "ver"
      ],
      [
        "gover",
        "n"
      ],
      [
        "th",
        "is"
      ],
      [
        "wh",
        "o"
      ],
      [
        "nigeri",
        "a"
      ],
      [
        "ou",
        "t"
      ],
      [
        "the",
        "y"
      ],
      [
        "er",
        "e"
      ],
      [
        "it",
        "y"
      ],
      [
        "l",
        "o"
      ],
      [
        "ic",
        "e"
      ],
      [
        "e",
        "t"
      ],
      [
        "i",
        "v"
      ],
      [
        "fr",
        "om"
      ],
      [
        "l",
        "a"
      ],
      [
        "e",
        "x"
      ],
      [
        "ar",
        "t"
      ],
      [
        "u",
        "t"
      ],
      [
        "p",
        "res"
      ],
      [
        "the",
        "ir"
      ],
      [
        "es",
        "s"
      ],
      [
        "i",
        "es"
      ],
      [
        "2",
        "0"
      ],
      [
        "i",
        "ve"
      ],
      [
        "ou",
        "ld"
      ],
      [
        "d",
        "o"
      ],
      [
        "p",
        "r"
      ],
      [
        "or",
        "t"
      ],
      [
        "b",
        "r"
      ],
      [
        "w",
        "or"
      ],
      [
        "d",
        "ay"
      ],
      [
        "y",
        "ou"
      ],
      [
        "o",
        "re"
      ],
      [
        "an",
        "t"
      ],
      [
        "k",
        "e"
      ],
      [
        "a",
        "u"
      ],
      [
        "p",
        "ort"
      ],
      [
        "f",
        "e"
      ],
      [
        "id",
        "ent"
      ],
      [
        "i",
        "e"
      ],
      [
        "h",
        "ar"
      ],
      [
        "a",
        "f"
      ],
      [
        "y",
        "e"
      ],
      [
        "pe",
        "op"
      ],
      [
        "ac",
        "t"
      ],
      [
        "no",
        "w"
      ],
      [
        "peop",
        "le"
      ],
      [
        "d",
        "i"
      ],
      [
        "an",
        "s"
      ],
      [
        "com",
        "m"
      ],
      [
        "m",
        "e"
      ],
      [
        "ig",
        "h"
      ],
      [
        "en",
        "d"
      ],
      [
        "bu",
        "t"
      ],
      [
        "o",
        "k"
      ],
      [
        "govern",
        "ment"
      ],
      [
        "g",
        "r"
      ],
      [
        "o",
        "d"
      ],
      [
        "o",
        "ther"
      ],
      [
        "u",
        "p"
      ],
      [
        "q",
        "u"
      ],
      [
        "p",
        "er"
      ],
      [
        "p",
        "ol"
      ],
      [
        "i",
        "al"
      ],
      [
        "at",
        "ed"
      ],
      [
        "20",
        "1"
      ],
      [
        "j",
        "u"
      ],
      [
        "c",
        "oun"
      ],
      [
        "i",
        "a"
      ],
      [
        "g",
        "e"
      ],
      [
        "l",
        "l"
      ],
      [
        "ar",
        "y"
      ],
      [
        "ig",
        "bo"
      ],
      [
        "u",
        "m"
      ],
      [
        "h",
        "er"
      ],
      [
        "p",
        "art"
      ],
      [
        "g",
        "h"
      ],
      [
        "ne",
        "w"
      ],
      [
        "c",
        "r"
      ],
      [
        "le",
        "ct"
      ],
      [
        "d",
        "er"
      ],
      [
        "w",
        "ere"
      ],
      [
        "h",
        "im"
      ],
      [
        "the",
        "m"
      ],
      [
        "m",
        "in"
      ],
      [
        "be",
        "en"
      ],
      [
        "o",
        "b"
      ],
      [
        "pres",
        "ident"
      ],
      [
        "d",
        "u"
      ],
      [
        "w",
        "om"
      ],
      [
        "l",
        "i"
      ],
      [
        "ac",
        "k"
      ],
      [
        "ic",
        "h"
      ],
      [
        "an",
        "y"
      ],
      [
        "om",
        "e"
      ],
      [
        "h",
        "ad"
      ],
      [
        "c",
        "an"
      ],
      [
        "d",
        "is"
      ],
      [
        "ag",
        "e"
      ],
      [
        "c",
        "our"
      ],
      [
        "s",
        "he"
      ],
      [
        "m",
        "ed"
      ],
      [
        "in",
        "ter"
      ],
      [
        "m",
        "ar"
      ],
      [
        "wh",
        "at"
      ],
      [
        "c",
        "l"
      ],
      [
        "al",
        "so"
      ],
      [
        "c",
        "or"
      ],
      [
        "the",
        "re"
      ],
      [
        "a",
        "st"
      ],
      [
        "w",
        "o"
      ],
      [
        "t",
        "im"
      ],
      [
        "ad",
        "e"
      ],
      [
        "wh",
        "en"
      ],
      [
        "of",
        "f"
      ],
      [
        "igh",
        "t"
      ],
      [
        "i",
        "p"
      ],
      [
        "b",
        "er"
      ],
      [
        "d",
        "ing"
      ],
      [
        "ou",
        "s"
      ],
      [
        "c",
        "o"
      ],
      [
        "ye",
        "ar"
      ],
      [
        "n",
        "ation"
      ],
      [
        "ak",
        "e"
      ],
      [
        "e",
        "st"
      ],
      [
        "a",
        "ch"
      ],
      [
        "e",
        "lect"
      ],
      [
        "w",
        "ould"
      ],
      [
        "it",
        "ion"
      ],
      [
        "it",
        "s"
      ],
      [
        "th",
        "ing"
      ],
      [
        "am",
        "e"
      ],
      [
        "ac",
        "e"
      ],
      [
        "nigeri",
        "an"
      ],
      [
        "g",
        "u"
      ],
      [
        "i",
        "le"
      ],
      [
        "j",
        "o"
      ],
      [
        "s",
        "s"
      ],
      [
        "cour",
        "t"
      ],
      [
        "st",
        "r"
      ],
      [
        "p",
        "re"
      ],
      [
        "wh",
        "ich"
      ],
      [
        "o",
        "t"
      ],
      [
        "on",
        "g"
      ],
      [
        "a",
        "w"
      ],
      [
        "in",
        "e"
      ],
      [
        "bu",
        "har"
      ],
      [
        "buhar",
        "i"
      ],
      [
        "coun",
        "tr"
      ],
      [
        "id",
        "e"
      ],
      [
        "u",
        "re"
      ],
      [
        "ab",
        "out"
      ],
      [
        "c",
        "au"
      ],
      [
        "d",
        "r"
      ],
      [
        "u",
        "b"
      ],
      [
        "en",
        "ce"
      ],
      [
        "k",
        "now"
      ],
      [
        "at",
        "t"
      ],
      [
        "wor",
        "k"
      ],
      [
        "f",
        "ore"
      ],
      [
        "i",
        "z"
      ],
      [
        "ou",
        "gh"
      ],
      [
        "s",
        "ome"
      ],
      [
        "i",
        "b"
      ],
      [
        "ar",
        "d"
      ],
      [
        "c",
        "all"
      ],
      [
        "re",
        "n"
      ],
      [
        "a",
        "ir"
      ],
      [
        "f",
        "o"
      ],
      [
        "u",
        "e"
      ],
      [
        "an",
        "ce"
      ],
      [
        "is",
        "h"
      ],
      [
        "for",
        "m"
      ],
      [
        "o",
        "ver"
      ],
      [
        "ic",
        "al"
      ],
      [
        "cau",
        "se"
      ],
      [
        "ag",
        "ain"
      ],
      [
        "m",
        "u"
      ],
      [
        "as",
        "s"
      ],
      [
        "c",
        "ent"
      ],
      [
        "f",
        "ir"
      ],
      [
        "h",
        "o"
      ],
      [
        "s",
        "pe"
      ],
      [
        "il",
        "d"
      ],
      [
        "s",
        "er"
      ],
      [
        "re",
        "e"
      ],
      [
        "o",
        "se"
      ],
      [
        "govern",
        "or"
      ],
      [
        "new",
        "s"
      ],
      [
        "as",
        "e"
      ],
      [
        "se",
        "c"
      ],
      [
        "an",
        "k"
      ],
      [
        "ver",
        "y"
      ],
      [
        "t",
        "s"
      ],
      [
        "re",
        "d"
      ],
      [
        "a",
        "fr"
      ],
      [
        "c",
        "ial"
      ],
      [
        "countr",
        "y"
      ],
      [
        "s",
        "ion"
      ],
      [
        "er",
        "al"
      ],
      [
        "le",
        "ad"
      ],
      [
        "be",
        "cause"
      ],
      [
        "af",
        "ter"
      ],
      [
        "s",
        "p"
      ],
      [
        "wom",
        "en"
      ],
      [
        "c",
        "y"
      ],
      [
        "e",
        "v"
      ],
      [
        "i",
        "ver"
      ],
      [
        "pol",
        "ice"
      ],
      [
        "w",
        "ay"
      ],
      [
        "ch",
        "ild"
      ],
      [
        "oun",
        "d"
      ],
      [
        "elect",
        "ion"
      ],
      [
        "ow",
        "n"
      ],
      [
        "e",
        "k"
      ],
      [
        "p",
        "ers"
      ],
      [
        "m",
        "em"
      ],
      [
        "i",
        "ed"
      ],
      [
        "s",
        "en"
      ],
      [
        "afr",
        "ic"
      ],
      [
        "th",
        "ose"
      ],
      [
        "com",
        "p"
      ],
      [
        "a",
        "il"
      ],
      [
        "s",
        "c"
      ],
      [
        "s",
        "in"
      ],
      [
        "ve",
        "l"
      ],
      [
        "br",
        "a"
      ],
      [
        "g",
        "et"
      ],
      [
        "t",
        "wo"
      ],
      [
        "ig",
        "n"
      ],
      [
        "c",
        "ol"
      ],
      [
        "t",
        "y"
      ],
      [
        "sh",
        "ould"
      ],
      [
        "la",
        "w"
      ],
      [
        "t",
        "ed"
      ],
      [
        "u",
        "d"
      ],
      [
        "ab",
        "le"
      ],
      [
        "nation",
        "al"
      ],
      [
        "or",
        "y"
      ],
      [
        "in",
        "d"
      ],
      [
        "ent",
        "s"
      ],
      [
        "tim",
        "e"
      ],
      [
        "s",
        "ed"
      ],
      [
        "wh",
        "ere"
      ],
      [
        "a",
        "bu"
      ],
      [
        "v",
        "ic"
      ],
      [
        "at",
        "es"
      ],
      [
        "again",
        "st"
      ],
      [
        "re",
        "st"
      ],
      [
        "mo",
        "re"
      ],
      [
        "ju",
        "st"
      ],
      [
        "b",
        "b"
      ],
      [
        "v",
        "ed"
      ],
      [
        "re",
        "g"
      ],
      [
        "un",
        "der"
      ],
      [
        "c",
        "er"
      ],
      [
        "wh",
        "ile"
      ],
      [
        "or",
        "s"
      ],
      [
        "nigeri",
        "ans"
      ],
      [
        "l",
        "ic"
      ],
      [
        "f",
        "er"
      ],
      [
        "wor",
        "ld"
      ],
      [
        "ou",
        "p"
      ],
      [
        "us",
        "ed"
      ],
      [
        "be",
        "t"
      ],
      [
        "pers",
        "on"
      ],
      [
        "e",
        "f"
      ],
      [
        "su",
        "p"
      ],
      [
        "k",
        "ill"
      ],
      [
        "li",
        "ke"
      ],
      [
        "year",
        "s"
      ],
      [
        "s",
        "ay"
      ],
      [
        "ol",
        "d"
      ],
      [
        "w",
        "u"
      ],
      [
        "man",
        "y"
      ],
      [
        "fir",
        "st"
      ],
      [
        "h",
        "ow"
      ],
      [
        "f",
        "ul"
      ],
      [
        "com",
        "e"
      ],
      [
        "d",
        "id"
      ],
      [
        "th",
        "an"
      ],
      [
        "an",
        "am"
      ],
      [
        "be",
        "fore"
      ],
      [
        "con",
        "t"
      ],
      [
        "v",
        "is"
      ],
      [
        "it",
        "ies"
      ],
      [
        "min",
        "ist"
      ],
      [
        "iver",
        "s"
      ],
      [
        "anam",
        "bra"
      ],
      [
        "i",
        "k"
      ],
      [
        "m",
        "y"
      ],
      [
        "ion",
        "s"
      ],
      [
        "m",
        "r"
      ],
      [
        "m",
        "on"
      ],
      [
        "al",
        "th"
      ],
      [
        "m",
        "ade"
      ],
      [
        "ul",
        "t"
      ],
      [
        "201",
        "9"
      ],
      [
        "o",
        "g"
      ],
      [
        "in",
        "to"
      ],
      [
        "c",
        "k"
      ],
      [
        "n",
        "ing"
      ],
      [
        "pl",
        "ay"
      ],
      [
        "am",
        "p"
      ],
      [
        "l",
        "and"
      ],
      [
        "m",
        "at"
      ],
      [
        "the",
        "se"
      ],
      [
        "ain",
        "ed"
      ],
      [
        "f",
        "ed"
      ],
      [
        "p",
        "ub"
      ],
      [
        "it",
        "e"
      ],
      [
        "ad",
        "u"
      ],
      [
        "res",
        "s"
      ],
      [
        "we",
        "ll"
      ],
      [
        "h",
        "am"
      ],
      [
        "a",
        "v"
      ],
      [
        "re",
        "t"
      ],
      [
        "ct",
        "ed"
      ],
      [
        "bb",
        "c"
      ],
      [
        "j",
        "e"
      ],
      [
        "inter",
        "est"
      ],
      [
        "m",
        "en"
      ],
      [
        "is",
        "sion"
      ],
      [
        "d",
        "es"
      ],
      [
        "i",
        "an"
      ],
      [
        "t",
        "ion"
      ],
      [
        "w",
        "ant"
      ],
      [
        "ac",
        "c"
      ],
      [
        "ow",
        "ore"
      ],
      [
        "b",
        "re"
      ],
      [
        "i",
        "re"
      ],
      [
        "u",
        "g"
      ],
      [
        "gr",
        "oup"
      ],
      [
        "1",
        "9"
      ],
      [
        "mar",
        "k"
      ],
      [
        "s",
        "owore"
      ],
      [
        "al",
        "ly"
      ],
      [
        "call",
        "ed"
      ],
      [
        "e",
        "very"
      ],
      [
        "m",
        "il"
      ],
      [
        "re",
        "at"
      ],
      [
        "to",
        "ld"
      ],
      [
        "ro",
        "ad"
      ],
      [
        "g",
        "ed"
      ],
      [
        "se",
        "l"
      ],
      [
        "b",
        "or"
      ],
      [
        "p",
        "p"
      ],
      [
        "in",
        "t"
      ],
      [
        "te",
        "st"
      ],
      [
        "m",
        "a"
      ],
      [
        "pub",
        "lic"
      ],
      [
        "v",
        "ice"
      ],
      [
        "l",
        "es"
      ],
      [
        "r",
        "y"
      ],
      [
        "ve",
        "st"
      ],
      [
        "g",
        "an"
      ],
      [
        "iv",
        "es"
      ],
      [
        "wom",
        "an"
      ],
      [
        "n",
        "ed"
      ],
      [
        "s",
        "ol"
      ],
      [
        "e",
        "l"
      ],
      [
        "ation",
        "s"
      ],
      [
        "sh",
        "ow"
      ],
      [
        "s",
        "ou"
      ],
      [
        "u",
        "k"
      ],
      [
        "en",
        "cy"
      ],
      [
        "un",
        "ivers"
      ],
      [
        "w",
        "a"
      ],
      [
        "h",
        "ou"
      ],
      [
        "en",
        "g"
      ],
      [
        "ap",
        "c"
      ],
      [
        "a",
        "th"
      ],
      [
        "j",
        "a"
      ],
      [
        "w",
        "ar"
      ],
      [
        "to",
        "day"
      ],
      [
        "go",
        "s"
      ],
      [
        "ur",
        "ing"
      ],
      [
        "hou",
        "se"
      ],
      [
        "ct",
        "ion"
      ],
      [
        "la",
        "gos"
      ],
      [
        "f",
        "a"
      ],
      [
        "ch",
        "o"
      ],
      [
        "ch",
        "ar"
      ],
      [
        "d",
        "if"
      ],
      [
        "l",
        "ed"
      ],
      [
        "ch",
        "an"
      ],
      [
        "ak",
        "ing"
      ],
      [
        "fed",
        "eral"
      ],
      [
        "s",
        "y"
      ],
      [
        "t",
        "ing"
      ],
      [
        "de",
        "vel"
      ],
      [
        "devel",
        "op"
      ],
      [
        "at",
        "ing"
      ],
      [
        "re",
        "port"
      ],
      [
        "mil",
        "it"
      ],
      [
        "m",
        "one"
      ],
      [
        "in",
        "c"
      ],
      [
        "in",
        "vest"
      ],
      [
        "ar",
        "rest"
      ],
      [
        "ut",
        "ion"
      ],
      [
        "off",
        "ic"
      ],
      [
        "child",
        "ren"
      ],
      [
        "a",
        "h"
      ],
      [
        "f",
        "am"
      ],
      [
        "i",
        "ous"
      ],
      [
        "st",
        "ud"
      ],
      [
        "al",
        "s"
      ],
      [
        "be",
        "ing"
      ],
      [
        "att",
        "ack"
      ],
      [
        "k",
        "ing"
      ],
      [
        "n",
        "ess"
      ],
      [
        "0",
        "0"
      ],
      [
        "o",
        "c"
      ],
      [
        "in",
        "st"
      ],
      [
        "se",
        "e"
      ],
      [
        "am",
        "er"
      ],
      [
        "pol",
        "it"
      ],
      [
        "mone",
        "y"
      ],
      [
        "g",
        "en"
      ],
      [
        "th",
        "ree"
      ],
      [
        "on",
        "ly"
      ],
      [
        "be",
        "l"
      ],
      [
        "milit",
        "ary"
      ],
      [
        "d",
        "on"
      ],
      [
        "he",
        "ad"
      ],
      [
        "su",
        "r"
      ],
      [
        "n",
        "or"
      ],
      [
        "it",
        "ed"
      ],
      [
        "le",
        "g"
      ],
      [
        "b",
        "ers"
      ],
      [
        "p",
        "h"
      ],
      [
        "th",
        "r"
      ],
      [
        "ol",
        "l"
      ],
      [
        "pe",
        "t"
      ],
      [
        "mo",
        "st"
      ],
      [
        "pr",
        "om"
      ],
      [
        "sou",
        "th"
      ],
      [
        "b",
        "ank"
      ],
      [
        "c",
        "ame"
      ],
      [
        "w",
        "ent"
      ],
      [
        "th",
        "s"
      ],
      [
        "in",
        "v"
      ],
      [
        "st",
        "art"
      ],
      [
        "as",
        "ed"
      ],
      [
        "il",
        "y"
      ],
      [
        "ct",
        "or"
      ],
      [
        "po",
        "s"
      ],
      [
        "thing",
        "s"
      ],
      [
        "c",
        "ess"
      ],
      [
        "re",
        "ad"
      ],
      [
        "he",
        "alth"
      ],
      [
        "c",
        "ed"
      ],
      [
        "t",
        "ake"
      ],
      [
        "in",
        "cl"
      ],
      [
        "comm",
        "ission"
      ],
      [
        "en",
        "s"
      ],
      [
        "n",
        "am"
      ],
      [
        "wh",
        "y"
      ],
      [
        "univers",
        "ity"
      ],
      [
        "s",
        "po"
      ],
      [
        "sec",
        "ur"
      ],
      [
        "g",
        "a"
      ],
      [
        "l",
        "t"
      ],
      [
        "le",
        "t"
      ],
      [
        "go",
        "od"
      ],
      [
        "ha",
        "pp"
      ],
      [
        "ex",
        "pl"
      ],
      [
        "sup",
        "port"
      ],
      [
        "f",
        "un"
      ],
      [
        "h",
        "igh"
      ],
      [
        "p",
        "ed"
      ],
      [
        "p",
        "ut"
      ],
      [
        "if",
        "e"
      ],
      [
        "me",
        "et"
      ],
      [
        "thr",
        "ough"
      ],
      [
        "b",
        "ill"
      ],
      [
        "d",
        "uring"
      ],
      [
        "f",
        "our"
      ],
      [
        "h",
        "and"
      ],
      [
        "w",
        "in"
      ],
      [
        "ch",
        "i"
      ],
      [
        "de",
        "c"
      ],
      [
        "con",
        "d"
      ],
      [
        "af",
        "f"
      ],
      [
        "g",
        "iv"
      ],
      [
        "v",
        "en"
      ],
      [
        "st",
        "and"
      ],
      [
        "ch",
        "e"
      ],
      [
        "ad",
        "d"
      ],
      [
        "comm",
        "un"
      ],
      [
        ".",
        "'"
      ],
      [
        "f",
        "in"
      ],
      [
        "al",
        "e"
      ],
      [
        "amer",
        "ic"
      ],
      [
        "k",
        "an"
      ],
      [
        "t",
        "al"
      ],
      [
        "pro",
        "du"
      ],
      [
        "b",
        "all"
      ],
      [
        "c",
        "i"
      ],
      [
        "c",
        "al"
      ],
      [
        "k",
        "o"
      ],
      [
        "k",
        "id"
      ],
      [
        "is",
        "e"
      ],
      [
        "lo",
        "ok"
      ],
      [
        "pres",
        "ent"
      ],
      [
        "fo",
        "od"
      ],
      [
        "afric",
        "a"
      ],
      [
        "secur",
        "ity"
      ],
      [
        "r",
        "ic"
      ],
      [
        "r",
        "up"
      ],
      [
        "201",
        "8"
      ],
      [
        "mem",
        "bers"
      ],
      [
        "dif",
        "fer"
      ],
      [
        "r",
        "u"
      ],
      [
        "v",
        "ie"
      ],
      [
        "y",
        "our"
      ],
      [
        "tr",
        "ans"
      ],
      [
        "sh",
        "ip"
      ],
      [
        "fo",
        "ot"
      ],
      [
        "sin",
        "ce"
      ],
      [
        "just",
        "ice"
      ],
      [
        "v",
        "es"
      ],
      [
        "st",
        "ill"
      ],
      [
        "as",
        "on"
      ],
      [
        "pl",
        "ace"
      ],
      [
        "develop",
        "ment"
      ],
      [
        "c",
        "ap"
      ],
      [
        "d",
        "y"
      ],
      [
        "h",
        "u"
      ],
      [
        "p",
        "on"
      ],
      [
        "re",
        "l"
      ],
      [
        "ac",
        "cor"
      ],
      [
        "la",
        "st"
      ],
      [
        "part",
        "y"
      ],
      [
        "e",
        "p"
      ],
      [
        "r",
        "i"
      ],
      [
        "ro",
        "w"
      ],
      [
        "ju",
        "d"
      ],
      [
        "know",
        "n"
      ],
      [
        "c",
        "up"
      ],
      [
        "m",
        "adu"
      ],
      [
        "st",
        "ates"
      ],
      [
        "ol",
        "a"
      ],
      [
        "l",
        "ess"
      ],
      [
        "t",
        "en"
      ],
      [
        "su",
        "per"
      ],
      [
        "cont",
        "in"
      ],
      [
        "f",
        "ire"
      ],
      [
        "ch",
        "air"
      ],
      [
        "he",
        "l"
      ],
      [
        "ne",
        "ed"
      ],
      [
        "m",
        "ay"
      ],
      [
        "u",
        "se"
      ],
      [
        "at",
        "ive"
      ],
      [
        "re",
        "le"
      ],
      [
        "con",
        "s"
      ],
      [
        "f",
        "l"
      ],
      [
        "n",
        "ap"
      ],
      [
        "an",
        "other"
      ],
      [
        "or",
        "gan"
      ],
      [
        "it",
        "u"
      ],
      [
        "ow",
        "er"
      ],
      [
        "accor",
        "ding"
      ],
      [
        "d",
        "ss"
      ],
      [
        "d",
        "own"
      ],
      [
        "f",
        "ive"
      ],
      [
        "i",
        "x"
      ],
      [
        "is",
        "ed"
      ],
      [
        "lead",
        "ers"
      ],
      [
        "afric",
        "an"
      ],
      [
        "je",
        "ct"
      ],
      [
        "c",
        "ar"
      ],
      [
        "v",
        "ing"
      ],
      [
        "ist",
        "s"
      ],
      [
        "k",
        "a"
      ],
      [
        "m",
        "is"
      ],
      [
        "o",
        "s"
      ],
      [
        "p",
        "t"
      ],
      [
        "s",
        "cho"
      ],
      [
        "at",
        "ik"
      ],
      [
        "is",
        "su"
      ],
      [
        "mo",
        "ther"
      ],
      [
        "do",
        "es"
      ],
      [
        "mem",
        "ber"
      ],
      [
        "scho",
        "ol"
      ],
      [
        "b",
        "le"
      ],
      [
        "c",
        "es"
      ],
      [
        "c",
        "ould"
      ],
      [
        "w",
        "er"
      ],
      [
        "w",
        "it"
      ],
      [
        "te",
        "am"
      ],
      [
        "off",
        "ice"
      ],
      [
        "form",
        "er"
      ],
      [
        "foot",
        "ball"
      ],
      [
        "atik",
        "u"
      ],
      [
        "c",
        "ur"
      ],
      [
        "on",
        "y"
      ],
      [
        "it",
        "al"
      ],
      [
        "kill",
        "ed"
      ],
      [
        "l",
        "ong"
      ],
      [
        "m",
        "ake"
      ],
      [
        "or",
        "der"
      ],
      [
        "ic",
        "k"
      ],
      [
        "su",
        "re"
      ],
      [
        "con",
        "tr"
      ],
      [
        "differ",
        "ent"
      ],
      [
        "d",
        "s"
      ],
      [
        "r",
        "ight"
      ],
      [
        "im",
        "o"
      ],
      [
        "bu",
        "r"
      ],
      [
        "med",
        "ia"
      ],
      [
        "b",
        "ack"
      ],
      [
        "e",
        "ar"
      ],
      [
        "j",
        "i"
      ],
      [
        "w",
        "at"
      ],
      [
        "go",
        "t"
      ],
      [
        "meet",
        "ing"
      ],
      [
        "as",
        "k"
      ],
      [
        "bo",
        "dy"
      ],
      [
        "pr",
        "of"
      ],
      [
        "sel",
        "f"
      ],
      [
        "kid",
        "nap"
      ],
      [
        "b",
        "ar"
      ],
      [
        "c",
        "are"
      ],
      [
        "p",
        "ar"
      ],
      [
        "res",
        "pon"
      ],
      [
        "m",
        "ain"
      ],
      [
        "w",
        "on"
      ],
      [
        "re",
        "su"
      ],
      [
        "st",
        "er"
      ],
      [
        "am",
        "ong"
      ],
      [
        "de",
        "mo"
      ],
      [
        "we",
        "en"
      ],
      [
        "ev",
        "en"
      ],
      [
        "bet",
        "ween"
      ],
      [
        "chair",
        "man"
      ],
      [
        "c",
        "ase"
      ],
      [
        "z",
        "e"
      ],
      [
        "an",
        "n"
      ],
      [
        "ie",
        "f"
      ],
      [
        "qu",
        "al"
      ],
      [
        "fa",
        "ther"
      ],
      [
        "fam",
        "ily"
      ],
      [
        "stud",
        "ents"
      ],
      [
        "c",
        "le"
      ],
      [
        "l",
        "ife"
      ],
      [
        "s",
        "on"
      ],
      [
        "s",
        "al"
      ],
      [
        "mu",
        "ham"
      ],
      [
        ")",
        ","
      ],
      [
        "b",
        "a"
      ],
      [
        "b",
        "en"
      ],
      [
        "c",
        "lo"
      ],
      [
        "v",
        "i"
      ],
      [
        "st",
        "ated"
      ],
      [
        "j",
        "or"
      ],
      [
        "p",
        "le"
      ],
      [
        "p",
        "ower"
      ],
      [
        "go",
        "ing"
      ],
      [
        "with",
        "out"
      ],
      [
        "p",
        "ay"
      ],
      [
        "fe",
        "ct"
      ],
      [
        "igbo",
        "s"
      ],
      [
        "ser",
        "vice"
      ],
      [
        "mark",
        "et"
      ],
      [
        "sol",
        "di"
      ],
      [
        "giv",
        "en"
      ],
      [
        "demo",
        "cr"
      ],
      [
        "p",
        "are"
      ],
      [
        "s",
        "ing"
      ],
      [
        "t",
        "a"
      ],
      [
        "im",
        "port"
      ],
      [
        "comm",
        "it"
      ],
      [
        "cor",
        "rup"
      ],
      [
        "incl",
        "u"
      ],
      [
        "e",
        "con"
      ],
      [
        "f",
        "ar"
      ],
      [
        "f",
        "oll"
      ],
      [
        "o",
        "y"
      ],
      [
        "to",
        "ok"
      ],
      [
        "abu",
        "ja"
      ],
      [
        "econ",
        "om"
      ],
      [
        "foll",
        "ow"
      ],
      [
        "f",
        "al"
      ],
      [
        "k",
        "es"
      ],
      [
        "u",
        "es"
      ],
      [
        "st",
        "ory"
      ],
      [
        "se",
        "cond"
      ],
      [
        "ul",
        "ar"
      ],
      [
        "ough",
        "t"
      ],
      [
        "invest",
        "ig"
      ],
      [
        "f",
        "ight"
      ],
      [
        "n",
        "al"
      ],
      [
        "st",
        "op"
      ],
      [
        "su",
        "m"
      ],
      [
        "arrest",
        "ed"
      ],
      [
        "h",
        "old"
      ],
      [
        "r",
        "a"
      ],
      [
        "t",
        "ak"
      ],
      [
        "th",
        "ir"
      ],
      [
        "se",
        "t"
      ],
      [
        "str",
        "u"
      ],
      [
        "polit",
        "ical"
      ],
      [
        "happ",
        "en"
      ],
      [
        "vie",
        "w"
      ],
      [
        "ch",
        "a"
      ],
      [
        "de",
        "m"
      ],
      [
        "ter",
        "r"
      ],
      [
        "bo",
        "ko"
      ],
      [
        "har",
        "am"
      ],
      [
        "b",
        "ak"
      ],
      [
        "d",
        "p"
      ],
      [
        "d",
        "an"
      ],
      [
        "m",
        "ill"
      ],
      [
        "s",
        "ix"
      ],
      [
        "u",
        "gu"
      ],
      [
        "su",
        "ch"
      ],
      [
        "op",
        "er"
      ],
      [
        "di",
        "re"
      ],
      [
        "gen",
        "eral"
      ],
      [
        "c",
        "a"
      ],
      [
        "g",
        "ress"
      ],
      [
        "h",
        "ip"
      ],
      [
        "v",
        "ent"
      ],
      [
        "v",
        "ide"
      ],
      [
        "in",
        "de"
      ],
      [
        "ap",
        "pe"
      ],
      [
        "way",
        "s"
      ],
      [
        "muham",
        "madu"
      ],
      [
        "g",
        "ive"
      ],
      [
        "n",
        "er"
      ],
      [
        "at",
        "or"
      ],
      [
        "ar",
        "s"
      ],
      [
        "com",
        "pet"
      ],
      [
        "di",
        "ed"
      ],
      [
        "e",
        "ag"
      ],
      [
        "p",
        "s"
      ],
      [
        "p",
        "dp"
      ],
      [
        "en",
        "ugu"
      ],
      [
        "as",
        "h"
      ],
      [
        "com",
        "ing"
      ],
      [
        "cr",
        "im"
      ],
      [
        "ob",
        "i"
      ],
      [
        "pos",
        "ition"
      ],
      [
        "c",
        "amp"
      ],
      [
        "re",
        "ason"
      ],
      [
        "day",
        "s"
      ],
      [
        "start",
        "ed"
      ],
      [
        "hu",
        "man"
      ],
      [
        "b",
        "ab"
      ],
      [
        "i",
        "ke"
      ],
      [
        "o",
        "ye"
      ],
      [
        "is",
        "m"
      ],
      [
        "ic",
        "s"
      ],
      [
        "su",
        "b"
      ],
      [
        "tr",
        "a"
      ],
      [
        "so",
        "ci"
      ],
      [
        "po",
        "st"
      ],
      [
        "other",
        "s"
      ],
      [
        "qu",
        "est"
      ],
      [
        "soldi",
        "ers"
      ],
      [
        "b",
        "l"
      ],
      [
        "c",
        "u"
      ],
      [
        "j",
        "our"
      ],
      [
        "in",
        "s"
      ],
      [
        "to",
        "w"
      ],
      [
        "so",
        "cial"
      ],
      [
        "end",
        "ed"
      ],
      [
        "minist",
        "er"
      ],
      [
        ",",
        "'"
      ],
      [
        "c",
        "as"
      ],
      [
        "f",
        "ur"
      ],
      [
        "f",
        "em"
      ],
      [
        "g",
        "er"
      ],
      [
        "r",
        "ul"
      ],
      [
        "in",
        "a"
      ],
      [
        "an",
        "a"
      ],
      [
        "ed",
        "u"
      ],
      [
        "ol",
        "og"
      ],
      [
        "lo",
        "cal"
      ],
      [
        "iv",
        "ing"
      ],
      [
        "mat",
        "ch"
      ],
      [
        "corrup",
        "tion"
      ],
      [
        "1",
        "0"
      ],
      [
        "e",
        "ast"
      ],
      [
        "f",
        "ound"
      ],
      [
        "m",
        "al"
      ],
      [
        "am",
        "a"
      ],
      [
        "ac",
        "y"
      ],
      [
        "bu",
        "sin"
      ],
      [
        "if",
        "ic"
      ],
      [
        "br",
        "ing"
      ],
      [
        "comp",
        "le"
      ],
      [
        "busin",
        "ess"
      ],
      [
        "e",
        "c"
      ],
      [
        "re",
        "ce"
      ],
      [
        "il",
        "ity"
      ],
      [
        "ro",
        "ss"
      ],
      [
        "state",
        "ment"
      ],
      [
        "sec",
        "ret"
      ],
      [
        "b",
        "ia"
      ],
      [
        "at",
        "ors"
      ],
      [
        "re",
        "cent"
      ],
      [
        "tr",
        "ad"
      ],
      [
        "act",
        "iv"
      ],
      [
        "ine",
        "c"
      ],
      [
        "ue",
        "l"
      ],
      [
        "chan",
        "ge"
      ],
      [
        "s",
        "ame"
      ],
      [
        "re",
        "al"
      ],
      [
        "de",
        "ath"
      ],
      [
        "con",
        "st"
      ],
      [
        "iv",
        "ed"
      ],
      [
        "sen",
        "ate"
      ],
      [
        "expl",
        "ained"
      ],
      [
        "g",
        "reat"
      ],
      [
        "h",
        "ome"
      ],
      [
        "i",
        "end"
      ],
      [
        "p",
        "eri"
      ],
      [
        "the",
        "n"
      ],
      [
        "is",
        "ion"
      ],
      [
        "go",
        "d"
      ],
      [
        "de",
        "fe"
      ],
      [
        "fr",
        "iend"
      ],
      [
        "ab",
        "ia"
      ],
      [
        "pol",
        "ic"
      ],
      [
        "um",
        "p"
      ],
      [
        "inter",
        "national"
      ],
      [
        "d",
        "ed"
      ],
      [
        "f",
        "act"
      ],
      [
        "m",
        "s"
      ],
      [
        "m",
        "or"
      ],
      [
        "o",
        "cha"
      ],
      [
        "p",
        "at"
      ],
      [
        "in",
        "k"
      ],
      [
        "re",
        "member"
      ],
      [
        "pro",
        "per"
      ],
      [
        "jo",
        "in"
      ],
      [
        "bor",
        "n"
      ],
      [
        "americ",
        "a"
      ],
      [
        "f",
        "t"
      ],
      [
        "f",
        "ac"
      ],
      [
        "l",
        "ish"
      ],
      [
        "n",
        "ame"
      ],
      [
        "u",
        "al"
      ],
      [
        "w",
        "r"
      ],
      [
        "y",
        "ing"
      ],
      [
        "ol",
        "ved"
      ],
      [
        "bu",
        "il"
      ],
      [
        "pro",
        "ject"
      ],
      [
        "pr",
        "is"
      ],
      [
        "you",
        "ths"
      ],
      [
        "ib",
        "le"
      ],
      [
        "mu",
        "st"
      ],
      [
        "uk",
        "wu"
      ],
      [
        "bel",
        "ie"
      ],
      [
        "c",
        "ation"
      ],
      [
        "l",
        "ist"
      ],
      [
        "m",
        "b"
      ],
      [
        "n",
        "a"
      ],
      [
        "n",
        "um"
      ],
      [
        "in",
        "du"
      ],
      [
        "ic",
        "i"
      ],
      [
        "con",
        "cer"
      ],
      [
        "te",
        "ll"
      ],
      [
        "dr",
        "ug"
      ],
      [
        "spe",
        "cial"
      ],
      [
        "comp",
        "any"
      ],
      [
        "vic",
        "t"
      ],
      [
        "hel",
        "p"
      ],
      [
        "g",
        "un"
      ],
      [
        "h",
        "ere"
      ],
      [
        "de",
        "t"
      ],
      [
        "pe",
        "ace"
      ],
      [
        "ur",
        "al"
      ],
      [
        "us",
        "s"
      ],
      [
        "pl",
        "an"
      ],
      [
        "po",
        "or"
      ],
      [
        "har",
        "d"
      ],
      [
        "countr",
        "ies"
      ],
      [
        "ian",
        "o"
      ],
      [
        "pare",
        "n"
      ],
      [
        "c",
        "it"
      ],
      [
        "c",
        "ult"
      ],
      [
        "p",
        "a"
      ],
      [
        "s",
        "im"
      ],
      [
        "re",
        "f"
      ],
      [
        "re",
        "present"
      ],
      [
        "se",
        "ven"
      ],
      [
        "ne",
        "ver"
      ],
      [
        "po",
        "in"
      ],
      [
        "commission",
        "er"
      ],
      [
        "ask",
        "ed"
      ],
      [
        "mill",
        "ion"
      ],
      [
        "3",
        "0"
      ],
      [
        "c",
        "la"
      ],
      [
        "e",
        "ver"
      ],
      [
        "r",
        "un"
      ],
      [
        "v",
        "al"
      ],
      [
        "are",
        "d"
      ],
      [
        "con",
        "f"
      ],
      [
        "tr",
        "u"
      ],
      [
        "we",
        "ek"
      ],
      [
        "mu",
        "ch"
      ],
      [
        "say",
        "ing"
      ],
      [
        "offic",
        "er"
      ],
      [
        "spo",
        "kes"
      ],
      [
        "eag",
        "les"
      ],
      [
        "indu",
        "str"
      ],
      [
        "b",
        "as"
      ],
      [
        "d",
        "one"
      ],
      [
        "r",
        "ied"
      ],
      [
        "ch",
        "ief"
      ],
      [
        "lo",
        "od"
      ],
      [
        "act",
        "ion"
      ],
      [
        "work",
        "ers"
      ],
      [
        "ard",
        "s"
      ],
      [
        "vic",
        "es"
      ],
      [
        "prof",
        "ess"
      ],
      [
        "p",
        "end"
      ],
      [
        "an",
        "ut"
      ],
      [
        "al",
        "ways"
      ],
      [
        "be",
        "come"
      ],
      [
        "ag",
        "ency"
      ],
      [
        "we",
        "ver"
      ],
      [
        "te",
        "ch"
      ],
      [
        "ho",
        "wever"
      ],
      [
        "sc",
        "ore"
      ],
      [
        "c",
        "re"
      ],
      [
        "d",
        "en"
      ],
      [
        "h",
        "un"
      ],
      [
        "pe",
        "ct"
      ],
      [
        "ag",
        "es"
      ],
      [
        "po",
        "int"
      ],
      [
        "lead",
        "er"
      ],
      [
        "compet",
        "ition"
      ],
      [
        "bia",
        "fr"
      ],
      [
        "b",
        "ro"
      ],
      [
        "s",
        "ign"
      ],
      [
        "v",
        "ir"
      ],
      [
        "go",
        "al"
      ],
      [
        "pro",
        "te"
      ],
      [
        "po",
        "b"
      ],
      [
        "po",
        "sed"
      ],
      [
        "form",
        "ation"
      ],
      [
        "ser",
        "vices"
      ],
      [
        "ek",
        "wer"
      ],
      [
        "jour",
        "nal"
      ],
      [
        "ekwer",
        "em"
      ],
      [
        "ch",
        "r"
      ],
      [
        "pro",
        "test"
      ],
      [
        "et",
        "y"
      ],
      [
        "ex",
        "ec"
      ],
      [
        "ok",
        "or"
      ],
      [
        "part",
        "ic"
      ],
      [
        "ob",
        "iano"
      ],
      [
        "bre",
        "ak"
      ],
      [
        "ma",
        "jor"
      ],
      [
        "leaders",
        "hip"
      ],
      [
        "bak",
        "ar"
      ],
      [
        "cit",
        "iz"
      ],
      [
        "b",
        "ig"
      ],
      [
        "i",
        "pob"
      ],
      [
        "an",
        "jo"
      ],
      [
        "ur",
        "n"
      ],
      [
        "pro",
        "ble"
      ],
      [
        "ex",
        "pres"
      ],
      [
        "abu",
        "bakar"
      ],
      [
        "ef",
        "fect"
      ],
      [
        "mat",
        "ter"
      ],
      [
        "cla",
        "im"
      ],
      [
        "a",
        "ign"
      ],
      [
        "m",
        "et"
      ],
      [
        "s",
        "an"
      ],
      [
        "t",
        "ain"
      ],
      [
        "st",
        "em"
      ],
      [
        "be",
        "st"
      ],
      [
        "de",
        "ad"
      ],
      [
        "con",
        "test"
      ],
      [
        "pro",
        "cess"
      ],
      [
        "bet",
        "ter"
      ],
      [
        "say",
        "s"
      ],
      [
        "mon",
        "ths"
      ],
      [
        "camp",
        "aign"
      ],
      [
        "i",
        "ate"
      ],
      [
        "t",
        "it"
      ],
      [
        "to",
        "o"
      ],
      [
        "le",
        "ag"
      ],
      [
        "le",
        "ft"
      ],
      [
        "ur",
        "s"
      ],
      [
        "ap",
        "pro"
      ],
      [
        "us",
        "ing"
      ],
      [
        "di",
        "a"
      ],
      [
        "kan",
        "u"
      ],
      [
        "cur",
        "ren"
      ],
      [
        "vi",
        "ol"
      ],
      [
        "tak",
        "en"
      ],
      [
        "happen",
        "ed"
      ],
      [
        "'",
        "."
      ],
      [
        "l",
        "on"
      ],
      [
        "m",
        "i"
      ],
      [
        "p",
        "ast"
      ],
      [
        "ar",
        "ch"
      ],
      [
        "om",
        "oye"
      ],
      [
        "for",
        "ce"
      ],
      [
        "de",
        "part"
      ],
      [
        "are",
        "a"
      ],
      [
        "ur",
        "ch"
      ],
      [
        "comm",
        "and"
      ],
      [
        "dis",
        "e"
      ],
      [
        "tim",
        "es"
      ],
      [
        "iz",
        "ed"
      ],
      [
        "inc",
        "re"
      ],
      [
        "resu",
        "lt"
      ],
      [
        "fur",
        "ther"
      ],
      [
        "omoye",
        "le"
      ],
      [
        "b",
        "and"
      ],
      [
        "g",
        "ir"
      ],
      [
        "l",
        "im"
      ],
      [
        "n",
        "air"
      ],
      [
        "s",
        "ar"
      ],
      [
        "t",
        "wit"
      ],
      [
        "st",
        "e"
      ],
      [
        "al",
        "a"
      ],
      [
        "al",
        "u"
      ],
      [
        "ment",
        "s"
      ],
      [
        "we",
        "l"
      ],
      [
        "pro",
        "gress"
      ],
      [
        "pr",
        "ay"
      ],
      [
        "cr",
        "it"
      ],
      [
        "commun",
        "ity"
      ],
      [
        "wat",
        "er"
      ],
      [
        "democr",
        "acy"
      ],
      [
        "inclu",
        "ding"
      ],
      [
        "vide",
        "o"
      ],
      [
        "industr",
        "y"
      ],
      [
        "nair",
        "a"
      ],
      [
        "b",
        "an"
      ],
      [
        "h",
        "ic"
      ],
      [
        "l",
        "ate"
      ],
      [
        "n",
        "w"
      ],
      [
        "p",
        "or"
      ],
      [
        "s",
        "at"
      ],
      [
        "s",
        "ent"
      ],
      [
        "in",
        "formation"
      ],
      [
        "st",
        "o"
      ],
      [
        "as",
        "se"
      ],
      [
        "ar",
        "i"
      ],
      [
        "he",
        "ld"
      ],
      [
        "un",
        "ity"
      ],
      [
        "de",
        "ce"
      ],
      [
        "tr",
        "ump"
      ],
      [
        "edu",
        "cation"
      ],
      [
        "exec",
        "ut"
      ],
      [
        "gir",
        "l"
      ],
      [
        "twit",
        "ter"
      ],
      [
        "g",
        "ing"
      ],
      [
        "l",
        "ing"
      ],
      [
        "s",
        "port"
      ],
      [
        "t",
        "ure"
      ],
      [
        "t",
        "ues"
      ],
      [
        "th",
        "ank"
      ],
      [
        "or",
        "ies"
      ],
      [
        "om",
        "in"
      ],
      [
        "ch",
        "all"
      ],
      [
        "ad",
        "vis"
      ],
      [
        "sh",
        "op"
      ],
      [
        "if",
        "ied"
      ],
      [
        "cl",
        "ub"
      ],
      [
        "col",
        "l"
      ],
      [
        "minist",
        "ry"
      ],
      [
        "sy",
        "stem"
      ],
      [
        "crim",
        "in"
      ],
      [
        "buil",
        "ding"
      ],
      [
        "okor",
        "ocha"
      ],
      [
        "tues",
        "day"
      ],
      [
        "d",
        "am"
      ],
      [
        "m",
        "ber"
      ],
      [
        "n",
        "wo"
      ],
      [
        "n",
        "nam"
      ],
      [
        "r",
        "an"
      ],
      [
        "s",
        "un"
      ],
      [
        "t",
        "on"
      ],
      [
        "ar",
        "ing"
      ],
      [
        "ar",
        "ound"
      ],
      [
        "it",
        "ution"
      ],
      [
        "se",
        "en"
      ],
      [
        "go",
        "als"
      ],
      [
        "op",
        "en"
      ],
      [
        "te",
        "le"
      ],
      [
        "pl",
        "oy"
      ],
      [
        "pres",
        "id"
      ],
      [
        "20",
        "0"
      ],
      [
        "ob",
        "as"
      ],
      [
        "ho",
        "sp"
      ],
      [
        "vic",
        "tim"
      ],
      [
        "des",
        "p"
      ],
      [
        "ga",
        "ve"
      ],
      [
        "trad",
        "ition"
      ],
      [
        "tech",
        "n"
      ],
      [
        "score",
        "d"
      ],
      [
        "citiz",
        "ens"
      ],
      [
        "a",
        "go"
      ],
      [
        "c",
        "il"
      ],
      [
        "c",
        "us"
      ],
      [
        "e",
        "ze"
      ],
      [
        "g",
        "es"
      ],
      [
        "r",
        "ation"
      ],
      [
        "s",
        "ide"
      ],
      [
        "w",
        "ed"
      ],
      [
        "en",
        "sure"
      ],
      [
        "or",
        "d"
      ],
      [
        "de",
        "f"
      ],
      [
        "with",
        "in"
      ],
      [
        "want",
        "s"
      ],
      [
        "inc",
        "ident"
      ],
      [
        "chr",
        "ist"
      ],
      [
        "nnam",
        "di"
      ],
      [
        "obas",
        "anjo"
      ],
      [
        "f",
        "ace"
      ],
      [
        "f",
        "ree"
      ],
      [
        "g",
        "ar"
      ],
      [
        "h",
        "us"
      ],
      [
        "m",
        "it"
      ],
      [
        "p",
        "ass"
      ],
      [
        "u",
        "ary"
      ],
      [
        "id",
        "ay"
      ],
      [
        "ve",
        "hic"
      ],
      [
        "ol",
        "ution"
      ],
      [
        "ag",
        "ric"
      ],
      [
        "su",
        "f"
      ],
      [
        "ce",
        "p"
      ],
      [
        "bo",
        "th"
      ],
      [
        "mo",
        "ham"
      ],
      [
        "cial",
        "ly"
      ],
      [
        "attack",
        "ed"
      ],
      [
        "inv",
        "olved"
      ],
      [
        "import",
        "ant"
      ],
      [
        "hus",
        "band"
      ],
      [
        "1",
        "2"
      ],
      [
        "c",
        "c"
      ],
      [
        "c",
        "iv"
      ],
      [
        "d",
        "ist"
      ],
      [
        "m",
        "us"
      ],
      [
        "u",
        "wa"
      ],
      [
        "u",
        "che"
      ],
      [
        "x",
        "t"
      ],
      [
        "re",
        "public"
      ],
      [
        "es",
        "pe"
      ],
      [
        "ent",
        "ion"
      ],
      [
        "un",
        "ion"
      ],
      [
        "pe",
        "ter"
      ],
      [
        "com",
        "pl"
      ],
      [
        "wi",
        "fe"
      ],
      [
        "all",
        "ow"
      ],
      [
        "me",
        "an"
      ],
      [
        "age",
        "ment"
      ],
      [
        "nation",
        "s"
      ],
      [
        "fore",
        "ign"
      ],
      [
        "under",
        "stand"
      ],
      [
        "kill",
        "ing"
      ],
      [
        "interest",
        "ing"
      ],
      [
        "nor",
        "th"
      ],
      [
        "issu",
        "e"
      ],
      [
        "cle",
        "ar"
      ],
      [
        "stru",
        "ct"
      ],
      [
        "biafr",
        "a"
      ],
      [
        "ekwerem",
        "adu"
      ],
      [
        "agric",
        "ult"
      ],
      [
        "espe",
        "cially"
      ],
      [
        "5",
        "0"
      ],
      [
        "f",
        "ail"
      ],
      [
        "h",
        "ist"
      ],
      [
        "j",
        "an"
      ],
      [
        "l",
        "at"
      ],
      [
        "l",
        "ight"
      ],
      [
        "re",
        "v"
      ],
      [
        "is",
        "ation"
      ],
      [
        "ch",
        "urch"
      ],
      [
        "se",
        "arch"
      ],
      [
        "un",
        "ited"
      ],
      [
        "ag",
        "ed"
      ],
      [
        "tr",
        "aff"
      ],
      [
        "bo",
        "ok"
      ],
      [
        "gr",
        "am"
      ],
      [
        "aw",
        "ay"
      ],
      [
        "iz",
        "e"
      ],
      [
        "char",
        "ge"
      ],
      [
        "contin",
        "u"
      ],
      [
        "fal",
        "cons"
      ],
      [
        "hold",
        "ers"
      ],
      [
        "desp",
        "ite"
      ],
      [
        "b",
        "n"
      ],
      [
        "m",
        "ak"
      ],
      [
        "n",
        "at"
      ],
      [
        "r",
        "ate"
      ],
      [
        "al",
        "ed"
      ],
      [
        "ol",
        "u"
      ],
      [
        "bu",
        "d"
      ],
      [
        "em",
        "er"
      ],
      [
        "ne",
        "xt"
      ],
      [
        "ye",
        "ster"
      ],
      [
        "cr",
        "ib"
      ],
      [
        "aw",
        "a"
      ],
      [
        "19",
        "9"
      ],
      [
        "dec",
        "ision"
      ],
      [
        "fem",
        "ale"
      ],
      [
        "depart",
        "ment"
      ],
      [
        "c",
        "and"
      ],
      [
        "f",
        "if"
      ],
      [
        "m",
        "ad"
      ],
      [
        "p",
        "op"
      ],
      [
        "v",
        "o"
      ],
      [
        "v",
        "ar"
      ],
      [
        "v",
        "ot"
      ],
      [
        "y",
        "et"
      ],
      [
        "er",
        "ed"
      ],
      [
        "at",
        "ic"
      ],
      [
        "at",
        "ives"
      ],
      [
        "en",
        "e"
      ],
      [
        "id",
        "ed"
      ],
      [
        "ad",
        "minist"
      ],
      [
        "su",
        "c"
      ],
      [
        "fr",
        "u"
      ],
      [
        "fr",
        "iday"
      ],
      [
        "op",
        "port"
      ],
      [
        "ne",
        "t"
      ],
      [
        "201",
        "5"
      ],
      [
        "ach",
        "ie"
      ],
      [
        "pre",
        "vent"
      ],
      [
        "offic",
        "ial"
      ],
      [
        "read",
        "y"
      ],
      [
        "bill",
        "ion"
      ],
      [
        "activ",
        "ities"
      ],
      [
        "num",
        "ber"
      ],
      [
        "drug",
        "s"
      ],
      [
        "hosp",
        "ital"
      ],
      [
        "civ",
        "il"
      ],
      [
        "cand",
        "id"
      ],
      [
        "a",
        "z"
      ],
      [
        "c",
        "ity"
      ],
      [
        "e",
        "b"
      ],
      [
        "k",
        "en"
      ],
      [
        "l",
        "ad"
      ],
      [
        "on",
        "ment"
      ],
      [
        "to",
        "p"
      ],
      [
        "se",
        "ver"
      ],
      [
        "se",
        "ll"
      ],
      [
        "ad",
        "v"
      ],
      [
        "ro",
        "ch"
      ],
      [
        "im",
        "e"
      ],
      [
        "fr",
        "ance"
      ],
      [
        "we",
        "alth"
      ],
      [
        "ak",
        "i"
      ],
      [
        "ant",
        "s"
      ],
      [
        "sel",
        "ves"
      ],
      [
        "ple",
        "ment"
      ],
      [
        "terr",
        "or"
      ],
      [
        "mb",
        "ly"
      ],
      [
        "leag",
        "ue"
      ],
      [
        "asse",
        "mbly"
      ],
      [
        "moham",
        "med"
      ],
      [
        "h",
        "ol"
      ],
      [
        "l",
        "ive"
      ],
      [
        "l",
        "ine"
      ],
      [
        "l",
        "ives"
      ],
      [
        "u",
        "res"
      ],
      [
        "v",
        "ill"
      ],
      [
        "th",
        "ink"
      ],
      [
        "in",
        "es"
      ],
      [
        "no",
        "thing"
      ],
      [
        "tr",
        "ib"
      ],
      [
        "ha",
        "ving"
      ],
      [
        "em",
        "i"
      ],
      [
        "te",
        "e"
      ],
      [
        "do",
        "ctor"
      ],
      [
        "br",
        "ought"
      ],
      [
        "coun",
        "t"
      ],
      [
        "coun",
        "cil"
      ],
      [
        "ge",
        "st"
      ],
      [
        "president",
        "ial"
      ],
      [
        "aw",
        "ka"
      ],
      [
        "ev",
        "ent"
      ],
      [
        "person",
        "s"
      ],
      [
        "vis",
        "it"
      ],
      [
        "mon",
        "th"
      ],
      [
        "rele",
        "ased"
      ],
      [
        "inde",
        "pend"
      ],
      [
        "tow",
        "n"
      ],
      [
        "secret",
        "ary"
      ],
      [
        "curren",
        "t"
      ],
      [
        "bud",
        "get"
      ],
      [
        "yester",
        "day"
      ],
      [
        "b",
        "al"
      ],
      [
        "b",
        "ish"
      ],
      [
        "b",
        "lood"
      ],
      [
        "e",
        "u"
      ],
      [
        "m",
        "aking"
      ],
      [
        "p",
        "un"
      ],
      [
        "as",
        "soci"
      ],
      [
        "for",
        "t"
      ],
      [
        "un",
        "t"
      ],
      [
        "our",
        "s"
      ],
      [
        "ne",
        "y"
      ],
      [
        "pro",
        "gram"
      ],
      [
        "mo",
        "ve"
      ],
      [
        "pl",
        "ac"
      ],
      [
        "man",
        "agement"
      ],
      [
        "lo",
        "ss"
      ],
      [
        "br",
        "it"
      ],
      [
        "au",
        "th"
      ],
      [
        "fe",
        "w"
      ],
      [
        "fe",
        "cted"
      ],
      [
        "part",
        "s"
      ],
      [
        "can",
        "cer"
      ],
      [
        "reg",
        "ul"
      ],
      [
        "ful",
        "ly"
      ],
      [
        "far",
        "m"
      ],
      [
        "econom",
        "ic"
      ],
      [
        "olog",
        "y"
      ],
      [
        "dia",
        "bet"
      ],
      [
        "presid",
        "ency"
      ],
      [
        "traff",
        "ic"
      ],
      [
        "e",
        "at"
      ],
      [
        "k",
        "ol"
      ],
      [
        "m",
        "ess"
      ],
      [
        "n",
        "y"
      ],
      [
        "s",
        "es"
      ],
      [
        "s",
        "am"
      ],
      [
        "u",
        "a"
      ],
      [
        "y",
        "u"
      ],
      [
        "in",
        "ju"
      ],
      [
        "le",
        "a"
      ],
      [
        "le",
        "ar"
      ],
      [
        "le",
        "vel"
      ],
      [
        "de",
        "li"
      ],
      [
        "fr",
        "on"
      ],
      [
        "bo",
        "y"
      ],
      [
        "ke",
        "ep"
      ],
      [
        "mar",
        "ried"
      ],
      [
        "work",
        "ing"
      ],
      [
        "election",
        "s"
      ],
      [
        "show",
        "ed"
      ],
      [
        "americ",
        "an"
      ],
      [
        "rele",
        "ase"
      ],
      [
        "kidnap",
        "ped"
      ],
      [
        "follow",
        "ing"
      ],
      [
        "paren",
        "ts"
      ],
      [
        "profess",
        "or"
      ],
      [
        "prote",
        "ct"
      ],
      [
        "sar",
        "aki"
      ],
      [
        "execut",
        "ive"
      ],
      [
        "inju",
        "red"
      ],
      [
        "d",
        "red"
      ],
      [
        "f",
        "i"
      ],
      [
        "l",
        "it"
      ],
      [
        "l",
        "iving"
      ],
      [
        "n",
        "u"
      ],
      [
        "r",
        "on"
      ],
      [
        "s",
        "eri"
      ],
      [
        "t",
        "ro"
      ],
      [
        "t",
        "aking"
      ],
      [
        "er",
        "ation"
      ],
      [
        "re",
        "ve"
      ],
      [
        "st",
        "aff"
      ],
      [
        "ch",
        "ina"
      ],
      [
        "ad",
        "a"
      ],
      [
        "be",
        "h"
      ],
      [
        "de",
        "cl"
      ],
      [
        "com",
        "es"
      ],
      [
        "not",
        "ed"
      ],
      [
        "te",
        "ach"
      ],
      [
        "do",
        "ing"
      ],
      [
        "comm",
        "on"
      ],
      [
        "gr",
        "ound"
      ],
      [
        "gh",
        "ana"
      ],
      [
        "governor",
        "ship"
      ],
      [
        "ru",
        "le"
      ],
      [
        "ta",
        "x"
      ],
      [
        "rul",
        "ing"
      ],
      [
        "peri",
        "od"
      ],
      [
        "defe",
        "ated"
      ],
      [
        "hun",
        "dred"
      ],
      [
        "dise",
        "ase"
      ],
      [
        "'",
        ","
      ],
      [
        "a",
        "is"
      ],
      [
        "d",
        "iv"
      ],
      [
        "h",
        "i"
      ],
      [
        "s",
        "ch"
      ],
      [
        "y",
        "in"
      ],
      [
        "er",
        "n"
      ],
      [
        "on",
        "es"
      ],
      [
        "ch",
        "ukwu"
      ],
      [
        "ac",
        "ross"
      ],
      [
        "im",
        "med"
      ],
      [
        "ce",
        "le"
      ],
      [
        "ab",
        "d"
      ],
      [
        "sh",
        "ua"
      ],
      [
        "ain",
        "ing"
      ],
      [
        "wor",
        "ds"
      ],
      [
        "du",
        "e"
      ],
      [
        "can",
        "not"
      ],
      [
        "aw",
        "ard"
      ],
      [
        "acc",
        "used"
      ],
      [
        "che",
        "ck"
      ],
      [
        "trans",
        "port"
      ],
      [
        "jud",
        "ge"
      ],
      [
        "investig",
        "ation"
      ],
      [
        "comple",
        "te"
      ],
      [
        "wr",
        "it"
      ],
      [
        "roch",
        "as"
      ],
      [
        ")",
        "."
      ],
      [
        "e",
        "qu"
      ],
      [
        "e",
        "ight"
      ],
      [
        "f",
        "ish"
      ],
      [
        "g",
        "n"
      ],
      [
        "g",
        "re"
      ],
      [
        "i",
        "o"
      ],
      [
        "l",
        "u"
      ],
      [
        "m",
        "as"
      ],
      [
        "n",
        "ers"
      ],
      [
        "r",
        "al"
      ],
      [
        "r",
        "is"
      ],
      [
        "r",
        "uss"
      ],
      [
        "t",
        "reat"
      ],
      [
        "re",
        "ed"
      ],
      [
        "re",
        "cor"
      ],
      [
        "ed",
        "ing"
      ],
      [
        "to",
        "ur"
      ],
      [
        "be",
        "g"
      ],
      [
        "ag",
        "ree"
      ],
      [
        "act",
        "ed"
      ],
      [
        "iz",
        "ation"
      ],
      [
        "mr",
        "s"
      ],
      [
        "acc",
        "ident"
      ],
      [
        "cap",
        "ital"
      ],
      [
        "wat",
        "ch"
      ],
      [
        "ann",
        "oun"
      ],
      [
        "thir",
        "d"
      ],
      [
        "thir",
        "ty"
      ],
      [
        "sat",
        "ur"
      ],
      [
        "sever",
        "al"
      ],
      [
        "kol",
        "anut"
      ],
      [
        "immed",
        "iate"
      ],
      [
        "abd",
        "ul"
      ],
      [
        "d",
        "au"
      ],
      [
        "i",
        "ther"
      ],
      [
        "j",
        "ob"
      ],
      [
        "k",
        "y"
      ],
      [
        "k",
        "ind"
      ],
      [
        "k",
        "alu"
      ],
      [
        "n",
        "n"
      ],
      [
        "n",
        "t"
      ],
      [
        "r",
        "id"
      ],
      [
        "t",
        "i"
      ],
      [
        "t",
        "le"
      ],
      [
        "u",
        "z"
      ],
      [
        "w",
        "ro"
      ],
      [
        "w",
        "ap"
      ],
      [
        "re",
        "main"
      ],
      [
        "st",
        "ay"
      ],
      [
        "st",
        "ep"
      ],
      [
        "is",
        "wap"
      ],
      [
        "it",
        "i"
      ],
      [
        "se",
        "ctor"
      ],
      [
        "ad",
        "es"
      ],
      [
        "pe",
        "cted"
      ],
      [
        "con",
        "du"
      ],
      [
        "ur",
        "ged"
      ],
      [
        "sh",
        "o"
      ],
      [
        "gh",
        "t"
      ],
      [
        "cl",
        "ass"
      ],
      [
        "co",
        "de"
      ],
      [
        "dr",
        "aw"
      ],
      [
        "og",
        "un"
      ],
      [
        "00",
        "0"
      ],
      [
        "bank",
        "s"
      ],
      [
        "wit",
        "ness"
      ],
      [
        "contr",
        "ol"
      ],
      [
        "right",
        "s"
      ],
      [
        "respon",
        "s"
      ],
      [
        "econom",
        "y"
      ],
      [
        "dire",
        "ctor"
      ],
      [
        "quest",
        "ion"
      ],
      [
        "polic",
        "y"
      ],
      [
        "cult",
        "ure"
      ],
      [
        "sport",
        "s"
      ],
      [
        "victim",
        "s"
      ],
      [
        "administ",
        "ration"
      ],
      [
        "bish",
        "op"
      ],
      [
        "cele",
        "br"
      ],
      [
        "satur",
        "day"
      ],
      [
        "wro",
        "te"
      ],
      [
        ".",
        "”"
      ],
      [
        "a",
        "j"
      ],
      [
        "b",
        "ad"
      ],
      [
        "c",
        "ul"
      ],
      [
        "e",
        "ch"
      ],
      [
        "g",
        "row"
      ],
      [
        "k",
        "ola"
      ],
      [
        "m",
        "ission"
      ],
      [
        "y",
        "oun"
      ],
      [
        "th",
        "ous"
      ],
      [
        "en",
        "vir"
      ],
      [
        "or",
        "al"
      ],
      [
        "to",
        "ber"
      ],
      [
        "be",
        "y"
      ],
      [
        "su",
        "st"
      ],
      [
        "sa",
        "w"
      ],
      [
        "ab",
        "ility"
      ],
      [
        "em",
        "e"
      ],
      [
        "em",
        "ploy"
      ],
      [
        "sh",
        "are"
      ],
      [
        "me",
        "ans"
      ],
      [
        "qu",
        "e"
      ],
      [
        "201",
        "7"
      ],
      [
        "them",
        "selves"
      ],
      [
        "inter",
        "view"
      ],
      [
        "play",
        "ed"
      ],
      [
        "19",
        "6"
      ],
      [
        "oc",
        "tober"
      ],
      [
        "leg",
        "al"
      ],
      [
        "ph",
        "one"
      ],
      [
        "add",
        "ress"
      ],
      [
        "tal",
        "ent"
      ],
      [
        "dem",
        "and"
      ],
      [
        "proble",
        "m"
      ],
      [
        "continu",
        "ed"
      ],
      [
        "auth",
        "or"
      ],
      [
        "thous",
        "and"
      ],
      [
        "1",
        "1"
      ],
      [
        "1",
        "7"
      ],
      [
        "b",
        "id"
      ],
      [
        "f",
        "il"
      ],
      [
        "s",
        "ick"
      ],
      [
        "t",
        "ar"
      ],
      [
        "u",
        "te"
      ],
      [
        "v",
        "ious"
      ],
      [
        "at",
        "a"
      ],
      [
        "con",
        "sum"
      ],
      [
        "res",
        "ident"
      ],
      [
        "pro",
        "v"
      ],
      [
        "lo",
        "st"
      ],
      [
        "ut",
        "es"
      ],
      [
        "ke",
        "y"
      ],
      [
        "ans",
        "wer"
      ],
      [
        "end",
        "ing"
      ],
      [
        "gr",
        "ant"
      ],
      [
        "cor",
        "ps"
      ],
      [
        "co",
        "ver"
      ],
      [
        "jo",
        "shua"
      ],
      [
        "ical",
        "ly"
      ],
      [
        "ass",
        "ist"
      ],
      [
        "cent",
        "ral"
      ],
      [
        "spe",
        "ech"
      ],
      [
        "law",
        "y"
      ],
      [
        "vis",
        "ion"
      ],
      [
        "add",
        "ed"
      ],
      [
        "fin",
        "an"
      ],
      [
        "friend",
        "s"
      ],
      [
        "spokes",
        "man"
      ],
      [
        "lon",
        "don"
      ],
      [
        "b",
        "ir"
      ],
      [
        "f",
        "ind"
      ],
      [
        "g",
        "lo"
      ],
      [
        "h",
        "on"
      ],
      [
        "i",
        "ja"
      ],
      [
        "l",
        "an"
      ],
      [
        "m",
        "er"
      ],
      [
        "m",
        "ass"
      ],
      [
        "s",
        "m"
      ],
      [
        "re",
        "ach"
      ],
      [
        "ent",
        "ly"
      ],
      [
        "am",
        "in"
      ],
      [
        "un",
        "a"
      ],
      [
        "nig",
        "h"
      ],
      [
        "con",
        "dem"
      ],
      [
        "mo",
        "t"
      ],
      [
        "lo",
        "t"
      ],
      [
        "ex",
        "p"
      ],
      [
        "co",
        "ach"
      ],
      [
        "fir",
        "med"
      ],
      [
        "spe",
        "aking"
      ],
      [
        "col",
        "lect"
      ],
      [
        "cer",
        "t"
      ],
      [
        "sup",
        "posed"
      ],
      [
        "play",
        "ers"
      ],
      [
        "bre",
        "ast"
      ],
      [
        "attack",
        "s"
      ],
      [
        "commun",
        "ic"
      ],
      [
        "contin",
        "ue"
      ],
      [
        "issu",
        "es"
      ],
      [
        "ben",
        "ef"
      ],
      [
        "inclu",
        "de"
      ],
      [
        "terr",
        "it"
      ],
      [
        "bl",
        "ack"
      ],
      [
        "east",
        "ern"
      ],
      [
        "crimin",
        "al"
      ],
      [
        "hist",
        "ory"
      ],
      [
        "var",
        "ious"
      ],
      [
        "fru",
        "it"
      ],
      [
        "2",
        "4"
      ],
      [
        "i",
        "um"
      ],
      [
        "m",
        "ag"
      ],
      [
        "in",
        "no"
      ],
      [
        "an",
        "g"
      ],
      [
        "st",
        "om"
      ],
      [
        "as",
        "su"
      ],
      [
        "il",
        "i"
      ],
      [
        "se",
        "ason"
      ],
      [
        "he",
        "art"
      ],
      [
        "bu",
        "y"
      ],
      [
        "de",
        "st"
      ],
      [
        "are",
        "as"
      ],
      [
        "end",
        "er"
      ],
      [
        "per",
        "cent"
      ],
      [
        "li",
        "er"
      ],
      [
        "any",
        "one"
      ],
      [
        "ho",
        "pe"
      ],
      [
        "spe",
        "ak"
      ],
      [
        "av",
        "o"
      ],
      [
        "ret",
        "urn"
      ],
      [
        "des",
        "crib"
      ],
      [
        "let",
        "ter"
      ],
      [
        "look",
        "ing"
      ],
      [
        "rel",
        "ation"
      ],
      [
        "ear",
        "lier"
      ],
      [
        "join",
        "ed"
      ],
      [
        "belie",
        "ve"
      ],
      [
        "list",
        "en"
      ],
      [
        "bro",
        "ther"
      ],
      [
        "expres",
        "sed"
      ],
      [
        "candid",
        "ate"
      ],
      [
        "associ",
        "ation"
      ],
      [
        "diabet",
        "es"
      ],
      [
        "b",
        "ased"
      ],
      [
        "d",
        "ic"
      ],
      [
        "f",
        "ety"
      ],
      [
        "s",
        "itu"
      ],
      [
        "t",
        "went"
      ],
      [
        "th",
        "urs"
      ],
      [
        "at",
        "s"
      ],
      [
        "on",
        "ce"
      ],
      [
        "on",
        "its"
      ],
      [
        "st",
        "ake"
      ],
      [
        "al",
        "f"
      ],
      [
        "ch",
        "amp"
      ],
      [
        "ro",
        "le"
      ],
      [
        "im",
        "plement"
      ],
      [
        "de",
        "b"
      ],
      [
        "ag",
        "ing"
      ],
      [
        "su",
        "sp"
      ],
      [
        "sa",
        "fety"
      ],
      [
        "res",
        "pect"
      ],
      [
        "ll",
        "ed"
      ],
      [
        "med",
        "ical"
      ],
      [
        "elect",
        "oral"
      ],
      [
        "gu",
        "st"
      ],
      [
        "sc",
        "i"
      ],
      [
        "road",
        "s"
      ],
      [
        "cons",
        "id"
      ],
      [
        "cas",
        "es"
      ],
      [
        "vict",
        "ory"
      ],
      [
        "poin",
        "ts"
      ],
      [
        "chall",
        "eng"
      ],
      [
        "nwo",
        "su"
      ],
      [
        "unt",
        "il"
      ],
      [
        "ais",
        "ha"
      ],
      [
        "youn",
        "g"
      ],
      [
        "nigh",
        "t"
      ],
      [
        "thurs",
        "day"
      ],
      [
        "onits",
        "ha"
      ],
      [
        "1",
        "5"
      ],
      [
        "a",
        "id"
      ],
      [
        "c",
        "ing"
      ],
      [
        "h",
        "y"
      ],
      [
        "n",
        "ine"
      ],
      [
        "t",
        "ur"
      ],
      [
        "t",
        "ies"
      ],
      [
        "u",
        "bu"
      ],
      [
        "in",
        "ent"
      ],
      [
        "in",
        "fr"
      ],
      [
        "in",
        "fl"
      ],
      [
        "on",
        "s"
      ],
      [
        "on",
        "do"
      ],
      [
        "re",
        "du"
      ],
      [
        "al",
        "o"
      ],
      [
        "al",
        "ready"
      ],
      [
        "id",
        "ence"
      ],
      [
        "be",
        "came"
      ],
      [
        "im",
        "pro"
      ],
      [
        "go",
        "v"
      ],
      [
        "de",
        "al"
      ],
      [
        "if",
        "y"
      ],
      [
        "ain",
        "s"
      ],
      [
        "ex",
        "change"
      ],
      [
        "20",
        "20"
      ],
      [
        "pr",
        "act"
      ],
      [
        "af",
        "fected"
      ],
      [
        "him",
        "self"
      ],
      [
        "any",
        "thing"
      ],
      [
        "co",
        "st"
      ],
      [
        "elect",
        "ric"
      ],
      [
        "governor",
        "s"
      ],
      [
        "sen",
        "ator"
      ],
      [
        "report",
        "s"
      ],
      [
        "tal",
        "k"
      ],
      [
        "car",
        "ry"
      ],
      [
        "os",
        "un"
      ],
      [
        "partic",
        "ular"
      ],
      [
        "techn",
        "ology"
      ],
      [
        "lat",
        "er"
      ],
      [
        "rev",
        "olution"
      ],
      [
        "lea",
        "ve"
      ],
      [
        "envir",
        "onment"
      ],
      [
        "finan",
        "cial"
      ],
      [
        "1",
        "4"
      ],
      [
        "c",
        "ath"
      ],
      [
        "e",
        "ad"
      ],
      [
        "g",
        "ender"
      ],
      [
        "i",
        "be"
      ],
      [
        "k",
        "wu"
      ],
      [
        "n",
        "on"
      ],
      [
        "p",
        "ho"
      ],
      [
        "r",
        "ound"
      ],
      [
        "s",
        "it"
      ],
      [
        "in",
        "te"
      ],
      [
        "at",
        "tr"
      ],
      [
        "en",
        "ces"
      ],
      [
        "al",
        "le"
      ],
      [
        "is",
        "ing"
      ],
      [
        "ar",
        "r"
      ],
      [
        "ad",
        "am"
      ],
      [
        "ol",
        "ic"
      ],
      [
        "ate",
        "g"
      ],
      [
        "ter",
        "min"
      ],
      [
        "sh",
        "ut"
      ],
      [
        "ne",
        "l"
      ],
      [
        "so",
        "yin"
      ],
      [
        "po",
        "ss"
      ],
      [
        "who",
        "se"
      ],
      [
        "lo",
        "ck"
      ],
      [
        "pr",
        "iv"
      ],
      [
        "act",
        "ions"
      ],
      [
        "mar",
        "ch"
      ],
      [
        "str",
        "ong"
      ],
      [
        "aw",
        "are"
      ],
      [
        "ub",
        "a"
      ],
      [
        "att",
        "le"
      ],
      [
        "some",
        "one"
      ],
      [
        "sp",
        "ir"
      ],
      [
        "acc",
        "ess"
      ],
      [
        "every",
        "thing"
      ],
      [
        "offic",
        "ers"
      ],
      [
        "inst",
        "ead"
      ],
      [
        "read",
        "s"
      ],
      [
        "produ",
        "ct"
      ],
      [
        "appe",
        "al"
      ],
      [
        "pa",
        "id"
      ],
      [
        "journal",
        "ist"
      ],
      [
        "thank",
        "ed"
      ],
      [
        "suc",
        "cess"
      ],
      [
        "seri",
        "ous"
      ],
      [
        "reve",
        "aled"
      ],
      [
        "bir",
        "th"
      ],
      [
        "avo",
        "id"
      ],
      [
        "situ",
        "ation"
      ],
      [
        "twent",
        "y"
      ],
      [
        "soyin",
        "ka"
      ],
      [
        "b",
        "ed"
      ],
      [
        "d",
        "a"
      ],
      [
        "f",
        "ut"
      ],
      [
        "h",
        "ours"
      ],
      [
        "i",
        "am"
      ],
      [
        "m",
        "ight"
      ],
      [
        "p",
        "ur"
      ],
      [
        "w",
        "ard"
      ],
      [
        "y",
        "s"
      ],
      [
        "y",
        "am"
      ],
      [
        "z",
        "ie"
      ],
      [
        "er",
        "ing"
      ],
      [
        "en",
        "ced"
      ],
      [
        "al",
        "d"
      ],
      [
        "as",
        "sa"
      ],
      [
        "le",
        "ast"
      ],
      [
        "se",
        "x"
      ],
      [
        "ad",
        "em"
      ],
      [
        "de",
        "put"
      ],
      [
        "tr",
        "ue"
      ],
      [
        "our",
        "ces"
      ],
      [
        "ab",
        "or"
      ],
      [
        "ab",
        "lish"
      ],
      [
        "bo",
        "ard"
      ],
      [
        "sh",
        "ot"
      ],
      [
        "mo",
        "b"
      ],
      [
        "ex",
        "pected"
      ],
      [
        "au",
        "gust"
      ],
      [
        "fe",
        "ll"
      ],
      [
        "est",
        "ablish"
      ],
      [
        "pre",
        "mi"
      ],
      [
        "spe",
        "ct"
      ],
      [
        "cer",
        "em"
      ],
      [
        "prom",
        "ised"
      ],
      [
        "prom",
        "inent"
      ],
      [
        "giv",
        "ing"
      ],
      [
        "kan",
        "o"
      ],
      [
        "ri",
        "age"
      ],
      [
        "clo",
        "se"
      ],
      [
        "commit",
        "tee"
      ],
      [
        "dire",
        "ct"
      ],
      [
        "bab",
        "y"
      ],
      [
        "tra",
        "vel"
      ],
      [
        "const",
        "itu"
      ],
      [
        "pat",
        "i"
      ],
      [
        "fac",
        "il"
      ],
      [
        "concer",
        "ning"
      ],
      [
        "poin",
        "ted"
      ],
      [
        "agricult",
        "ural"
      ],
      [
        "pop",
        "ular"
      ],
      [
        "vot",
        "es"
      ],
      [
        "vill",
        "age"
      ],
      [
        "trib",
        "al"
      ],
      [
        "eu",
        "ro"
      ],
      [
        "code",
        "ine"
      ],
      [
        "cath",
        "olic"
      ],
      [
        "pho",
        "to"
      ],
      [
        "deput",
        "y"
      ],
      [
        "1",
        "6"
      ],
      [
        "c",
        "ast"
      ],
      [
        "c",
        "ross"
      ],
      [
        "c",
        "bn"
      ],
      [
        "f",
        "ic"
      ],
      [
        "f",
        "all"
      ],
      [
        "i",
        "or"
      ],
      [
        "j",
        "un"
      ],
      [
        "n",
        "k"
      ],
      [
        "o",
        "ke"
      ],
      [
        "p",
        "an"
      ],
      [
        "r",
        "ain"
      ],
      [
        "s",
        "ack"
      ],
      [
        "w",
        "ake"
      ],
      [
        "th",
        "reat"
      ],
      [
        "in",
        "king"
      ],
      [
        "al",
        "ong"
      ],
      [
        "ar",
        "sen"
      ],
      [
        "ac",
        "count"
      ],
      [
        "im",
        "um"
      ],
      [
        "ag",
        "reed"
      ],
      [
        "sa",
        "har"
      ],
      [
        "con",
        "firmed"
      ],
      [
        "sh",
        "all"
      ],
      [
        "iv",
        "id"
      ],
      [
        "ex",
        "peri"
      ],
      [
        "gh",
        "ter"
      ],
      [
        "gu",
        "ar"
      ],
      [
        "fore",
        "st"
      ],
      [
        "fir",
        "m"
      ],
      [
        "comp",
        "an"
      ],
      [
        "get",
        "ting"
      ],
      [
        "want",
        "ed"
      ],
      [
        "every",
        "one"
      ],
      [
        "eng",
        "lish"
      ],
      [
        "dif",
        "fic"
      ],
      [
        "leg",
        "is"
      ],
      [
        "cond",
        "ition"
      ],
      [
        "food",
        "s"
      ],
      [
        "democr",
        "atic"
      ],
      [
        "cu",
        "stom"
      ],
      [
        "rece",
        "ived"
      ],
      [
        "recent",
        "ly"
      ],
      [
        "mor",
        "ning"
      ],
      [
        "project",
        "s"
      ],
      [
        "pris",
        "on"
      ],
      [
        "claim",
        "ed"
      ],
      [
        "advis",
        "ed"
      ],
      [
        "opport",
        "unity"
      ],
      [
        "beh",
        "ind"
      ],
      [
        "cert",
        "ific"
      ],
      [
        "describ",
        "ed"
      ],
      [
        "stake",
        "holders"
      ],
      [
        "electric",
        "ity"
      ],
      [
        "cerem",
        "ony"
      ],
      [
        "c",
        "oup"
      ],
      [
        "d",
        "ou"
      ],
      [
        "e",
        "ach"
      ],
      [
        "g",
        "one"
      ],
      [
        "n",
        "ut"
      ],
      [
        "p",
        "ic"
      ],
      [
        "p",
        "ly"
      ],
      [
        "t",
        "ill"
      ],
      [
        "y",
        "or"
      ],
      [
        "th",
        "ough"
      ],
      [
        "in",
        "sur"
      ],
      [
        "an",
        "i"
      ],
      [
        "st",
        "at"
      ],
      [
        "as",
        "ion"
      ],
      [
        "ar",
        "ies"
      ],
      [
        "ar",
        "med"
      ],
      [
        "om",
        "i"
      ],
      [
        "ch",
        "ed"
      ],
      [
        "wh",
        "e"
      ],
      [
        "em",
        "p"
      ],
      [
        "em",
        "pt"
      ],
      [
        "fe",
        "ar"
      ],
      [
        "ie",
        "st"
      ],
      [
        "min",
        "utes"
      ],
      [
        "mar",
        "riage"
      ],
      [
        "cor",
        "p"
      ],
      [
        "gu",
        "e"
      ],
      [
        "jo",
        "h"
      ],
      [
        "cau",
        "ght"
      ],
      [
        "over",
        "se"
      ],
      [
        "lead",
        "ing"
      ],
      [
        "sen",
        "ators"
      ],
      [
        "ind",
        "ivid"
      ],
      [
        "group",
        "s"
      ],
      [
        "inv",
        "asion"
      ],
      [
        "produ",
        "ction"
      ],
      [
        "long",
        "er"
      ],
      [
        "jor",
        "omi"
      ],
      [
        "tak",
        "es"
      ],
      [
        "ca",
        "used"
      ],
      [
        "ref",
        "used"
      ],
      [
        "cre",
        "ate"
      ],
      [
        "partic",
        "ip"
      ],
      [
        "vehic",
        "le"
      ],
      [
        "resident",
        "s"
      ],
      [
        "dest",
        "ro"
      ],
      [
        "relation",
        "ship"
      ],
      [
        "challeng",
        "es"
      ],
      [
        "diffic",
        "ult"
      ],
      [
        "a",
        "head"
      ],
      [
        "d",
        "ro"
      ],
      [
        "d",
        "reads"
      ],
      [
        "f",
        "f"
      ],
      [
        "l",
        "ar"
      ],
      [
        "l",
        "if"
      ],
      [
        "o",
        "il"
      ],
      [
        "r",
        "ich"
      ],
      [
        "y",
        "a"
      ],
      [
        "th",
        "ought"
      ],
      [
        "al",
        "leg"
      ],
      [
        "to",
        "ge"
      ],
      [
        "am",
        "b"
      ],
      [
        "ol",
        "am"
      ],
      [
        "bu",
        "l"
      ],
      [
        "ce",
        "pt"
      ],
      [
        "em",
        "s"
      ],
      [
        "mo",
        "vie"
      ],
      [
        "will",
        "ie"
      ],
      [
        "po",
        "t"
      ],
      [
        "ex",
        "per"
      ],
      [
        "pr",
        "im"
      ],
      [
        "pr",
        "iest"
      ],
      [
        "part",
        "ies"
      ],
      [
        "air",
        "port"
      ],
      [
        "form",
        "s"
      ],
      [
        "ev",
        "il"
      ],
      [
        "reg",
        "ion"
      ],
      [
        "bre",
        "ad"
      ],
      [
        "mark",
        "s"
      ],
      [
        "bor",
        "no"
      ],
      [
        "report",
        "ed"
      ],
      [
        "don",
        "ald"
      ],
      [
        "ens",
        "ive"
      ],
      [
        "nam",
        "ed"
      ],
      [
        "happ",
        "y"
      ],
      [
        "need",
        "ed"
      ],
      [
        "ony",
        "i"
      ],
      [
        "resu",
        "l"
      ],
      [
        "tit",
        "le"
      ],
      [
        "viol",
        "ence"
      ],
      [
        "dece",
        "mber"
      ],
      [
        "ord",
        "in"
      ],
      [
        "mus",
        "ic"
      ],
      [
        "eb",
        "onyi"
      ],
      [
        "brit",
        "ish"
      ],
      [
        "mess",
        "age"
      ],
      [
        "common",
        "wealth"
      ],
      [
        "dau",
        "ghter"
      ],
      [
        "glo",
        "bal"
      ],
      [
        "toge",
        "ther"
      ],
      [
        "2",
        "2"
      ],
      [
        "b",
        "ail"
      ],
      [
        "c",
        "ies"
      ],
      [
        "d",
        "ut"
      ],
      [
        "d",
        "ata"
      ],
      [
        "e",
        "z"
      ],
      [
        "f",
        "ake"
      ],
      [
        "f",
        "uel"
      ],
      [
        "g",
        "ur"
      ],
      [
        "j",
        "er"
      ],
      [
        "m",
        "ur"
      ],
      [
        "m",
        "ult"
      ],
      [
        "n",
        "d"
      ],
      [
        "n",
        "as"
      ],
      [
        "p",
        "al"
      ],
      [
        "p",
        "ap"
      ],
      [
        "s",
        "ac"
      ],
      [
        "u",
        "ally"
      ],
      [
        "re",
        "qu"
      ],
      [
        "to",
        "tal"
      ],
      [
        "ar",
        "my"
      ],
      [
        "it",
        "ut"
      ],
      [
        "il",
        "legal"
      ],
      [
        "se",
        "qu"
      ],
      [
        "ad",
        "ding"
      ],
      [
        "be",
        "at"
      ],
      [
        "wh",
        "ite"
      ],
      [
        "for",
        "ts"
      ],
      [
        "ac",
        "adem"
      ],
      [
        "de",
        "lt"
      ],
      [
        "de",
        "termin"
      ],
      [
        "pro",
        "sec"
      ],
      [
        "out",
        "break"
      ],
      [
        "ex",
        "ist"
      ],
      [
        "pr",
        "ice"
      ],
      [
        "201",
        "6"
      ],
      [
        "dis",
        "cus"
      ],
      [
        "cl",
        "im"
      ],
      [
        "ast",
        "er"
      ],
      [
        "work",
        "s"
      ],
      [
        "some",
        "thing"
      ],
      [
        "cent",
        "re"
      ],
      [
        "ef",
        "forts"
      ],
      [
        "play",
        "ing"
      ],
      [
        "bre",
        "aking"
      ],
      [
        "pp",
        "ed"
      ],
      [
        "ma",
        "id"
      ],
      [
        "incl",
        "ud"
      ],
      [
        "organ",
        "ization"
      ],
      [
        "bur",
        "nt"
      ],
      [
        "clo",
        "sed"
      ],
      [
        "commit",
        "ted"
      ],
      [
        "stop",
        "ped"
      ],
      [
        "fem",
        "i"
      ],
      [
        "vict",
        "or"
      ],
      [
        "det",
        "ention"
      ],
      [
        "spokes",
        "person"
      ],
      [
        "mak",
        "ers"
      ],
      [
        "achie",
        "ve"
      ],
      [
        "lear",
        "n"
      ],
      [
        "tro",
        "op"
      ],
      [
        "tar",
        "get"
      ],
      [
        "condem",
        "ned"
      ],
      [
        "arsen",
        "al"
      ],
      [
        "delt",
        "a"
      ],
      [
        "b",
        "on"
      ],
      [
        "b",
        "ag"
      ],
      [
        "c",
        "ir"
      ],
      [
        "e",
        "g"
      ],
      [
        "e",
        "th"
      ],
      [
        "i",
        "ans"
      ],
      [
        "l",
        "ay"
      ],
      [
        "n",
        "es"
      ],
      [
        "n",
        "omin"
      ],
      [
        "o",
        "sc"
      ],
      [
        "p",
        "u"
      ],
      [
        "p",
        "en"
      ],
      [
        "p",
        "ing"
      ],
      [
        "t",
        "urn"
      ],
      [
        "z",
        "y"
      ],
      [
        "in",
        "au"
      ],
      [
        "an",
        "ge"
      ],
      [
        "re",
        "ver"
      ],
      [
        "re",
        "search"
      ],
      [
        "st",
        "ories"
      ],
      [
        "it",
        "ing"
      ],
      [
        "ve",
        "mber"
      ],
      [
        "am",
        "i"
      ],
      [
        "for",
        "med"
      ],
      [
        "ac",
        "cep"
      ],
      [
        "no",
        "vember"
      ],
      [
        "ly",
        "ing"
      ],
      [
        "con",
        "gress"
      ],
      [
        "res",
        "sed"
      ],
      [
        "ce",
        "ll"
      ],
      [
        "sh",
        "ort"
      ],
      [
        "ther",
        "n"
      ],
      [
        "pres",
        "s"
      ],
      [
        "fe",
        "eding"
      ],
      [
        "act",
        "ing"
      ],
      [
        "ok",
        "a"
      ],
      [
        "ser",
        "ved"
      ],
      [
        "reg",
        "ime"
      ],
      [
        "fer",
        "ence"
      ],
      [
        "ef",
        "cc"
      ],
      [
        "av",
        "id"
      ],
      [
        "av",
        "ail"
      ],
      [
        "show",
        "s"
      ],
      [
        "univers",
        "ities"
      ],
      [
        "war",
        "ned"
      ],
      [
        "polit",
        "ics"
      ],
      [
        "win",
        "ner"
      ],
      [
        "aff",
        "air"
      ],
      [
        "fin",
        "al"
      ],
      [
        "qual",
        "ity"
      ],
      [
        "pay",
        "ment"
      ],
      [
        "plan",
        "ning"
      ],
      [
        "run",
        "ning"
      ],
      [
        "cep",
        "tion"
      ],
      [
        "fail",
        "ed"
      ],
      [
        "jan",
        "uary"
      ],
      [
        "independ",
        "ent"
      ],
      [
        "deli",
        "ver"
      ],
      [
        "fron",
        "t"
      ],
      [
        "lawy",
        "er"
      ],
      [
        "lan",
        "gu"
      ],
      [
        "implement",
        "ation"
      ],
      [
        "fut",
        "ure"
      ],
      [
        "joh",
        "n"
      ],
      [
        "troop",
        "s"
      ],
      [
        "1",
        "3"
      ],
      [
        "1",
        "8"
      ],
      [
        "i",
        "but"
      ],
      [
        "j",
        "ail"
      ],
      [
        "l",
        "s"
      ],
      [
        "o",
        "st"
      ],
      [
        "r",
        "ice"
      ],
      [
        "t",
        "in"
      ],
      [
        "t",
        "re"
      ],
      [
        "y",
        "emi"
      ],
      [
        "th",
        "inking"
      ],
      [
        "an",
        "im"
      ],
      [
        "ar",
        "a"
      ],
      [
        "ic",
        "es"
      ],
      [
        "be",
        "gan"
      ],
      [
        "am",
        "es"
      ],
      [
        "am",
        "ent"
      ],
      [
        "nig",
        "er"
      ],
      [
        "tr",
        "ou"
      ],
      [
        "tr",
        "ial"
      ],
      [
        "tr",
        "ade"
      ],
      [
        "em",
        "bar"
      ],
      [
        "sh",
        "i"
      ],
      [
        "ne",
        "cess"
      ],
      [
        "mo",
        "ved"
      ],
      [
        "ant",
        "i"
      ],
      [
        "port",
        "ers"
      ],
      [
        "fe",
        "br"
      ],
      [
        "gr",
        "ace"
      ],
      [
        "ju",
        "ly"
      ],
      [
        "um",
        "u"
      ],
      [
        "ef",
        "f"
      ],
      [
        "ug",
        "g"
      ],
      [
        "19",
        "7"
      ],
      [
        "19",
        "8"
      ],
      [
        "inst",
        "itution"
      ],
      [
        "health",
        "care"
      ],
      [
        "need",
        "s"
      ],
      [
        "kidnap",
        "pers"
      ],
      [
        "respon",
        "d"
      ],
      [
        "sing",
        "le"
      ],
      [
        "found",
        "ation"
      ],
      [
        "real",
        "ity"
      ],
      [
        "na",
        "ija"
      ],
      [
        "tru",
        "th"
      ],
      [
        "journal",
        "ists"
      ],
      [
        "crit",
        "ical"
      ],
      [
        "sun",
        "day"
      ],
      [
        "fif",
        "ty"
      ],
      [
        "lad",
        "y"
      ],
      [
        "yu",
        "suf"
      ],
      [
        "lit",
        "tle"
      ],
      [
        "mas",
        "qu"
      ],
      [
        "beg",
        "in"
      ],
      [
        "announ",
        "ced"
      ],
      [
        "fil",
        "ed"
      ],
      [
        "territ",
        "ories"
      ],
      [
        "inte",
        "gr"
      ],
      [
        "alle",
        "ged"
      ],
      [
        "compan",
        "ies"
      ],
      [
        "certific",
        "ate"
      ],
      [
        "whe",
        "ther"
      ],
      [
        "corp",
        "se"
      ],
      [
        "b",
        "it"
      ],
      [
        "d",
        "oll"
      ],
      [
        "g",
        "i"
      ],
      [
        "h",
        "ig"
      ],
      [
        "i",
        "ance"
      ],
      [
        "k",
        "ad"
      ],
      [
        "l",
        "in"
      ],
      [
        "m",
        "and"
      ],
      [
        "m",
        "om"
      ],
      [
        "u",
        "me"
      ],
      [
        "y",
        "ed"
      ],
      [
        "at",
        "ure"
      ],
      [
        "re",
        "ally"
      ],
      [
        "al",
        "ing"
      ],
      [
        "ar",
        "ia"
      ],
      [
        "om",
        "a"
      ],
      [
        "se",
        "ek"
      ],
      [
        "ad",
        "ed"
      ],
      [
        "be",
        "ar"
      ],
      [
        "ol",
        "ves"
      ],
      [
        "ro",
        "om"
      ],
      [
        "are",
        "porters"
      ],
      [
        "ce",
        "ed"
      ],
      [
        "em",
        "ek"
      ],
      [
        "bo",
        "k"
      ],
      [
        "ap",
        "pl"
      ],
      [
        "man",
        "uel"
      ],
      [
        "you",
        "th"
      ],
      [
        "au",
        "d"
      ],
      [
        "me",
        "as"
      ],
      [
        "ok",
        "p"
      ],
      [
        "cour",
        "se"
      ],
      [
        "mar",
        "ry"
      ],
      [
        "elect",
        "ed"
      ],
      [
        "ss",
        "s"
      ],
      [
        "str",
        "ateg"
      ],
      [
        "pre",
        "pare"
      ],
      [
        "call",
        "s"
      ],
      [
        "col",
        "anut"
      ],
      [
        "reg",
        "ist"
      ],
      [
        "fed",
        "eration"
      ],
      [
        "bor",
        "row"
      ],
      [
        "ph",
        "il"
      ],
      [
        "spo",
        "ke"
      ],
      [
        "fun",
        "d"
      ],
      [
        "chi",
        "bok"
      ],
      [
        "commun",
        "ities"
      ],
      [
        "contr",
        "act"
      ],
      [
        "qual",
        "ified"
      ],
      [
        "import",
        "ance"
      ],
      [
        "stru",
        "ction"
      ],
      [
        "oper",
        "ation"
      ],
      [
        "proper",
        "ty"
      ],
      [
        "effect",
        "ive"
      ],
      [
        "incre",
        "ased"
      ],
      [
        "tradition",
        "al"
      ],
      [
        "wed",
        "nes"
      ],
      [
        "program",
        "me"
      ],
      [
        "russ",
        "ia"
      ],
      [
        "condu",
        "ct"
      ],
      [
        "impro",
        "ve"
      ],
      [
        "sahar",
        "areporters"
      ],
      [
        "overse",
        "as"
      ],
      [
        "langu",
        "age"
      ],
      [
        "febr",
        "uary"
      ],
      [
        "emek",
        "a"
      ],
      [
        "wednes",
        "day"
      ],
      [
        "b",
        "om"
      ],
      [
        "d",
        "ie"
      ],
      [
        "d",
        "avid"
      ],
      [
        "e",
        "as"
      ],
      [
        "g",
        "b"
      ],
      [
        "h",
        "alf"
      ],
      [
        "j",
        "ur"
      ],
      [
        "k",
        "we"
      ],
      [
        "m",
        "ic"
      ],
      [
        "r",
        "ol"
      ],
      [
        "r",
        "iver"
      ],
      [
        "s",
        "il"
      ],
      [
        "re",
        "co"
      ],
      [
        "it",
        "self"
      ],
      [
        "ic",
        "ide"
      ],
      [
        "ig",
        "ence"
      ],
      [
        "he",
        "av"
      ],
      [
        "tr",
        "y"
      ],
      [
        "ow",
        "o"
      ],
      [
        "ak",
        "a"
      ],
      [
        "te",
        "en"
      ],
      [
        "art",
        "ist"
      ],
      [
        "br",
        "id"
      ],
      [
        "fe",
        "st"
      ],
      [
        "af",
        "t"
      ],
      [
        "comm",
        "er"
      ],
      [
        "201",
        "4"
      ],
      [
        "she",
        "hu"
      ],
      [
        "inter",
        "net"
      ],
      [
        "ast",
        "ru"
      ],
      [
        "wo",
        "od"
      ],
      [
        "ile",
        "kan"
      ],
      [
        "jo",
        "y"
      ],
      [
        "dr",
        "iver"
      ],
      [
        "ren",
        "ch"
      ],
      [
        "law",
        "makers"
      ],
      [
        "ind",
        "ic"
      ],
      [
        "play",
        "er"
      ],
      [
        "nam",
        "es"
      ],
      [
        "hand",
        "s"
      ],
      [
        "hand",
        "le"
      ],
      [
        "produ",
        "ce"
      ],
      [
        "look",
        "ed"
      ],
      [
        "order",
        "ed"
      ],
      [
        "ear",
        "ly"
      ],
      [
        "appe",
        "ar"
      ],
      [
        "sub",
        "s"
      ],
      [
        "const",
        "itution"
      ],
      [
        "uss",
        "d"
      ],
      [
        "represent",
        "ative"
      ],
      [
        "proble",
        "ms"
      ],
      [
        "contest",
        "ing"
      ],
      [
        "crit",
        "ic"
      ],
      [
        "ture",
        "d"
      ],
      [
        "compl",
        "ain"
      ],
      [
        "current",
        "ly"
      ],
      [
        "pun",
        "ish"
      ],
      [
        "plac",
        "ed"
      ],
      [
        "teach",
        "ers"
      ],
      [
        "treat",
        "ment"
      ],
      [
        "immediate",
        "ly"
      ],
      [
        "grow",
        "th"
      ],
      [
        "vious",
        "ly"
      ],
      [
        "infr",
        "astru"
      ],
      [
        "olam",
        "ilekan"
      ],
      [
        "bread",
        "fruit"
      ],
      [
        "avail",
        "able"
      ],
      [
        "kad",
        "una"
      ],
      [
        "infrastru",
        "ct"
      ],
      [
        "b",
        "road"
      ],
      [
        "e",
        "le"
      ],
      [
        "e",
        "ye"
      ],
      [
        "e",
        "chi"
      ],
      [
        "f",
        "ill"
      ],
      [
        "g",
        "ame"
      ],
      [
        "h",
        "in"
      ],
      [
        "h",
        "it"
      ],
      [
        "i",
        "red"
      ],
      [
        "k",
        "ore"
      ],
      [
        "n",
        "ative"
      ],
      [
        "r",
        "ing"
      ],
      [
        "s",
        "old"
      ],
      [
        "t",
        "ig"
      ],
      [
        "t",
        "ained"
      ],
      [
        "t",
        "reason"
      ],
      [
        "u",
        "als"
      ],
      [
        "v",
        "ant"
      ],
      [
        "w",
        "al"
      ],
      [
        "in",
        "ary"
      ],
      [
        "at",
        "ory"
      ],
      [
        "on",
        "wu"
      ],
      [
        "en",
        "cies"
      ],
      [
        "st",
        "re"
      ],
      [
        "st",
        "ic"
      ],
      [
        "to",
        "t"
      ],
      [
        "to",
        "ile"
      ],
      [
        "ing",
        "s"
      ],
      [
        "and",
        "a"
      ],
      [
        "he",
        "st"
      ],
      [
        "ver",
        "s"
      ],
      [
        "pe",
        "tr"
      ],
      [
        "ct",
        "ors"
      ],
      [
        "ly",
        "wood"
      ],
      [
        "con",
        "su"
      ],
      [
        "tr",
        "ying"
      ],
      [
        "ab",
        "i"
      ],
      [
        "em",
        "en"
      ],
      [
        "all",
        "oc"
      ],
      [
        "ap",
        "point"
      ],
      [
        "who",
        "le"
      ],
      [
        "lo",
        "c"
      ],
      [
        "iv",
        "al"
      ],
      [
        "fe",
        "ver"
      ],
      [
        "af",
        "con"
      ],
      [
        "me",
        "chan"
      ],
      [
        "government",
        "s"
      ],
      [
        "ich",
        "i"
      ],
      [
        "cl",
        "us"
      ],
      [
        "wo",
        "le"
      ],
      [
        "jo",
        "se"
      ],
      [
        "ho",
        "od"
      ],
      [
        "own",
        "ed"
      ],
      [
        "col",
        "a"
      ],
      [
        "cer",
        "tain"
      ],
      [
        "kill",
        "s"
      ],
      [
        "old",
        "en"
      ],
      [
        "ful",
        "l"
      ],
      [
        "des",
        "er"
      ],
      [
        "char",
        "ges"
      ],
      [
        "inst",
        "itut"
      ],
      [
        "good",
        "s"
      ],
      [
        "ri",
        "but"
      ],
      [
        "fight",
        "ing"
      ],
      [
        "ra",
        "ther"
      ],
      [
        "oper",
        "atives"
      ],
      [
        "soci",
        "ety"
      ],
      [
        "ific",
        "ation"
      ],
      [
        "proper",
        "ties"
      ],
      [
        "ici",
        "ans"
      ],
      [
        "ici",
        "ary"
      ],
      [
        "concer",
        "n"
      ],
      [
        "bas",
        "es"
      ],
      [
        "campaign",
        "s"
      ],
      [
        "coll",
        "abor"
      ],
      [
        "ord",
        "ers"
      ],
      [
        "gar",
        "ba"
      ],
      [
        "vehic",
        "les"
      ],
      [
        "traffic",
        "king"
      ],
      [
        "sam",
        "uel"
      ],
      [
        "div",
        "ision"
      ],
      [
        "inno",
        "cent"
      ],
      [
        "champ",
        "ion"
      ],
      [
        "product",
        "s"
      ],
      [
        "euro",
        "pe"
      ],
      [
        "custom",
        "ers"
      ],
      [
        "inau",
        "gur"
      ],
      [
        "masqu",
        "er"
      ],
      [
        "infrastruct",
        "ure"
      ],
      [
        "1",
        "00"
      ],
      [
        "2",
        "7"
      ],
      [
        "4",
        "0"
      ],
      [
        "b",
        "ichi"
      ],
      [
        "c",
        "amer"
      ],
      [
        "e",
        "ld"
      ],
      [
        "e",
        "ither"
      ],
      [
        "f",
        "lood"
      ],
      [
        "i",
        "he"
      ],
      [
        "i",
        "bra"
      ],
      [
        "l",
        "ines"
      ],
      [
        "m",
        "p"
      ],
      [
        "n",
        "ur"
      ],
      [
        "n",
        "di"
      ],
      [
        "s",
        "we"
      ],
      [
        "s",
        "qu"
      ],
      [
        "u",
        "do"
      ],
      [
        "in",
        "tell"
      ],
      [
        "an",
        "al"
      ],
      [
        "en",
        "cour"
      ],
      [
        "al",
        "one"
      ],
      [
        "se",
        "pt"
      ],
      [
        "se",
        "par"
      ],
      [
        "for",
        "um"
      ],
      [
        "im",
        "m"
      ],
      [
        "bu",
        "s"
      ],
      [
        "su",
        "icide"
      ],
      [
        "con",
        "vic"
      ],
      [
        "con",
        "struction"
      ],
      [
        "tr",
        "ied"
      ],
      [
        "tr",
        "aining"
      ],
      [
        "we",
        "st"
      ],
      [
        "ab",
        "a"
      ],
      [
        "ur",
        "i"
      ],
      [
        "em",
        "ber"
      ],
      [
        "em",
        "manuel"
      ],
      [
        "not",
        "e"
      ],
      [
        "ap",
        "pointed"
      ],
      [
        "pl",
        "ate"
      ],
      [
        "out",
        "side"
      ],
      [
        "iv",
        "en"
      ],
      [
        "ex",
        "pect"
      ],
      [
        "har",
        "m"
      ],
      [
        "comm",
        "ended"
      ],
      [
        "ju",
        "kwu"
      ],
      [
        "part",
        "ners"
      ],
      [
        "cr",
        "is"
      ],
      [
        "min",
        "d"
      ],
      [
        "min",
        "imum"
      ],
      [
        "any",
        "body"
      ],
      [
        "can",
        "ada"
      ],
      [
        "str",
        "ugg"
      ],
      [
        "pre",
        "dic"
      ],
      [
        "ib",
        "ility"
      ],
      [
        "person",
        "al"
      ],
      [
        "did",
        "n"
      ],
      [
        "stud",
        "ent"
      ],
      [
        "polit",
        "icians"
      ],
      [
        "ru",
        "iz"
      ],
      [
        "cap",
        "tured"
      ],
      [
        "jud",
        "g"
      ],
      [
        "jud",
        "iciary"
      ],
      [
        "car",
        "ried"
      ],
      [
        "fal",
        "se"
      ],
      [
        "dan",
        "ger"
      ],
      [
        "quest",
        "ions"
      ],
      [
        "tow",
        "ards"
      ],
      [
        "rece",
        "iving"
      ],
      [
        "defe",
        "at"
      ],
      [
        "belie",
        "ved"
      ],
      [
        "den",
        "ied"
      ],
      [
        "incre",
        "ase"
      ],
      [
        "girl",
        "s"
      ],
      [
        "tele",
        "vision"
      ],
      [
        "republic",
        "ans"
      ],
      [
        "vo",
        "te"
      ],
      [
        "farm",
        "ers"
[...]
