{
  "version": "1.0",
  "truncation": null,
  "padding": null,
  "added_tokens": [
    {
      "id": 0,
      "content": "[UNK]",
      "single_word": false,
      "lstrip": false,
      "rstrip": false,
      "normalized": false,
      "special": true
    },
    {
      "id": 1,
      "content": "[PAD]",
      "single_word": false,
      "lstrip": false,
      "rstrip": false,
      "normalized": false,
      "special": true
    },
    {
      "id": 2,
      "content": "[CLS]",
      "single_word": false,
      "lstrip": false,
      "rstrip": false,
      "normalized": false,
      "special": true
    },
    {
      "id": 3,
      "content": "[SEP]",
      "single_word": false,
      "lstrip": false,
      "rstrip": false,
      "normalized": false,
      "special": true
    },
    {
      "id": 4,
      "content": "[MASK]",
      "single_word": false,
      "lstrip": false,
      "rstrip": false,
      "normalized": false,
      "special": true
    }
  ],
  "normalizer": {
    "type": "Sequence",
    "normalizers": [
      {
        "type": "NFD"
      },
      {
        "type": "Lowercase"
      }
    ]
  },
  "pre_tokenizer": {
    "type": "Whitespace"
  },
  "post_processor": null,
  "decoder": null,
  "model": {
    "type": "BPE",
    "dropout": null,
    "unk_token": "[UNK]",
    "continuing_subword_prefix": null,
    "end_of_word_suffix": null,
    "fuse_unk": false,
    "byte_fallback": false,
    "ignore_merges": false,
    "vocab": {
      "[UNK]": 0,
      "[PAD]": 1,
      "[CLS]": 2,
      "[SEP]": 3,
      "[MASK]": 4,
      "!": 5,
      "\"": 6,
      "#": 7,
      "$": 8,
      "%": 9,
      "&": 10,
      "'": 11,
      "(": 12,
      ")": 13,
      ",": 14,
      "-": 15,
      ".": 16,
      "/": 17,
      "0": 18,
      "1": 19,
      "2": 20,
      "3": 21,
      "4": 22,
      "5": 23,
      "6": 24,
      "7": 25,
      "8": 26,
      "9": 27,
      ":": 28,
      ";": 29,
      ">": 30,
      "?": 31,
      "@": 32,
      "[": 33,
      "]": 34,
      "_": 35,
      "a": 36,
      "b": 37,
      "c": 38,
      "d": 39,
      "e": 40,
      "f": 41,
      "g": 42,
      "h": 43,
      "i": 44,
      "j": 45,
      "k": 46,
      "l": 47,
      "m": 48,
      "n": 49,
      "o": 50,
      "p": 51,
      "q": 52,
      "r": 53,
      "s": 54,
      "t": 55,
      "u": 56,
      "v": 57,
      "w": 58,
      "x": 59,
      "y": 60,
      "z": 61,
      "£": 62,
      "´": 63,
      "̀": 64,
      "́": 65,
      "̂": 66,
      "̃": 67,
      "̄": 68,
      "̇": 69,
      "̊": 70,
      "̣": 71,
      "​": 72,
      "‏": 73,
      "–": 74,
      "—": 75,
      "’": 76,
      "“": 77,
      "”": 78,
      "…": 79,
      "": 80,
      "ụ": 81,
      "ọ": 82,
      "ị": 83,
      "na": 84,
      "dị": 85,
      "kw": 86,
      "ny": 87,
      "ka": 88,
      "ma": 89,
      "ch": 90,
      "ke": 91,
      "er": 92,
      "gb": 93,
      "ha": 94,
      "ndị": 95,
      "ra": 96,
      "nw": 97,
      "bụ": 98,
      "ta": 99,
      "ere": 100,
      "me": 101,
      "la": 102,
      "nye": 103,
      "si": 104,
      "nke": 105,
      "ri": 106,
      "rụ": 107,
      "kp": 108,
      "ga": 109,
      "ji": 110,
      "ya": 111,
      "kwu": 112,
      "rị": 113,
      "ih": 114,
      "ru": 115,
      "ah": 116,
      "ba": 117,
      "ti": 118,
      "onye": 119,
      "gh": 120,
      "tu": 121,
      "te": 122,
      "ihe": 123,
      "gba": 124,
      "ahụ": 125,
      "gw": 126,
      "any": 127,
      "kwa": 128,
      "le": 129,
      "pụ": 130,
      "kọ": 131,
      "chị": 132,
      "tụ": 133,
      "ghị": 134,
      "nwe": 135,
      "be": 136,
      "bi": 137,
      "bu": 138,
      "zi": 139,
      "or": 140,
      "che": 141,
      "lọ": 142,
      "dụ": 143,
      "aka": 144,
      "de": 145,
      "gha": 146,
      "an": 147,
      "go": 148,
      "ụlọ": 149,
      "wa": 150,
      "otu": 151,
      "kụ": 152,
      "ọrụ": 153,
      "chi": 154,
      "anyị": 155,
      "isi": 156,
      "maka": 157,
      "ala": 158,
      "do": 159,
      "mma": 160,
      "sa": 161,
      "mụ": 162,
      "rọ": 163,
      "zọ": 164,
      "ike": 165,
      "sị": 166,
      "kwụ": 167,
      "rịa": 168,
      "pụta": 169,
      "nwa": 170,
      "li": 171,
      "af": 172,
      "ọrọ": 173,
      "we": 174,
      "eti": 175,
      "so": 176,
      "gbu": 177,
      "cha": 178,
      "kwuru": 179,
      "ni": 180,
      "kpe": 181,
      "oro": 182,
      "di": 183,
      "gwu": 184,
      "nyere": 185,
      "iri": 186,
      "akụ": 187,
      "ịa": 188,
      "naị": 189,
      "re": 190,
      "bo": 191,
      "gbo": 192,
      "da": 193,
      "ọchị": 194,
      "ebe": 195,
      "naịji": 196,
      "nwere": 197,
      "ọọ": 198,
      "nt": 199,
      "eme": 200,
      "iji": 201,
      "gbe": 202,
      "naịjirịa": 203,
      "wu": 204,
      "mba": 205,
      "nụ": 206,
      "afọ": 207,
      "du": 208,
      "abụ": 209,
      "agha": 210,
      "on": 211,
      "ste": 212,
      "ụmụ": 213,
      "tọ": 214,
      "akwụ": 215,
      "ime": 216,
      "kpa": 217,
      "kwe": 218,
      "ne": 219,
      "ge": 220,
      "steeti": 221,
      "zu": 222,
      "kwọ": 223,
      "ụrụ": 224,
      "mmadụ": 225,
      "anya": 226,
      "mgbe": 227,
      "mere": 228,
      "nọ": 229,
      "ikpe": 230,
      "dịka": 231,
      "agba": 232,
      "se": 233,
      "ọzọ": 234,
      "20": 235,
      "tara": 236,
      "iwu": 237,
      "mp": 238,
      "ama": 239,
      "oke": 240,
      "enwe": 241,
      "lu": 242,
      "mme": 243,
      "okwu": 244,
      "mi": 245,
      "onyeisi": 246,
      "ọbụ": 247,
      "akwụkwọ": 248,
      "gụ": 249,
      "aga": 250,
      "ego": 251,
      "pu": 252,
      "ku": 253,
      "eri": 254,
      "nu": 255,
      "zụ": 256,
      "ezi": 257,
      "ana": 258,
      "akụkọ": 259,
      "ọnụ": 260,
      "egwu": 261,
      "site": 262,
      "ko": 263,
      "iche": 264,
      "siri": 265,
      "ile": 266,
      "obi": 267,
      "gwa": 268,
      "anọ": 269,
      "oge": 270,
      "nwaanyị": 271,
      "abụọ": 272,
      "ọchịchị": 273,
      "201": 274,
      "ntị": 275,
      "ụzọ": 276,
      "igbo": 277,
      "mu": 278,
      "ghi": 279,
      "niile": 280,
      "bịa": 281,
      "tụtụ": 282,
      "pụtara": 283,
      "gọọ": 284,
      "to": 285,
      "gọọme": 286,
      "bodo": 287,
      "mo": 288,
      "mana": 289,
      "sh": 290,
      "nwụ": 291,
      "fe": 292,
      "ekwu": 293,
      "obodo": 294,
      "mgba": 295,
      "ọtụtụ": 296,
      "je": 297,
      "nd": 298,
      "kpọ": 299,
      "al": 300,
      "nyo": 301,
      "ria": 302,
      "gara": 303,
      "mb": 304,
      "gu": 305,
      "tere": 306,
      "ihu": 307,
      "pa": 308,
      "sọ": 309,
      "bụrụ": 310,
      "pe": 311,
      "gị": 312,
      "ebu": 313,
      "onwe": 314,
      "kpọrọ": 315,
      "in": 316,
      "ọdụ": 317,
      "gbọ": 318,
      "gọ": 319,
      "ukwu": 320,
      "ọbụla": 321,
      "ụwa": 322,
      "uru": 323,
      "mm": 324,
      "ro": 325,
      "oji": 326,
      "chọ": 327,
      "ahịa": 328,
      "ụb": 329,
      "ọka": 330,
      "gi": 331,
      "uwe": 332,
      "su": 333,
      "ụbọchị": 334,
      "ola": 335,
      "okp": 336,
      "azụ": 337,
      "eji": 338,
      "ozi": 339,
      "atọ": 340,
      "mkpa": 341,
      "gwụ": 342,
      "buha": 343,
      "gọọmentị": 344,
      "sara": 345,
      "lụ": 346,
      "jụ": 347,
      "ugbu": 348,
      "hi": 349,
      "gburu": 350,
      "ome": 351,
      "buhari": 352,
      "ce": 353,
      "nna": 354,
      "mer": 355,
      "nga": 356,
      "nwoke": 357,
      "us": 358,
      "ojii": 359,
      "nso": 360,
      "co": 361,
      "naiji": 362,
      "banyere": 363,
      "atụ": 364,
      "ndọrọ": 365,
      "kwara": 366,
      "nche": 367,
      "ụgbọ": 368,
      "ndi": 369,
      "etiti": 370,
      "ja": 371,
      "lo": 372,
      "nti": 373,
      "aha": 374,
      "enye": 375,
      "arụ": 376,
      "hụ": 377,
      "ọkụ": 378,
      "asa": 379,
      "ọnwa": 380,
      "kwado": 381,
      "gbara": 382,
      "aghara": 383,
      "st": 384,
      "gharị": 385,
      "th": 386,
      "sịrị": 387,
      "fọdụ": 388,
      "ze": 389,
      "hụrụ": 390,
      "fu": 391,
      "naijiria": 392,
      "ara": 393,
      "ele": 394,
      "ndụ": 395,
      "lite": 396,
      "nta": 397,
      "ekwe": 398,
      "zị": 399,
      "elu": 400,
      "ihi": 401,
      "nk": 402,
      "regwu": 403,
      "ụfọdụ": 404,
      "enweghị": 405,
      "egwuregwu": 406,
      "gọv": 407,
      "kpo": 408,
      "ise": 409,
      "jo": 410,
      "mee": 411,
      "pụrụ": 412,
      "adị": 413,
      "ju": 414,
      "kọwa": 415,
      "ugbua": 416,
      "gọvanọ": 417,
      "yi": 418,
      "ụka": 419,
      "etu": 420,
      "nwu": 421,
      "sta": 422,
      "ọgwụ": 423,
      "mpaghara": 424,
      "ela": 425,
      "ọj": 426,
      "nri": 427,
      "olu": 428,
      "gosi": 429,
      "ọgụ": 430,
      "nị": 431,
      "gwọ": 432,
      "onyeisiala": 433,
      "gbasara": 434,
      "bb": 435,
      "kike": 436,
      "ntu": 437,
      "ọgba": 438,
      "aba": 439,
      "chọrọ": 440,
      "uche": 441,
      "bere": 442,
      "no": 443,
      "nakwa": 444,
      "mara": 445,
      "nyocha": 446,
      "ngwa": 447,
      "nne": 448,
      "ọkwa": 449,
      "nje": 450,
      "iwe": 451,
      "2019": 452,
      "ca": 453,
      "laba": 454,
      "were": 455,
      "dọ": 456,
      "mume": 457,
      "ọrịa": 458,
      "rịta": 459,
      "gide": 460,
      "nde": 461,
      "ss": 462,
      "zo": 463,
      "chụ": 464,
      "ngalaba": 465,
      "bbc": 466,
      "bọọ": 467,
      "mbụ": 468,
      "kọta": 469,
      "dere": 470,
      "ap": 471,
      "kwuo": 472,
      "rịrị": 473,
      "tion": 474,
      "ụlọikpe": 475,
      "uweojii": 476,
      "bọọlụ": 477,
      "mkpe": 478,
      "nnu": 479,
      "asọ": 480,
      "ikike": 481,
      "ọma": 482,
      "ọdị": 483,
      "bata": 484,
      "mmiri": 485,
      "ore": 486,
      "ụmụnwaanyị": 487,
      "bara": 488,
      "gwara": 489,
      "19": 490,
      "echi": 491,
      "ter": 492,
      "nya": 493,
      "nle": 494,
      "ole": 495,
      "kpụ": 496,
      "mbra": 497,
      "ki": 498,
      "anambra": 499,
      "usoro": 500,
      "achị": 501,
      "tupu": 502,
      "nweta": 503,
      "fo": 504,
      "sụ": 505,
      "chara": 506,
      "nnukwu": 507,
      "abu": 508,
      "eze": 509,
      "of": 510,
      "kwesiri": 511,
      "is": 512,
      "ve": 513,
      "nsogbu": 514,
      "nchekwa": 515,
      "taa": 516,
      "achọ": 517,
      "jọ": 518,
      "nal": 519,
      "akpọ": 520,
      "mị": 521,
      "ịgba": 522,
      "gwe": 523,
      "tị": 524,
      "ụlọọrụ": 525,
      "ada": 526,
      "dum": 527,
      "apc": 528,
      "eche": 529,
      "kacha": 530,
      "ghọ": 531,
      "mpi": 532,
      "ajụ": 533,
      "po": 534,
      "ntuli": 535,
      "con": 536,
      "maọbụ": 537,
      "ewe": 538,
      "maha": 539,
      "kee": 540,
      "doro": 541,
      "akpa": 542,
      "wi": 543,
      "ghara": 544,
      "wakpo": 545,
      "esi": 546,
      "mmụ": 547,
      "ụgwọ": 548,
      "wee": 549,
      "ọhụrụ": 550,
      "agụ": 551,
      "ine": 552,
      "ye": 553,
      "chukwu": 554,
      "abụghị": 555,
      "amasị": 556,
      "mahadum": 557,
      "naan": 558,
      "bekee": 559,
      "ụmụaka": 560,
      "ibu": 561,
      "jiri": 562,
      "tinye": 563,
      "mbọ": 564,
      "ịrị": 565,
      "nọdụ": 566,
      ".'": 567,
      "eke": 568,
      "hịa": 569,
      "ụgbọala": 570,
      "inye": 571,
      "nig": 572,
      "chie": 573,
      "gọọmenti": 574,
      "abịa": 575,
      "anwụ": 576,
      "nkwa": 577,
      "ọnọdụ": 578,
      "vi": 579,
      "ịka": 580,
      "el": 581,
      "iko": 582,
      "per": 583,
      "agaghị": 584,
      "wore": 585,
      "sowore": 586,
      "agbanye": 587,
      "lị": 588,
      "ok": 589,
      "nkiri": 590,
      "ò": 591,
      "kọrịta": 592,
      "naanị": 593,
      "oche": 594,
      "za": 595,
      "anaghị": 596,
      "nka": 597,
      "kwere": 598,
      "mmadu": 599,
      "njem": 600,
      "azị": 601,
      "ụdị": 602,
      "ruo": 603,
      "tù": 604,
      "ntuliaka": 605,
      "hara": 606,
      "ezu": 607,
      "meri": 608,
      "ntụ": 609,
      "2018": 610,
      "ci": 611,
      "ọmụ": 612,
      "ebubo": 613,
      "okporo": 614,
      "nzu": 615,
      "ruru": 616,
      "bia": 617,
      "okpuru": 618,
      "yo": 619,
      "ọjị": 620,
      "mkp": 621,
      "eru": 622,
      "ugwu": 623,
      "adịghị": 624,
      "nigeri": 625,
      "ati": 626,
      "ozu": 627,
      "bido": 628,
      "buru": 629,
      "chiri": 630,
      "enweta": 631,
      "amer": 632,
      "ọla": 633,
      "pati": 634,
      "amerịka": 635,
      "akwa": 636,
      "ea": 637,
      "oh": 638,
      "fa": 639,
      "gboro": 640,
      "nwụrụ": 641,
      "mmeri": 642,
      "òtù": 643,
      "ade": 644,
      "fi": 645,
      "matụ": 646,
      "ajụjụ": 647,
      "imo": 648,
      "lee": 649,
      "họ": 650,
      "nha": 651,
      "ọha": 652,
      "egbu": 653,
      "mwakpo": 654,
      "ng": 655,
      "ndu": 656,
      "omeiwu": 657,
      "nyi": 658,
      "ezigbo": 659,
      "ọgbakọ": 660,
      "atiku": 661,
      "sote": 662,
      "les": 663,
      "beghị": 664,
      "kọwara": 665,
      "ọnwụ": 666,
      "kọrọ": 667,
      "ntoro": 668,
      "akụkụ": 669,
      "anyanwụ": 670,
      "mgbasa": 671,
      "agwa": 672,
      "ede": 673,
      "fra": 674,
      "osi": 675,
      "afri": 676,
      "nda": 677,
      "isii": 678,
      "super": 679,
      "mkpebi": 680,
      "echiche": 681,
      "karịrị": 682,
      "ekwuola": 683,
      "atụmatụ": 684,
      "ar": 685,
      "san": 686,
      "ver": 687,
      "dee": 688,
      "ohere": 689,
      "00": 690,
      "es": 691,
      "nku": 692,
      "ogo": 693,
      "megide": 694,
      "com": 695,
      "',": 696,
      "'.": 697,
      "ọna": 698,
      "anụ": 699,
      "muha": 700,
      "mgbanwe": 701,
      "asaa": 702,
      "kachasị": 703,
      "ssi": 704,
      "wo": 705,
      "dozi": 706,
      "nigeria": 707,
      "akwado": 708,
      "enu": 709,
      "emume": 710,
      "izu": 711,
      "ll": 712,
      "ty": 713,
      "karịa": 714,
      "kwụsị": 715,
      "igwe": 716,
      "osote": 717,
      "ghe": 718,
      "nkwu": 719,
      "oba": 720,
      "ụba": 721,
      "madu": 722,
      "gaa": 723,
      "puta": 724,
      "ọjọọ": 725,
      "awa": 726,
      "omume": 727,
      "ugbo": 728,
      "akara": 729,
      "gos": 730,
      "zuru": 731,
      "ọkacha": 732,
      "oku": 733,
      "nai": 734,
      "gbochi": 735,
      "ndọrọndọrọ": 736,
      "asatọ": 737,
      "dp": 738,
      "maazị": 739,
      "ris": 740,
      "rịka": 741,
      "litere": 742,
      "ab": 743,
      "ziri": 744,
      "etinye": 745,
      "bịara": 746,
      "ck": 747,
      "ịma": 748,
      "kan": 749,
      "nwetara": 750,
      "ghachi": 751,
      "gosiri": 752,
      "boko": 753,
      "sha": 754,
      "ugboro": 755,
      "afrịka": 756,
      "enweghi": 757,
      "ewu": 758,
      "ho": 759,
      "mpụ": 760,
      "pdp": 761,
      "azụma": 762,
      "ntaakụkọ": 763,
      "asọmpi": 764,
      "haram": 765,
      "nchị": 766,
      "nkeji": 767,
      "mmepe": 768,
      "ezina": 769,
      "mmụta": 770,
      "riri": 771,
      "goolu": 772,
      "gụnyere": 773,
      "nwunye": 774,
      "ọgụgụ": 775,
      "muhammadu": 776,
      "amụ": 777,
      "for": 778,
      "onyo": 779,
      "obere": 780,
      "nwata": 781,
      "gburugburu": 782,
      "enwere": 783,
      "inwe": 784,
      "nji": 785,
      "nkwe": 786,
      "mar": 787,
      "chu": 788,
      "nwo": 789,
      "bụla": 790,
      "mmanụ": 791,
      "alụ": 792,
      "nkuzi": 793,
      "ezinaụlọ": 794,
      "ọw": 795,
      "narị": 796,
      "bụghị": 797,
      "ahụike": 798,
      "shi": 799,
      "nkwado": 800,
      "ofe": 801,
      "ụkwụ": 802,
      "anyi": 803,
      "ano": 804,
      "kwesịrị": 805,
      "okoro": 806,
      "ọwụwa": 807,
      "),": 808,
      "ekp": 809,
      "jị": 810,
      "udo": 811,
      "nwee": 812,
      "amaghị": 813,
      "shu": 814,
      "inec": 815,
      "agbanyeghị": 816,
      "ekwere": 817,
      "ikwu": 818,
      "nce": 819,
      "uni": 820,
      "tinyere": 821,
      "puku": 822,
      "eag": 823,
      "enyere": 824,
      "enyi": 825,
      "ngosi": 826,
      "kama": 827,
      "kemgbe": 828,
      "mụrụ": 829,
      "onal": 830,
      "ọkpụ": 831,
      "kere": 832,
      "baka": 833,
      "banye": 834,
      "and": 835,
      "azọ": 836,
      "chere": 837,
      "biri": 838,
      "ntorobịa": 839,
      "asị": 840,
      "gre": 841,
      "ibe": 842,
      "tọrọ": 843,
      "cheta": 844,
      "eziokwu": 845,
      "chọpụta": 846,
      "mkpesa": 847,
      "dss": 848,
      "enyo": 849,
      "fụ": 850,
      "ọtọ": 851,
      "abuja": 852,
      "asụ": 853,
      "ebo": 854,
      "ogbu": 855,
      "uth": 856,
      "̇ụ": 857,
      "metụ": 858,
      "kporo": 859,
      "ahu": 860,
      "egosi": 861,
      "gịnị": 862,
      ",'": 863,
      "he": 864,
      "nati": 865,
      "rụrụ": 866,
      "bidoro": 867,
      "chite": 868,
      "lie": 869,
      "dia": 870,
      "dara": 871,
      "ebum": 872,
      "abalị": 873,
      "azụmahịa": 874,
      "makana": 875,
      "ukwuu": 876,
      "eagles": 877,
      "national": 878,
      "eso": 879,
      "jụrụ": 880,
      "nc": 881,
      "tru": 882,
      "kwukwara": 883,
      "bri": 884,
      "efu": 885,
      "ịbụ": 886,
      "ịtụ": 887,
      "hapụ": 888,
      "meriri": 889,
      "mkpụrụ": 890,
      "agu": 891,
      "ipo": 892,
      "pro": 893,
      "ume": 894,
      "erede": 895,
      "biaf": 896,
      "ụlọakwụkwọ": 897,
      "mpe": 898,
      "ọdịda": 899,
      "ekweremadu": 900,
      "biafra": 901,
      "--": 902,
      "mkpọrọ": 903,
      "oka": 904,
      "vo": 905,
      "ịdị": 906,
      "ịga": 907,
      "pụtala": 908,
      "ntọ": 909,
      "ụmụakwụkwọ": 910,
      "pase": 911,
      "ipob": 912,
      "ad": 913,
      "ehi": 914,
      "itinye": 915,
      "mdi": 916,
      "ode": 917,
      "ọcha": 918,
      "ịrụ": 919,
      "rue": 920,
      "mmekọrịta": 921,
      "ezie": 922,
      "akpọrọ": 923,
      "egbe": 924,
      "lagos": 925,
      "dan": 926,
      "ekpe": 927,
      "jeri": 928,
      "twi": 929,
      "ọbara": 930,
      "ịhụ": 931,
      "kedụ": 932,
      "nwanyị": 933,
      "kpu": 934,
      "kọmi": 935,
      "ondo": 936,
      "kpatara": 937,
      "mmemme": 938,
      "omena": 939,
      "agụma": 940,
      "fal": 941,
      "rs": 942,
      "nlekọta": 943,
      "họpụta": 944,
      "bakar": 945,
      "aw": 946,
      "achụ": 947,
      "gra": 948,
      "mbu": 949,
      "ọsọ": 950,
      "gbụrụ": 951,
      "kwụkwọ": 952,
      "obiano": 953,
      "sho": 954,
      "mịnị": 955,
      "enugwu": 956,
      "ofesi": 957,
      "can": 958,
      "iyi": 959,
      "gaghị": 960,
      "ted": 961,
      "wakporo": 962,
      "putara": 963,
      "shọna": 964,
      "mberede": 965,
      "abubakar": 966,
      "trump": 967,
      "falcon": 968,
      "10": 969,
      "ichi": 970,
      "mgb": 971,
      "mike": 972,
      "omo": 973,
      "pi": 974,
      "tri": 975,
      "ụlọakụ": 976,
      "china": 977,
      "guzo": 978,
      "mmụọ": 979,
      "asụsụ": 980,
      "hu": 981,
      "ry": 982,
      "naụba": 983,
      "kwasị": 984,
      "tụrụ": 985,
      "mini": 986,
      "okorocha": 987,
      "ly": 988,
      "ohi": 989,
      "oyi": 990,
      "sitere": 991,
      "gbaa": 992,
      "south": 993,
      "mpị": 994,
      "naira": 995,
      "metụtara": 996,
      "bọ": 997,
      "boro": 998,
      "ide": 999,
      "inweta": 1000,
      "lla": 1001,
      "zie": 1002,
      "gbuo": 1003,
      "akụnaụba": 1004,
      "naịjiria": 1005,
      "abụrụ": 1006,
      "mmed": 1007,
      "sun": 1008,
      "foto": 1009,
      "falcons": 1010,
      ").": 1011,
      "edo": 1012,
      "eto": 1013,
      "nkwụ": 1014,
      "nihu": 1015,
      "pre": 1016,
      "tra": 1017,
      "ụkọ": 1018,
      "ọn": 1019,
      "malitere": 1020,
      "kwụrụ": 1021,
      "akwụsị": 1022,
      "200": 1023,
      "nuche": 1024,
      "moha": 1025,
      "ing": 1026,
      "ngagharị": 1027,
      "ụgbọelu": 1028,
      "nzuzo": 1029,
      "obasan": 1030,
      "amụma": 1031,
      "fere": 1032,
      "mbi": 1033,
      "nn": 1034,
      "nnọ": 1035,
      "ogbe": 1036,
      "ụtọ": 1037,
      "kanu": 1038,
      "nwan": 1039,
      "lata": 1040,
      "tụta": 1041,
      "ụlọomeiwu": 1042,
      "chitere": 1043,
      "icheiche": 1044,
      "peter": 1045,
      "ọkammụta": 1046,
      "nzukọ": 1047,
      "vootu": 1048,
      "as": 1049,
      "kị": 1050,
      "up": 1051,
      "ọhịa": 1052,
      "ịna": 1053,
      "kwo": 1054,
      "beghi": 1055,
      "bie": 1056,
      "warị": 1057,
      "chiela": 1058,
      "ọọla": 1059,
      "nleta": 1060,
      "ghọta": 1061,
      "agbanyeghi": 1062,
      "africa": 1063,
      "ebumnuche": 1064,
      "bn": 1065,
      "lere": 1066,
      "od": 1067,
      "ọzụ": 1068,
      "ịkpọ": 1069,
      "kamgbe": 1070,
      "sina": 1071,
      "logo": 1072,
      "asọmpị": 1073,
      "199": 1074,
      "arị": 1075,
      "apụta": 1076,
      "ajọ": 1077,
      "ire": 1078,
      "ijeri": 1079,
      "ngwụ": 1080,
      "tter": 1081,
      "ọbịa": 1082,
      "ment": 1083,
      "batara": 1084,
      "debe": 1085,
      "mbaụwa": 1086,
      "2015": 1087,
      "wil": 1088,
      "merie": 1089,
      "ogologo": 1090,
      "mohammed": 1091,
      "30": 1092,
      "akpụ": 1093,
      "njọ": 1094,
      "ó": 1095,
      "ogu": 1096,
      "ụtụ": 1097,
      "new": 1098,
      "gọs": 1099,
      "mịnịsta": 1100,
      "ata": 1101,
      "ese": 1102,
      "mgbochi": 1103,
      "tor": 1104,
      "ịkpa": 1105,
      "man": 1106,
      "bụkwa": 1107,
      "sin": 1108,
      "kwupụtara": 1109,
      "butere": 1110,
      "anabata": 1111,
      "nnamdi": 1112,
      "elec": 1113,
      "ntụli": 1114,
      "nkwenye": 1115,
      "ekpere": 1116,
      "obasanjo": 1117,
      "ebi": 1118,
      "emere": 1119,
      "ito": 1120,
      "nzụ": 1121,
      "qu": 1122,
      "ton": 1123,
      "ọdọ": 1124,
      "ọfụ": 1125,
      "ịlụ": 1126,
      "gbụ": 1127,
      "emepụta": 1128,
      "rocha": 1129,
      "ncheta": 1130,
      "ndigbo": 1131,
      "the": 1132,
      "isha": 1133,
      "france": 1134,
      "ọkachamara": 1135,
      "abụrụla": 1136,
      "ọfụma": 1137,
      "egbochi": 1138,
      "mọdụ": 1139,
      "oriri": 1140,
      "ur": 1141,
      "ọkpọ": 1142,
      "ịkwụ": 1143,
      "ịtị": 1144,
      "kpụrụ": 1145,
      "gawa": 1146,
      "son": 1147,
      "ikpeazụ": 1148,
      "amara": 1149,
      "mkparịta": 1150,
      "saraki": 1151,
      "enyemaka": 1152,
      "onyonyo": 1153,
      "eje": 1154,
      "ite": 1155,
      "ije": 1156,
      "nsọ": 1157,
      "por": 1158,
      "va": 1159,
      "mechara": 1160,
      "sie": 1161,
      "kwalite": 1162,
      "kọmị": 1163,
      "nweghị": 1164,
      "wanye": 1165,
      "mmasị": 1166,
      "okpu": 1167,
      "ndụmọdụ": 1168,
      "state": 1169,
      "ịrịka": 1170,
      "ọmụmụ": 1171,
      "nhazi": 1172,
      "abdu": 1173,
      "agụmakwụkwọ": 1174,
      "ogbenye": 1175,
      "akọ": 1176,
      "adi": 1177,
      "arịrị": 1178,
      "cc": 1179,
      "dr": 1180,
      "efe": 1181,
      "eyi": 1182,
      "enyocha": 1183,
      "ff": 1184,
      "nsị": 1185,
      "ope": 1186,
      "ph": 1187,
      "uwa": 1188,
      "ral": 1189,
      "land": 1190,
      "yana": 1191,
      "afịrịka": 1192,
      "obibi": 1193,
      "twitter": 1194,
      "ọzụzụ": 1195,
      "int": 1196,
      "miri": 1197,
      "ns": 1198,
      "nor": 1199,
      "ony": 1200,
      "oli": 1201,
      "uk": 1202,
      "ugo": 1203,
      "yu": 1204,
      "ịme": 1205,
      "karị": 1206,
      "chịrị": 1207,
      "ani": 1208,
      "kansa": 1209,
      "nchịkwa": 1210,
      "shua": 1211,
      "rochas": 1212,
      "aja": 1213,
      "abia": 1214,
      "agbụrụ": 1215,
      "bli": 1216,
      "der": 1217,
      "nnyocha": 1218,
      "yin": 1219,
      "zdee": 1220,
      "ụtụtụ": 1221,
      "ọgbọ": 1222,
      "bank": 1223,
      "wap": 1224,
      "ree": 1225,
      "mbara": 1226,
      "2017": 1227,
      "ebute": 1228,
      "iswap": 1229,
      "ọmụma": 1230,
      "họpụtara": 1231,
      "nkwupụta": 1232,
      "ague": 1233,
      "nzụkọ": 1234,
      "aisha": 1235,
      "ebido": 1236,
      "soro": 1237,
      "rin": 1238,
      "kwaa": 1239,
      "league": 1240,
      "kpara": 1241,
      "ekwuchitere": 1242,
      "bụrụkwa": 1243,
      "ọkaikpe": 1244,
      "ekwentị": 1245,
      "kiti": 1246,
      "akwu": 1247,
      "aku": 1248,
      "eu": 1249,
      "nz": 1250,
      "nọrọ": 1251,
      "ịda": 1252,
      "ịkwado": 1253,
      "maara": 1254,
      "bụbu": 1255,
      "ghere": 1256,
      "kọtara": 1257,
      "akụrụ": 1258,
      "agbara": 1259,
      "tarachi": 1260,
      "amalite": 1261,
      "publi": 1262,
      "she": 1263,
      "alth": 1264,
      "omebe": 1265,
      "dọkị": 1266,
      "196": 1267,
      "ezumike": 1268,
      "ọnatarachi": 1269,
      "shal": 1270,
      "sineti": 1271,
      "au": 1272,
      "akọwa": 1273,
      "edu": 1274,
      "izi": 1275,
      "igbu": 1276,
      "mon": 1277,
      "os": 1278,
      "tha": 1279,
      "ulo": 1280,
      "dịrị": 1281,
      "ghana": 1282,
      "midia": 1283,
      "anambara": 1284,
      "code": 1285,
      "nkịtị": 1286,
      "joshua": 1287,
      "achọghị": 1288,
      "eweta": 1289,
      "ọkachasị": 1290,
      "15": 1291,
      "ì": 1292,
      "mbido": 1293,
      "ngo": 1294,
      "onwu": 1295,
      "yele": 1296,
      "kè": 1297,
      "sine": 1298,
      "nkea": 1299,
      "pụla": 1300,
      "chine": 1301,
      "wepụtara": 1302,
      "soci": 1303,
      "day": 1304,
      "chọpụtara": 1305,
      "ọkaiwu": 1306,
      "dọla": 1307,
      "egbuola": 1308,
      "shuga": 1309,
      "ogbugbu": 1310,
      "omoyele": 1311,
      "itoolu": 1312,
      "am": 1313,
      "bra": 1314,
      "etị": 1315,
      "igba": 1316,
      "ld": 1317,
      "mwu": 1318,
      "nchọpụta": 1319,
      "nrụrụ": 1320,
      "oma": 1321,
      "rd": 1322,
      "ọk": 1323,
      "ọkwọ": 1324,
      "kata": 1325,
      "kano": 1326,
      "jidere": 1327,
      "turu": 1328,
      "kwadoro": 1329,
      "ghari": 1330,
      "wara": 1331,
      "satọ": 1332,
      "republi": 1333,
      "zuo": 1334,
      "femi": 1335,
      "gidere": 1336,
      "ves": 1337,
      "nchịkọta": 1338,
      "nkwekọrịta": 1339,
      "nwosu": 1340,
      "ncy": 1341,
      "omenala": 1342,
      "ụkọchukwu": 1343,
      "akụrụngwa": 1344,
      "17": 1345,
      "ation": 1346,
      "en": 1347,
      "emer": 1348,
      "idu": 1349,
      "nkọwa": 1350,
      "oko": 1351,
      "sd": 1352,
      "ụnya": 1353,
      "ọga": 1354,
      "nanya": 1355,
      "kasị": 1356,
      "tic": 1357,
      "tii": 1358,
      "tele": 1359,
      "gboo": 1360,
      "emeela": 1361,
      "ụmụnwoke": 1362,
      "kwenyere": 1363,
      "2020": 1364,
      "mmekọ": 1365,
      "mmebi": 1366,
      "puru": 1367,
      "onweghị": 1368,
      "nrite": 1369,
      "ekele": 1370,
      "odeakwụkwọ": 1371,
      "minista": 1372,
      "kọmịshọna": 1373,
      "11": 1374,
      "ekwuru": 1375,
      "họrọ": 1376,
      "ibi": 1377,
      "ife": 1378,
      "mọtọ": 1379,
      "nhọpụta": 1380,
      "odu": 1381,
      "sy": 1382,
      "ụgha": 1383,
      "ịnọ": 1384,
      "ahụhụ": 1385,
      "legosi": 1386,
      "akaebe": 1387,
      "aṅụ": 1388,
      "gov": 1389,
      "akụnụ": 1390,
      "naịra": 1391,
      "onweghi": 1392,
      "ekwesi": 1393,
      "mkpu": 1394,
      "afrika": 1395,
      "pasenti": 1396,
      "akụnụba": 1397,
      "à": 1398,
      "ber": 1399,
      "bor": 1400,
      "cbn": 1401,
      "ef": 1402,
      "goro": 1403,
      "ky": 1404,
      "kiri": 1405,
      "mkpọ": 1406,
      "nrị": 1407,
      "okike": 1408,
      "ọtụ": 1409,
      "ịba": 1410,
      "mes": 1411,
      "gwo": 1412,
      "wetara": 1413,
      "sonyere": 1414,
      "soshal": 1415,
      "mmepụta": 1416,
      "mile": 1417,
      "gharịrị": 1418,
      "ọgbaghara": 1419,
      "city": 1420,
      "enugu": 1421,
      "mgbere": 1422,
      "inter": 1423,
      "yinka": 1424,
      "codeine": 1425,
      "ac": 1426,
      "by": 1427,
      "mokwu": 1428,
      "nkụ": 1429,
      "ssa": 1430,
      "wụ": 1431,
      "wor": 1432,
      "ụkwa": 1433,
      "ịzụ": 1434,
      "ịchụ": 1435,
      "mata": 1436,
      "rụọ": 1437,
      "jide": 1438,
      "rịọ": 1439,
      "legọs": 1440,
      "wepụ": 1441,
      "dise": 1442,
      "ọbụghị": 1443,
      "ọnụọgụgụ": 1444,
      "toba": 1445,
      "gunyere": 1446,
      "ster": 1447,
      "elekere": 1448,
      "njedebe": 1449,
      "car": 1450,
      "arse": 1451,
      "lly": 1452,
      "ghete": 1453,
      "united": 1454,
      "iteghete": 1455,
      "ụnyaahụ": 1456,
      "at": 1457,
      "akp": 1458,
      "arịa": 1459,
      "emeri": 1460,
      "nghọta": 1461,
      "odozi": 1462,
      "pere": 1463,
      "zde": 1464,
      "ọda": 1465,
      "malite": 1466,
      "chọọ": 1467,
      "tain": 1468,
      "jikọrọ": 1469,
      "ihere": 1470,
      "pụọ": 1471,
      "nwealth": 1472,
      "ụlọụka": 1473,
      "gency": 1474,
      "agbanwe": 1475,
      "anọghị": 1476,
      "monwealth": 1477,
      "nnabata": 1478,
      "naijirịa": 1479,
      "vic": 1480,
      "commonwealth": 1481,
      "ngwụcha": 1482,
      "willie": 1483,
      "acha": 1484,
      "adọ": 1485,
      "juru": 1486,
      "mpụtara": 1487,
      "mfe": 1488,
      "oha": 1489,
      "ts": 1490,
      "ut": 1491,
      "unu": 1492,
      "ọme": 1493,
      "ọgara": 1494,
      "ịchị": 1495,
      "russi": 1496,
      "baba": 1497,
      "tutu": 1498,
      "legos": 1499,
      "soyinka": 1500,
      "gige": 1501,
      "cent": 1502,
      "gosipụtara": 1503,
      "ozugbo": 1504,
      "commi": 1505,
      "ebonyi": 1506,
      "kọmitii": 1507,
      "esemokwu": 1508,
      "election": 1509,
      "onyinye": 1510,
      "akwukwo": 1511,
      "disemba": 1512,
      "russia": 1513,
      "agw": 1514,
      "eh": 1515,
      "idi": 1516,
      "londo": 1517,
      "mbodo": 1518,
      "nụlọ": 1519,
      "pan": 1520,
      "ser": 1521,
      "umu": 1522,
      "ụkwara": 1523,
      "ọnị": 1524,
      "taghị": 1525,
      "megidere": 1526,
      "gar": 1527,
      "kwunye": 1528,
      "kwuputara": 1529,
      "belata": 1530,
      "del": 1531,
      "sahara": 1532,
      "nia": 1533,
      "ren": 1534,
      "dada": 1535,
      "davi": 1536,
      "onu": 1537,
      "mmetụta": 1538,
      "ezinụlọ": 1539,
      "ọnụahịa": 1540,
      "2016": 1541,
      "feder": 1542,
      "enyela": 1543,
      "asambodo": 1544,
      "pụrụiche": 1545,
      "jula": 1546,
      "echichi": 1547,
      "nald": 1548,
      "ssion": 1549,
      "premi": 1550,
      "nwanne": 1551,
      "yusu": 1552,
      "borno": 1553,
      "arsenal": 1554,
      "london": 1555,
      "ọnịcha": 1556,
      "12": 1557,
      "16": 1558,
      "22": 1559,
      "ameri": 1560,
      "cu": 1561,
      "ewere": 1562,
      "nla": 1563,
      "oni": 1564,
      "odi": 1565,
      "osun": 1566,
      "wan": 1567,
      "ịkụ": 1568,
      "ịzọ": 1569,
      "kalu": 1570,
      "mazị": 1571,
      "kedu": 1572,
      "kelere": 1573,
      "river": 1574,
      "anyere": 1575,
      "gharịa": 1576,
      "donald": 1577,
      "dika": 1578,
      "emebi": 1579,
      "ọnụego": 1580,
      "fee": 1581,
      "joh": 1582,
      "vemba": 1583,
      "anwụọla": 1584,
      "ụdịrị": 1585,
      "risti": 1586,
      "omenaala": 1587,
      "nkwụmọtọ": 1588,
      "opekata": 1589,
      "chineke": 1590,
      "satọde": 1591,
      "efcc": 1592,
      "ọgaranya": 1593,
      "aza": 1594,
      "emma": 1595,
      "furu": 1596,
      "ger": 1597,
      "iz": 1598,
      "iru": 1599,
      "igosi": 1600,
      "un": 1601,
      "ụjọ": 1602,
      "ọwa": 1603,
      "ịkwa": 1604,
      "ịkwụsị": 1605,
      "tek": 1606,
      "ụlọọgwụ": 1607,
      "mụta": 1608,
      "lik": 1609,
      "sola": 1610,
      "char": 1611,
      "nọvemba": 1612,
      "mposi": 1613,
      "hie": 1614,
      "198": 1615,
      "congre": 1616,
      "you": 1617,
      "awụ": 1618,
      "shop": 1619,
      "olile": 1620,
      "congress": 1621,
      ")'": 1622,
      "..": 1623,
      "apụ": 1624,
      "agbọ": 1625,
      "agwụ": 1626,
      "agency": 1627,
      "edere": 1628,
      "gro": 1629,
      "nrụ": 1630,
      "pla": 1631,
      "sc": 1632,
      "sti": 1633,
      "um": 1634,
      "win": 1635,
      "ụt": 1636,
      "ụta": 1637,
      "nabatara": 1638,
      "kara": 1639,
      "kadu": 1640,
      "kapa": 1641,
      "har": 1642,
      "hapụrụ": 1643,
      "tala": 1644,
      "tanka": 1645,
      "met": 1646,
      "kwusiri": 1647,
      "tech": 1648,
      "bishop": 1649,
      "ụlọahịa": 1650,
      "isiokwu": 1651,
      "saụt": 1652,
      "lib": 1653,
      "naịjị": 1654,
      "bok": 1655,
      "emeka": 1656,
      "gee": 1657,
      "zutere": 1658,
      "mmefu": 1659,
      "nuel": 1660,
      "muel": 1661,
      "mgbazi": 1662,
      "ussd": 1663,
      "ntinye": 1664,
      "ther": 1665,
      "sss": 1666,
      "197": 1667,
      "gwè": 1668,
      "okporoụzọ": 1669,
      "fraị": 1670,
      "osisi": 1671,
      "000": 1672,
      "esonye": 1673,
      "awara": 1674,
      "njikere": 1675,
      "britain": 1676,
      "okaikpe": 1677,
      "trik": 1678,
      "news": 1679,
      "arịrịọ": 1680,
      "dọkịta": 1681,
      "delta": 1682,
      "yusuf": 1683,
      "nlafo": 1684,
      "group": 1685,
      "edozi": 1686,
      "ia": 1687,
      "id": 1688,
      "ir": 1689,
      "kin": 1690,
      "nze": 1691,
      "og": 1692,
      "ogige": 1693,
      "ps": 1694,
      "sọọ": 1695,
      "udu": 1696,
      "wole": 1697,
      "zor": 1698,
      "zara": 1699,
      "ná": 1700,
      "nari": 1701,
      "mad": 1702,
      "mede": 1703,
      "gaara": 1704,
      "ahia": 1705,
      "chekwa": 1706,
      "chibok": 1707,
      "mmalite": 1708,
      "saye": 1709,
      "samuel": 1710,
      "sịghị": 1711,
      "kwụsịrị": 1712,
      "nwaanyi": 1713,
      "afcon": 1714,
      "kpebiri": 1715,
      "bob": 1716,
      "amaala": 1717,
      "kome": 1718,
      "kola": 1719,
      "2014": 1720,
      "gun": 1721,
      "par": 1722,
      "abacha": 1723,
      "ọdịna": 1724,
      "echeta": 1725,
      "ntụkwasị": 1726,
      "edemede": 1727,
      "osikapa": 1728,
      "etinyela": 1729,
      "awka": 1730,
      "ókè": 1731,
      "ọganihu": 1732,
      "milekan": 1733,
      "ọdachi": 1734,
      "ọmebe": 1735,
      "commission": 1736,
      "kaduna": 1737,
      "ag": 1738,
      "atu": 1739,
      "aso": 1740,
      "fọrọ": 1741,
      "kha": 1742,
      "ntara": 1743,
      "ṅụ": 1744,
      "ogba": 1745,
      "odo": 1746,
      "ochie": 1747,
      "tte": 1748,
      "toro": 1749,
      "xi": 1750,
      "nara": 1751,
      "nabata": 1752,
      "katọ": 1753,
      "tai": 1754,
      "nyela": 1755,
      "sili": 1756,
      "rie": 1757,
      "gasịrị": 1758,
      "zigara": 1759,
      "demo": 1760,
      "ange": 1761,
      "kwụọ": 1762,
      "afụ": 1763,
      "nigwe": 1764,
      "dibia": 1765,
      "res": 1766,
      "dap": 1767,
      "emepe": 1768,
      "net": 1769,
      "ney": 1770,
      "agbata": 1771,
      "ọzọkwa": 1772,
      "nue": 1773,
      "jose": 1774,
      "ibute": 1775,
      "anwụchiela": 1776,
      "nkata": 1777,
      "wood": 1778,
      "dozie": 1779,
      "izuụka": 1780,
      "naija": 1781,
      "nnọchi": 1782,
      "abdulla": 1783,
      "euro": 1784,
      "sinetọ": 1785,
      "world": 1786,
      "odoziakụ": 1787,
      "olileanya": 1788,
      "agbọghọ": 1789,
      "agh": 1790,
      "are": 1791,
      "ibra": 1792,
      "jere": 1793,
      "jukwu": 1794,
      "kore": 1795,
      "lt": 1796,
      "pri": 1797,
      "sere": 1798,
      "sala": 1799,
      "votu": 1800,
      "nan": 1801,
      "nanị": 1802,
      "maachị": 1803,
      "raị": 1804,
      "kpọọ": 1805,
      "rịọrọ": 1806,
      "ruiz": 1807,
      "bar": 1808,
      "ben": 1809,
      "biga": 1810,
      "bichi": 1811,
      "chel": 1812,
      "den": 1813,
      "way": 1814,
      "zọrọ": 1815,
      "chapụ": 1816,
      "emeghị": 1817,
      "imebi": 1818,
      "mgbede": 1819,
      "min": 1820,
      "all": 1821,
      "mmer": 1822,
      "ọkara": 1823,
      "buharị": 1824,
      "omekome": 1825,
      "elekọta": 1826,
      "jona": 1827,
      "ọdịmma": 1828,
      "yemi": 1829,
      "ntoroọbịa": 1830,
      "ard": 1831,
      "nnọchite": 1832,
      "ogun": 1833,
      "shehu": 1834,
      "telecom": 1835,
      "international": 1836,
      "garba": 1837,
      "emmanuel": 1838,
      "sọọsọ": 1839,
      "ibrahi": 1840,
      "13": 1841,
      "24": 1842,
      "50": 1843,
      "á": 1844,
      "ali": 1845,
      "cro": 1846,
      "em": 1847,
      "emi": 1848,
      "egburu": 1849,
      "ebere": 1850,
      "ekiti": 1851,
      "kịrị": 1852,
      "nff": 1853,
      "omi": 1854,
      "ojukwu": 1855,
      "sonye": 1856,
      "stu": 1857,
      "uju": 1858,
      "̃ụ": 1859,
      "ụkpụrụ": 1860,
      "ọsị": 1861,
      "ọchụ": 1862,
      "ọghọ": 1863,
      "ịta": 1864,
      "kwanyere": 1865,
      "manụ": 1866,
      "mahụ": 1867,
      "raine": 1868,
      "med": 1869,
      "gana": 1870,
      "ahmed": 1871,
      "tuzdee": 1872,
      "temba": 1873,
      "leta": 1874,
      "ghachị": 1875,
      "nwale": 1876,
      "daa": 1877,
      "data": 1878,
      "emetụta": 1879,
      "duru": 1880,
      "aghachi": 1881,
      "ons": 1882,
      "agbaala": 1883,
      "agbasa": 1884,
      "amaechi": 1885,
      "ezighi": 1886,
      "igbochi": 1887,
      "musa": 1888,
      "guri": 1889,
      "ejighị": 1890,
      "merụrụ": 1891,
      "jupụtara": 1892,
      "gosipụta": 1893,
      "adama": 1894,
      "niger": 1895,
      "azịza": 1896,
      "nigerian": 1897,
      "wol": 1898,
      "ogbunigwe": 1899,
      "okafor": 1900,
      "kọmishọna": 1901,
      "bọje": 1902,
      "associ": 1903,
      "ukraine": 1904,
      "republican": 1905,
      "llywood": 1906,
      "agwala": 1907,
      "federal": 1908,
      "libya": 1909,
      "dapchi": 1910,
      "abdullahi": 1911,
      "ọghọm": 1912,
      "association": 1913,
      "18": 1914,
      "agọ": 1915,
      "atọrọ": 1916,
      "bị": 1917,
      "cra": 1918,
      "cup": 1919,
      "im": 1920,
      "iso": 1921,
      "iro": 1922,
      "ice": 1923,
      "lle": 1924,
      "mọ": 1925,
      "mkpo": 1926,
      "nkwụsị": 1927,
      "ora": 1928,
      "oru": 1929,
      "ogbo": 1930,
      "onwere": 1931,
      "ose": 1932,
      "out": 1933,
      "ụbụrụ": 1934,
      "ụghọ": 1935,
      "ọgọ": 1936,
      "ịchọ": 1937,
      "maa": 1938,
      "chụrụ": 1939,
      "kenya": 1940,
      "ndịa": 1941,
      "latrik": 1942,
      "gbagburu": 1943,
      "kọọ": 1944,
      "benue": 1945,
      "bill": 1946,
      "ance": 1947,
      "otú": 1948,
      "saa": 1949,
      "resi": 1950,
      "gbochie": 1951,
      "nwereike": 1952,
      "okenye": 1953,
      "erite": 1954,
      "muni": 1955,
      "cour": 1956,
      "ọgwụgwọ": 1957,
      "ters": 1958,
      "echekwa": 1959,
      "ọmụgwọ": 1960,
      "face": 1961,
      "african": 1962,
      "esere": 1963,
      "anụmanụ": 1964,
      "onyoonyo": 1965,
      "ncc": 1966,
      "mwute": 1967,
      "ọktoba": 1968,
      "premier": 1969,
      "amerika": 1970,
      "naịjịrịa": 1971,
      "aghụghọ": 1972,
      "ibrahim": 1973,
      "adamawa": 1974,
      "wolves": 1975,
      "court": 1976,
      "achọrọ": 1977,
      "achu": 1978,
      "dọrọ": 1979,
      "eng": 1980,
      "hea": 1981,
      "ibo": 1982,
      "ifo": 1983,
      "iguzo": 1984,
      "imiri": 1985,
      "jan": 1986,
      "lli": 1987,
      "lon": 1988,
      "ms": 1989,
      "mpụta": 1990,
      "np": 1991,
      "nzi": 1992,
      "nzọ": 1993,
      "oria": 1994,
      "olo": 1995,
      "pc": 1996,
      "ron": 1997,
      "ule": 1998,
      "udi": 1999,
      "vs": 2000,
      "wer": 2001,
      "yiri": 2002,
      "ọkọ": 2003,
      "ịhapụ": 2004,
      "nata": 2005,
      "mepụta": 2006,
      "mebiri": 2007,
      "mebie": 2008,
      "nkewa": 2009,
      "rita": 2010,
      "gani": 2011,
      "kwunyere": 2012,
      "nweghi": 2013,
      "nwetere": 2014,
      "bel": 2015,
      "beni": 2016,
      "bulu": 2017,
      "lọta": 2018,
      "gote": 2019,
      "weta": 2020,
      "chaa": 2021,
      "repor": 2022,
      "tọzdee": 2023,
      "kwenye": 2024,
      "neze": 2025,
      "nọlọ": 2026,
      "ses": 2027,
      "mmekpa": 2028,
      "kuru": 2029,
      "mou": 2030,
      "feb": 2031,
      "alli": 2032,
      "okpala": 2033,
      "comp": 2034,
      "lop": 2035,
      "stri": 2036,
      "ekweghị": 2037,
      "ọdịnihu": 2038,
      "ghọtara": 2039,
      "nkatọ": 2040,
      "nhata": 2041,
      "risky": 2042,
      "njikọ": 2043,
      "univer": 2044,
      "gressi": 2045,
      "progressi": 2046,
      "arịọ": 2047,
      "que": 2048,
      "ịmepụta": 2049,
      "ìgwè": 2050,
      "victor": 2051,
      "teknọlọ": 2052,
      "ederede": 2053,
      "idris": 2054,
      "sayensị": 2055,
      "bobrisky": 2056,
      "ntaramahụ": 2057,
      "democra": 2058,
      "neymar": 2059,
      "eserese": 2060,
      "imirikiti": 2061,
      "ntaramahụhụ": 2062,
      ".\"": 2063,
      "14": 2064,
      "26": 2065,
      "27": 2066,
      "37": 2067,
      "awakpo": 2068,
      "cy": 2069,
      "dy": 2070,
      "gụrụ": 2071,
      "hin": 2072,
      "ik": 2073,
      "iti": 2074,
      "lụrụ": 2075,
      "mgbọ": 2076,
      "ncha": 2077,
      "rt": 2078,
      "suru": 2079,
      "tọọ": 2080,
      "zụrụ": 2081,
      "ụra": 2082,
      "ọhụ": 2083,
      "ọgọs": 2084,
      "ọgbụ": 2085,
      "ịchọpụta": 2086,
      "naghị": 2087,
      "naole": 2088,
      "nyụ": 2089,
      "maidu": 2090,
      "metu": 2091,
      "mepụtara": 2092,
      "gachara": 2093,
      "gafere": 2094,
      "ahị": 2095,
      "times": 2096,
      "tụọ": 2097,
      "bukola": 2098,
      "deve": 2099,
      "god": 2100,
      "wal": 2101,
      "kụrụ": 2102,
      "gbuola": 2103,
      "dac": 2104,
      "nụwarị": 2105,
      "ụmụnwanyị": 2106,
      "tọọrọ": 2107,
      "merenụ": 2108,
      "sep": 2109,
      "mmechi": 2110,
      "mmeju": 2111,
      "erima": 2112,
      "zụọ": 2113,
      "anata": 2114,
      "shịa": 2115,
      "shọn": 2116,
      "mgbapụta": 2117,
      "jenụwarị": 2118,
      "uweoji": 2119,
      "ejiri": 2120,
      "ejide": 2121,
      "ozigbo": 2122,
      "meruru": 2123,
      "usti": 2124,
      "nson": 2125,
      "ahazi": 2126,
      "joe": 2127,
      "kọwaa": 2128,
      "nịihu": 2129,
      "abali": 2130,
      "olenaole": 2131,
      "jọgburu": 2132,
      "adesina": 2133,
      "ekperima": 2134,
      "pasent": 2135,
      "norway": 2136,
      "than": 2137,
      "uloikpe": 2138,
      "rivers": 2139,
      "khafi": 2140,
      "silinda": 2141,
      "joseph": 2142,
      "jonathan": 2143,
      "lopment": 2144,
      "nhatanha": 2145,
      "ọgọstụ": 2146,
      "ọgbụgba": 2147,
      "maiduguri": 2148,
      "development": 2149,
      "ato": 2150,
      "asu": 2151,
      "agwọ": 2152,
      "bro": 2153,
      "cle": 2154,
      "ex": 2155,
      "fọ": 2156,
      "fada": 2157,
      "fdac": 2158,
      "iba": 2159,
      "ido": 2160,
      "king": 2161,
      "ls": 2162,
      "mor": 2163,
      "mọrụ": 2164,
      "nba": 2165,
      "nobi": 2166,
      "ubi": 2167,
      "wn": 2168,
      "woro": 2169,
      "ọpụ": 2170,
      "ịnta": 2171,
      "nation": 2172,
      "nafdac": 2173,
      "dịkwa": 2174,
      "dịghị": 2175,
      "mala": 2176,
      "chafụ": 2177,
      "ndịda": 2178,
      "mesi": 2179,
      "mechie": 2180,
      "lani": 2181,
      "lassa": 2182,
      "gakwara": 2183,
      "ihụ": 2184,
      "ruegwu": 2185,
      "ahọ": 2186,
      "tube": 2187,
      "ten": 2188,
      "ahụghị": 2189,
      "leke": 2190,
      "orji": 2191,
      "kụba": 2192,
      "mmanya": 2193,
      "mụọ": 2194,
      "afu": 2195,
      "iriabụọ": 2196,
      "red": 2197,
      "book": 2198,
      "nụrụ": 2199,
      "oké": 2200,
      "kuka": 2201,
      "egwuruegwu": 2202,
      "igbokwe": 2203,
      "too": 2204,
      "moi": 2205,
      "moses": 2206,
      "shọ": 2207,
      "ndoro": 2208,
      "pau": 2209,
      "eburu": 2210,
      "india": 2211,
      "ronal": 2212,
      "mkpamkpa": 2213,
      "arụmọrụ": 2214,
      "adịbeghị": 2215,
      "nwute": 2216,
      "ọgbaaghara": 2217,
      "ngwaọgụ": 2218,
      "ndekọ": 2219,
      "vice": 2220,
      "okon": 2221,
      "gboroja": 2222,
      "fia": 2223,
      "nkwuchite": 2224,
      "ịmalite": 2225,
      "azụmaahịa": 2226,
      "ebumnobi": 2227,
      "ntọala": 2228,
      "ịnabata": 2229,
      "port": 2230,
      "izizi": 2231,
      "mmekọahụ": 2232,
      "julaị": 2233,
      "solarin": 2234,
      "youtube": 2235,
      "ọdịnala": 2236,
      "katọlik": 2237,
      "europe": 2238,
      "korea": 2239,
      "facebook": 2240,
      "benin": 2241,
      "universi": 2242,
      "ahịhịa": 2243,
      "septemba": 2244,
      "ronaldo": 2245,
      "achi": 2246,
      "anwa": 2247,
      "azu": 2248,
      "cor": 2249,
      "cana": 2250,
      "dike": 2251,
      "ed": 2252,
      "ekpo": 2253,
      "fri": 2254,
      "fren": 2255,
      "it": 2256,
      "igh": 2257,
      "igha": 2258,
      "my": 2259,
      "mbo": 2260,
      "ngw": 2261,
      "njiri": 2262,
      "op": 2263,
      "ori": 2264,
      "oti": 2265,
      "oye": 2266,
      "rri": 2267,
      "sọrọ": 2268,
      "spa": 2269,
      "tn": 2270,
      "tta": 2271,
      "tsina": 2272,
      "unda": 2273,
      "won": 2274,
      "ụnụ": 2275,
      "ọgbara": 2276,
      "ịha": 2277,
      "ịchafụ": 2278,
      "natara": 2279,
      "nysc": 2280,
      "katọrọ": 2281,
      "katsina": 2282,
      "masịrị": 2283,
      "christi": 2284,
      "keshi": 2285,
      "ers": 2286,
      "ndịagha": 2287,
      "rai": 2288,
      "nwuru": 2289,
      "mepere": 2290,
      "laa": 2291,
      "rid": 2292,
      "rite": 2293,
      "ritere": 2294,
      "gala": 2295,
      "kwuazị": 2296,
      "rịị": 2297,
      "ruba": 2298,
      "tinu": 2299,
      "gbata": 2300,
      "gbakwunyere": 2301,
      "kwà": 2302,
      "leice": 2303,
      "binyere": 2304,
      "debere": 2305,
      "goog": 2306,
      "alakụba": 2307,
      "lim": 2308,
      "kpesa": 2309,
      "die": 2310,
      "dian": 2311,
      "rev": 2312,
      "ijide": 2313,
      "akwụghị": 2314,
      "netị": 2315,
      "merela": 2316,
      "agbakwunye": 2317,
      "amam": 2318,
      "totte": 2319,
      "mgbagha": 2320,
      "mgbago": 2321,
      "alo": 2322,
      "patri": 2323,
      "ebuli": 2324,
      "ebuso": 2325,
      "mmọnwụ": 2326,
      "olamilekan": 2327,
      "nnabu": 2328,
      "cos": 2329,
      "iweta": 2330,
      "founda": 2331,
      "ewepụ": 2332,
      "naani": 2333,
      "nkà": 2334,
      "eruola": 2335,
      "east": 2336,
      "nham": 2337,
      "akwadoghi": 2338,
      "obama": 2339,
      "kansụ": 2340,
      "njide": 2341,
      "pasentị": 2342,
      "dani": 2343,
      "trans": 2344,
      "ọṅụ": 2345,
      "2007": 2346,
      "1999": 2347,
      "willi": 2348,
      "ntụliaka": 2349,
      "emerụ": 2350,
      "aṅụrị": 2351,
      "akpọọla": 2352,
      "service": 2353,
      "david": 2354,
      "psg": 2355,
      "madrid": 2356,
      "bọjetị": 2357,
      "ụbụrụisi": 2358,
      "ọpụpụ": 2359,
      "french": 2360,
      "ighalo": 2361,
      "tinubu": 2362,
      "leicester": 2363,
      "google": 2364,
      "tottenham": 2365,
      "foundation": 2366,
      "100": 2367,
      "23": 2368,
      "28": 2369,
      "awo": 2370,
      "echere": 2371,
      "eboro": 2372,
      "í": 2373,
      "mwe": 2374,
      "ngwu": 2375,
      "nse": 2376,
      "nchọ": 2377,
      "nchụ": 2378,
      "ol": 2379,
      "om": 2380,
      "owu": 2381,
      "oper": 2382,
      "osho": 2383,
      "oghere": 2384,
      "pt": 2385,
      "phi": 2386,
      "rhin": 2387,
      "sr": 2388,
      "tti": 2389,
      "uma": 2390,
      "ubo": 2391,
      "zz": 2392,
      "ịgụ": 2393,
      "ịdọ": 2394,
      "ịkwalite": 2395,
      "naeze": 2396,
      "karee": 2397,
      "cho": 2398,
      "rael": 2399,
      "media": 2400,
      "nyeghị": 2401,
      "nyemi": 2402,
      "sila": 2403,
      "rịtara": 2404,
      "tụnyere": 2405,
      "nwekwara": 2406,
      "big": 2407,
      "bishọ": 2408,
      "orge": 2409,
      "lọghachi": 2410,
      "dụrụ": 2411,
      "depụtara": 2412,
      "ghachiri": 2413,
      "mmachi": 2414,
      "rọshịa": 2415,
      "lia": 2416,
      "limi": 2417,
      "weah": 2418,
      "chad": 2419,
      "rec": 2420,
      "ọchịchọ": 2421,
      "emela": 2422,
      "ement": 2423,
      "emegide": 2424,
      "nụzụ": 2425,
      "kpamkpa": 2426,
      "nes": 2427,
      "gen": 2428,
      "george": 2429,
      "anyanwu": 2430,
      "sea": 2431,
      "segun": 2432,
      "mpu": 2433,
      "micha": 2434,
      "ọbụna": 2435,
      "nuj": 2436,
      "2012": 2437,
      "2013": 2438,
      "bịam": 2439,
      "ekwupụta": 2440,
      "mgbali": 2441,
      "gọme": 2442,
      "mkparị": 2443,
      "meru": 2444,
      "ọkụkọ": 2445,
      "asatara": 2446,
      "fọdụrụ": 2447,
      "fuo": 2448,
      "standa": 2449,
      "njegharị": 2450,
      "iwepụ": 2451,
      "cars": 2452,
      "asọmụ": 2453,
      "ofor": 2454,
      "isonye": 2455,
      "israel": 2456,
      "mịrị": 2457,
      "ewepụta": 2458,
      "akpara": 2459,
      "ekeresi": 2460,
      "chief": 2461,
      "cial": 2462,
      "yoruba": 2463,
      "fai": 2464,
      "ọhanaeze": 2465,
      "shia": 2466,
      "ekpu": 2467,
      "ọkpụkpụ": 2468,
      "bakare": 2469,
      "egosila": 2470,
      "twita": 2471,
      "kpughere": 2472,
      "agụmaakwụkwọ": 2473,
      "mikel": 2474,
      "abdul": 2475,
      "dọkịnta": 2476,
      "1967": 2477,
      "oscars": 2478,
      "okoye": 2479,
      "ibinye": 2480,
      "mkpọsa": 2481,
      "johnson": 2482,
      "techno": 2483,
      "mmerụ": 2484,
      "ibom": 2485,
      "reporters": 2486,
      "ọhụụ": 2487,
      "university": 2488,
      "nnabuihe": 2489,
      "william": 2490,
      "rhino": 2491,
      "ubochi": 2492,
      "kareem": 2493,
      "bishọp": 2494,
      "limited": 2495,
      "kpamkpam": 2496,
      "standard": 2497,
      "ekeresimesi": 2498,
      "21": 2499,
      "aa": 2500,
      "aji": 2501,
      "abi": 2502,
      "amị": 2503,
      "bla": 2504,
      "cli": 2505,
      "esote": 2506,
      "ekiri": 2507,
      "fala": 2508,
      "itu": 2509,
      "ikwe": 2510,
      "iku": 2511,
      "idozi": 2512,
      "kon": 2513,
      "ṅ": 2514,
      "nsi": 2515,
      "ndo": 2516,
      "nnwere": 2517,
      "okwa": 2518,
      "osa": 2519,
      "oki": 2520,
      "spe": 2521,
      "squ": 2522,
      "tro": 2523,
      "use": 2524,
      "uzo": 2525,
      "ịkọ": 2526,
      "ịwa": 2527,
      "ịpụta": 2528,
      "ịnwụ": 2529,
      "ịbanye": 2530,
      "nasara": 2531,
      "dịbịa": 2532,
      "kana": 2533,
      "madị": 2534,
      "mazi": 2535,
      "makwụkwọ": 2536,
      "ran": 2537,
      "mepe": 2538,
      "mechiri": 2539,
      "lai": 2540,
      "laghachi": 2541,
      "yari": 2542,
      "rutere": 2543,
      "tum": 2544,
      "gbala": 2545,
      "gbaara": 2546,
      "ley": 2547,
      "chịburu": 2548,
      "biko": 2549,
      "bur": 2550,
      "bula": 2551,
      "zia": 2552,
      "ghapụ": 2553,
      "añụ": 2554,
      "wash": 2555,
      "water": 2556,
      "warri": 2557,
      "kụọ": 2558,
      "kwụnye": 2559,
      "nway": 2560,
      "liri": 2561,
      "ọrọla": 2562,
      "niihu": 2563,
      "ọchịagha": 2564,
      "duba": 2565,
      "steetị": 2566,
      "ụmụafọ": 2567,
      "kpachara": 2568,
      "kwetara": 2569,
      "amaara": 2570,
      "mili": 2571,
      "ezighị": 2572,
      "toral": 2573,
      "kpọkuru": 2574,
      "guar": 2575,
      "ebube": 2576,
      "atụnyere": 2577,
      "ekwenti": 2578,
      "ihie": 2579,
      "juve": 2580,
      "juun": 2581,
      "stagra": 2582,
      "ntus": 2583,
      "cation": 2584,
      "ọdịnịihu": 2585,
      "vie": 2586,
      "ezute": 2587,
      "adegbo": 2588,
      "nkwuwa": 2589,
      "nwoko": 2590,
      "union": 2591,
      "hè": 2592,
      "ịtụnanya": 2593,
      "----": 2594,
      "grace": 2595,
      "mbibi": 2596,
      "electoral": 2597,
      "ebidola": 2598,
      "nzaghachi": 2599,
      "mone": 2600,
      "oscar": 2601,
      "ìhè": 2602,
      "republic": 2603,
      "tical": 2604,
      "ehihie": 2605,
      "john": 2606,
      "agwụla": 2607,
      "fraịde": 2608,
      "asompi": 2609,
      "serena": 2610,
      "republicans": 2611,
      "mọnde": 2612,
      "bello": 2613,
      "alliance": 2614,
      "kukah": 2615,
      "paul": 2616,
      "canada": 2617,
      "njirimara": 2618,
      "cosby": 2619,
      "nchọcha": 2620,
      "michael": 2621,
      "asọmụmpi": 2622,
      "falana": 2623,
      "juventus": 2624,
      ",\"": 2625,
      "asi": 2626,
      "akwanyere": 2627,
      "eghe": 2628,
      "gy": 2629,
      "ig": 2630,
      "ikpo": 2631,
      "ikpu": 2632,
      "jer": 2633,
      "kyari": 2634,
      "mgbu": 2635,
      "nko": 2636,
      "ngi": 2637,
      "njeri": 2638,
      "nhọrọ": 2639,
      "nkpesa": 2640,
      "obo": 2641,
      "ozo": 2642,
      "tsha": 2643,
      "ù": 2644,
      "ude": 2645,
      "vc": 2646,
      "ụda": 2647,
      "ụbịam": 2648,
      "ịnye": 2649,
      "ịpụ": 2650,
      "ịnụ": 2651,
      "ịza": 2652,
      "nap": 2653,
      "narịrị": 2654,
      "nyị": 2655,
      "nyahụ": 2656,
      "kalụ": 2657,
      "manyere": 2658,
      "magu": 2659,
      "ket": 2660,
      "kele": 2661,
      "bụzị": 2662,
      "tal": 2663,
      "mezuo": 2664,
      "sike": 2665,
      "rụwarị": 2666,
      "kpere": 2667,
      "kpuru": 2668,
      "gafee": 2669,
      "jiria": 2670,
      "kwube": 2671,
      "bade": 2672,
      "tiri": 2673,
      "tue": 2674,
      "biela": 2675,
      "bulie": 2676,
      "ziaka": 2677,
      "ors": 2678,
      "dent": 2679,
      "wale": 2680,
      "saudi": 2681,
      "zọọtụ": 2682,
      "sịa": 2683,
      "nwaada": 2684,
      "champi": 2685,
      "nis": 2686,
      "rezọọtụ": 2687,
      "bola": 2688,
      "dabere": 2689,
      "ụmụahia": 2690,
      "imepụta": 2691,
      "agbalị": 2692,
      "enweela": 2693,
      "mmezu": 2694,
      "ọbụrụ": 2695,
      "gụọ": 2696,
      "gụkwuazị": 2697,
      "agam": 2698,
      "agafe": 2699,
      "anọchite": 2700,
      "shola": 2701,
      "nwụọ": 2702,
      "ekwusi": 2703,
      "sọsọ": 2704,
      "pese": 2705,
      "inta": 2706,
      "inde": 2707,
      "mmy": 2708,
      "ojiji": 2709,
      "ngafe": 2710,
      "sty": 2711,
      "thoma": 2712,
      "eleba": 2713,
      "juju": 2714,
      "nyochaa": 2715,
      "ngwaahịa": 2716,
      "chụọ": 2717,
      "ịgbanwe": 2718,
      "agụụ": 2719,
      "yobe": 2720,
      "erughị": 2721,
      "erughi": 2722,
      "akwalite": 2723,
      "adeleke": 2724,
      "mgbasaozi": 2725,
      "njikwa": 2726,
      "alụmdi": 2727,
      "ngosipụta": 2728,
      "mịnịst": 2729,
      "mgbọrọ": 2730,
      "idemmiri": 2731,
      "idemili": 2732,
      "nkwụtọ": 2733,
      "mbinye": 2734,
      "ótù": 2735,
      "anabataghị": 2736,
      "mkparịtaụka": 2737,
      "ngozi": 2738,
      "onwunwe": 2739,
      "social": 2740,
      "onitsha": 2741,
      "wanda": 2742,
      "fraịdee": 2743,
      "party": 2744,
      "chelsea": 2745,
      "febrụwarị": 2746,
      "democratic": 2747,
      "walter": 2748,
      "ejirila": 2749,
      "clement": 2750,
      "daniel": 2751,
      "williams": 2752,
      "ajibade": 2753,
      "nasarawa": 2754,
      "dubai": 2755,
      "guardian": 2756,
      "nwokocha": 2757,
      "champions": 2758,
      "thomas": 2759,
      "40": 2760,
      "44": 2761,
      "45": 2762,
      "amu": 2763,
      "asịrị": 2764,
      "cer": 2765,
      "cal": 2766,
      "ee": 2767,
      "ezo": 2768,
      "fly": 2769,
      "here": 2770,
      "il": 2771,
      "ina": 2772,
      "ita": 2773,
      "iwere": 2774,
      "ltu": 2775,
      "leri": 2776,
      "mdị": 2777,
      "moke": 2778,
      "mnta": 2779,
      "nma": 2780,
      "nch": 2781,
      "nte": 2782,
      "ngọ": 2783,
      "ot": 2784,
      "ote": 2785,
      "ofu": 2786,
      "oyo": 2787,
      "oshi": 2788,
      "ojuju": 2789,
      "pịa": 2790,
      "pin": 2791,
      "sp": 2792,
      "spu": 2793,
      "swi": 2794,
      "tọọla": 2795,
      "ura": 2796,
      "yor": 2797,
      "ụma": 2798,
      "ọnya": 2799,
      "ịnwe": 2800,
      "ịbịa": 2801,
      "ịpa": 2802,
      "ịṅụ": 2803,
      "dịịrị": 2804,
      "mac": 2805,
      "mama": 2806,
      "machị": 2807,
      "mamịrị": 2808,
      "haji": 2809,
      "ration": 2810,
      "bụwarị": 2811,
      "mezie": 2812,
      "law": 2813,
      "lapo": 2814,
      "simi": 2815,
      "rụpụta": 2816,
      "yabụ": 2817,
      "rum": 2818,
      "baa": 2819,
      "bashi": 2820,
      "timi": 2821,
      "tur": 2822,
      "teau": 2823,
      "gworo": 2824,
      "lebara": 2825,
      "kọba": 2826,
      "kọbara": 2827,
      "kọrịtara": 2828,
      "nwete": 2829,
      "bul": 2830,
      "lọnd": 2831,
      "akatọ": 2832,
      "deji": 2833,
      "ghalu": 2834,
      "gowon": 2835,
      "doo": 2836,
      "liver": 2837,
      "kpebie": 2838,
      "dina": 2839,
      "gwù": 2840,
      "real": 2841,
      "board": 2842,
      "emezi": 2843,
      "emegbu": 2844,
      "mbawanye": 2845,
      "kpata": 2846,
      "kwem": 2847,
      "kwesi": 2848,
      "ikpeazu": 2849,
      "agbaghara": 2850,
      "okeke": 2851,
      "okwukwe": 2852,
      "nuba": 2853,
      "anara": 2854,
      "kota": 2855,
      "icheta": 2856,
      "mozu": 2857,
      "febụwarị": 2858,
      "jee": 2859,
      "kpọm": 2860,
      "kpọpụta": 2861,
      "alla": 2862,
      "guter": 2863,
      "pende": 2864,
      "rotimi": 2865,
      "olaju": 2866,
      "lụọ": 2867,
      "high": 2868,
      "nnamdị": 2869,
      "nsona": 2870,
      "atụrụ": 2871,
      "nchekwube": 2872,
      "ntine": 2873,
      "arụrụ": 2874,
      "asaala": 2875,
      "fur": 2876,
      "ekwesiri": 2877,
      "ekweghi": 2878,
      "ekwesịghị": 2879,
      "olusegun": 2880,
      "nollywood": 2881,
      "nnewi": 2882,
      "iwepụta": 2883,
      "abuo": 2884,
      "poli": 2885,
      "power": 2886,
      "chukwuemeka": 2887,
      "ibuso": 2888,
      "òkè": 2889,
      "ọmụmatụ": 2890,
      "enwetala": 2891,
      "enwetaghị": 2892,
      "ọlaedo": 2893,
      "ọhaneze": 2894,
      "egbughi": 2895,
      "ogogo": 2896,
      "okuta": 2897,
      "ịmata": 2898,
      "house": 2899,
      "green": 2900,
      "briten": 2901,
      "ntọrị": 2902,
      "adọọla": 2903,
      "achụmnta": 2904,
      "oyibo": 2905,
      "ington": 2906,
      "ngagharịiwe": 2907,
      "nnọchị": 2908,
      "adinuba": 2909,
      "uwaifo": 2910,
      "north": 2911,
      "rinho": 2912,
      "1966": 2913,
      "mwuli": 2914,
      "babangi": 2915,
      "cultu": 2916,
      "ewerela": 2917,
      "plateau": 2918,
      "1979": 2919,
      "agbataobi": 2920,
      "emzor": 2921,
      "npn": 2922,
      "mourinho": 2923,
      "queen": 2924,
      "godwin": 2925,
      "mmejupụta": 2926,
      "asuu": 2927,
      "brother": 2928,
      "afunanya": 2929,
      "friji": 2930,
      "spain": 2931,
      "christian": 2932,
      "zzy": 2933,
      "black": 2934,
      "ikuku": 2935,
      "square": 2936,
      "washington": 2937,
      "nwayọọ": 2938,
      "stagram": 2939,
      "independe": 2940,
      "mịnịstrị": 2941,
      "mgbọrọgwụ": 2942,
      "bashir": 2943,
      "lọndọn": 2944,
      "guterres": 2945,
      "olajumoke": 2946,
      "babangida": 2947,
      "independent": 2948,
      "25": 2949,
      "36": 2950,
      "500": 2951,
      "60": 2952,
      "ak": 2953,
      "agb": 2954,
      "abe": 2955,
      "akwọ": 2956,
      "aghọ": 2957,
      "auth": 2958,
      "apụtala": 2959,
      "alọta": 2960,
      "bre": 2961,
      "cre": 2962,
      "eli": 2963,
      "econ": 2964,
      "efere": 2965,
      "her": 2966,
      "hon": 2967,
      "iland": 2968,
      "jọrọ": 2969,
      "joro": 2970,
      "justi": 2971,
      "mbe": 2972,
      "nny": 2973,
      "nnye": 2974,
      "nike": 2975,
      "ngụ": 2976,
      "nnweta": 2977,
      "ndozi": 2978,
      "nguzo": 2979,
      "nnwale": 2980,
      "pọ": 2981,
      "uto": 2982,
      "whi": 2983,
      "wome": 2984,
      "ụzụ": 2985,
      "ụnyahụ": 2986,
      "ịkpe": 2987,
      "ịtọ": 2988,
      "ịkọwa": 2989,
      "ịwakpo": 2990,
      "ịhe": 2991,
      "kato": 2992,
      "mas": 2993,
      "may": 2994,
      "mà": 2995,
      "maaka": 2996,
      "masị": 2997,
      "machiri": 2998,
      "chris": 2999,
      "erby": 3000,
      "haziri": 3001,
      "hazie": 3002,
      "rabi": 3003,
      "bụzi": 3004,
      "tado": 3005,
      "mewu": 3006,
      "mezu": 3007,
      "mexi": 3008,
      "lafia": 3009,
      "sick": 3010,
      "nkesa": 3011,
      "ribe": 3012,
      "ganye": 3013,
      "gassa": 3014,
      "jikọtara": 3015,
      "kwupụta": 3016,
      "bala": 3017,
      "gho": 3018,
      "ghọrọ": 3019,
      "tues": 3020,
      "tee": 3021,
      "gbakwụ": 3022,
      "gbadoro": 3023,
      "gbanwee": 3024,
      "ahụla": 3025,
      "kwala": 3026,
      "kwaghị": 3027,
      "lex": 3028,
      "leba": 3029,
      "kọle": 3030,
      "kọntine": 3031,
      "tụgharịrị": 3032,
      "nwebeghị": 3033,
      "biara": 3034,
      "buga": 3035,
      "buck": 3036,
      "zik": 3037,
      "zigharị": 3038,
      "chekwaa": 3039,
      "akarị": 3040,
      "akaịpa": 3041,
      "denn": 3042,
      "anth": 3043,
      "chiburu": 3044,
      "mmanye": 3045,
      "mmanwụ": 3046,
      "saịba": 3047,
      "ikewa": 3048,
      "nwachukwu": 3049,
      "wepụta": 3050,
      "welitere": 3051,
      "wenzi": 3052,
      "etinyere": 3053,
      "dio": 3054,
      "dimma": 3055,
      "dibịa": 3056,
      "direc": 3057,
      "boy": 3058,
      "dabara": 3059,
      "daalụ": 3060,
      "nton": 3061,
      "emee": 3062,
      "emezu": 3063,
      "one": 3064,
      "ụmụnwaanyi": 3065,
      "imegide": 3066,
      "zuga": 3067,
      "agbari": 3068,
      "agbamakwụkwọ": 3069,
      "sey": 3070,
      "iwulite": 3071,
      "enwela": 3072,
      "enwete": 3073,
      "onyeisioche": 3074,
      "zụga": 3075,
      "togo": 3076,
      "tozuru": 3077,
      "moghalu": 3078,
      "nwụchiri": 3079,
      "fever": 3080,
      "mgbaghara": 3081,
      "ndọ": 3082,
      "tered": 3083,
      "peop": 3084,
      "inji": 3085,
      "ọkaibe": 3086,
      "okpụrụ": 3087,
      "ejiofor": 3088,
      "celo": 3089,
      "cell": 3090,
      "col": 3091,
      "nchegbu": 3092,
      "jamb": 3093,
      "ahapụ": 3094,
      "arụkọ": 3095,
      "fulani": 3096,
      "arabia": 3097,
      "adịgboroja": 3098,
      "stars": 3099,
      "bbn": 3100,
      "bbnaija": 3101,
      "abaribe": 3102,
      "ngwaọrụ": 3103,
      "cali": 3104,
      "ndebe": 3105,
      "chụpụ": 3106,
      "chụpụrụ": 3107,
      "forum": 3108,
      "ajụla": 3109,
      "maọbụrụ": 3110,
      "akpata": 3111,
      "esighi": 3112,
      "yeye": 3113,
      "nkwanye": 3114,
      "nkwari": 3115,
      "ezughi": 3116,
      "fifa": 3117,
      "ntorobia": 3118,
      "fraide": 3119,
      "osinba": 3120,
      "arts": 3121,
      "putala": 3122,
      "abị": 3123,
      "ịmanye": 3124,
      "ewumewu": 3125,
      "hos": 3126,
      "chur": 3127,
      "fụraị": 3128,
      "dangote": 3129,
      "mbuso": 3130,
      "guzobere": 3131,
      "oyiegwu": 3132,
      "etozu": 3133,
      "nnọọ": 3134,
      "nnpc": 3135,
      "ịnata": 3136,
      "apụtaghị": 3137,
      "akpụkpọ": 3138,
      "ọmụmaatụ": 3139,
      "ekwesighi": 3140,
      "àkwà": 3141,
      "action": 3142,
      "ịchụpụ": 3143,
      "agbanweela": 3144,
      "central": 3145,
      "ehị": 3146,
      "server": 3147,
      "charles": 3148,
      "chartered": 3149,
      "young": 3150,
      "agf": 3151,
      "ltd": 3152,
      "barcelo": 3153,
      "telecoms": 3154,
      "ọsịsa": 3155,
      "achuzia": 3156,
      "england": 3157,
      "kwenyesiri": 3158,
      "progressives": 3159,
      "teknọlọjị": 3160,
      "metutara": 3161,
      "morsi": 3162,
      "kansụl": 3163,
      "umahi": 3164,
      "gọmenti": 3165,
      "añụrị": 3166,
      "ùgwù": 3167,
      "flying": 3168,
      "york": 3169,
      "macron": 3170,
      "furtado": 3171,
      "economi": 3172,
      "women": 3173,
      "sickle": 3174,
      "tuesday": 3175,
      "gbakwụnyere": 3176,
      "dennerby": 3177,
      "anthony": 3178,
      "wenzidee": 3179,
      "osinbajo": 3180,
      "barcelona": 3181,
      "63": 3182,
      "az": 3183,
      "aje": 3184,
      "aki": 3185,
      "akin": 3186,
      "bs": 3187,
      "cn": 3188,
      "ena": 3189,
      "eku": 3190,
      "elụ": 3191,
      "enwu": 3192,
      "fc": 3193,
      "fl": 3194,
      "fị": 3195,
      "fla": 3196,
      "fin": 3197,
      "hole": 3198,
      "ima": 3199,
      "ikwado": 3200,
      "imeri": 3201,
      "ily": 3202,
      "mbia": 3203,
      "mwepụ": 3204,
      "mtn": 3205,
      "notu": 3206,
      "nni": 3207,
      "oon": 3208,
      "ojo": 3209,
      "pp": 3210,
      "smile": 3211,
      "tt": 3212,
      "uga": 3213,
      "ulọ": 3214,
      "usa": 3215,
      "uchu": 3216,
      "uzor": 3217,
      "wike": 3218,
      "who": 3219,
      "ụlo": 3220,
      "ọkọrọ": 3221,
      "ịmụ": 3222,
      "kanụ": 3223,
      "matara": 3224,
      "mation": 3225,
      "chri": 3226,
      "chan": 3227,
      "kepu": 3228,
      "ham": 3229,
      "rate": 3230,
      "bụụrụ": 3231,
      "meka": 3232,
      "mesiri": 3233,
      "mebere": 3234,
      "mezuru": 3235,
      "lake": 3236,
      "nyeere": 3237,
      "nyefee": 3238,
      "nyemaaka": 3239,
      "sis": 3240,
      "simone": 3241,
      "jim": 3242,
      "jibu": 3243,
      "yaku": 3244,
      "run": 3245,
      "rute": 3246,
      "ruwa": 3247,
      "ban": 3248,
      "tip": 3249,
      "tis": 3250,
      "onyekwuo": 3251,
      "tel": 3252,
      "tebulu": 3253,
      "gbakọrọ": 3254,
      "gbakwunye": 3255,
      "ahụta": 3256,
      "lego": 3257,
      "kọọrọ": 3258,
      "kọmpu": 3259,
      "chịkọbara": 3260,
      "bute": 3261,
      "ziz": 3262,
      "chebe": 3263,
      "chetara": 3264,
      "akatọọla": 3265,
      "degara": 3266,
      "golu": 3267,
      "waa": 3268,
      "ọrụugbo": 3269,
      "alaghachi": 3270,
      "sam": 3271,
      "mụka": 3272,
      "zọọ": 3273,
      "nwagbara": 3274,
      "lin": 3275,
      "lip": 3276,
      "lion": 3277,
      "lish": 3278,
      "wepụrụ": 3279,
      "sochiri": 3280,
      "nick": 3281,
      "dioha": 3282,
      "nyerela": 3283,
      "regi": 3284,
      "bour": 3285,
      "gbochiri": 3286,
      "dapụtara": 3287,
      "daily": 3288,
      "ọchịchi": 3289,
      "ọchịehi": 3290,
      "nto": 3291,
      "ijipt": 3292,
      "wuru": 3293,
      "ụmụnna": 3294,
      "imezi": 3295,
      "kpaa": 3296,
      "kpalitere": 3297,
      "agbagha": 3298,
      "agbawa": 3299,
      "agbaso": 3300,
      "amatu": 3301,
      "mmetọ": 3302,
      "agabiga": 3303,
      "punch": 3304,
      "kuzi": 3305,
      "kunle": 3306,
      "zụta": 3307,
      "kogi": 3308,
      "mus": 3309,
      "ekwupụtala": 3310,
      "mgbakọ": 3311,
      "mgbalị": 3312,
      "kpọpụtara": 3313,
      "alhaji": 3314,
      "mber": 3315,
      "instagram": 3316,
      "road": 3317,
      "sub": 3318,
      "sudan": 3319,
      "azụta": 3320,
      "ejima": 3321,
      "ozie": 3322,
      "atọgha": 3323,
      "his": 3324,
      "meroon": 3325,
      "james": 3326,
      "lowo": 3327,
      "arụsi": 3328,
      "arụsị": 3329,
      "arụmụka": 3330,
      "hụla": 3331,
      "stre": 3332,
      "funa": 3333,
      "elele": 3334,
      "ekwela": 3335,
      "zịrị": 3336,
      "adịgide": 3337,
      "kọwapụtara": 3338,
      "etua": 3339,
      "stan": 3340,
      "ntuziaka": 3341,
      "abata": 3342,
      "abanye": 3343,
      "uchendu": 3344,
      "nobra": 3345,
      "app": 3346,
      "ọdịdị": 3347,
      "olemilekan": 3348,
      "achịkwa": 3349,
      "offi": 3350,
      "adaba": 3351,
      "echeghị": 3352,
      "pool": 3353,
      "ịrịọ": 3354,
      "abịaghị": 3355,
      "anwụchiri": 3356,
      "zak": 3357,
      "yode": 3358,
      "eruwa": 3359,
      "akwamozu": 3360,
      "imoh": 3361,
      "ndabere": 3362,
      "communi": 3363,
      "ghen": 3364,
      "nkwuputa": 3365,
      "abọ": 3366,
      "formation": 3367,
      "marxi": 3368,
      "jịkọrọ": 3369,
      "eagle": 3370,
      "ebola": 3371,
      "metụta": 3372,
      "esoghi": 3373,
      "umengwụ": 3374,
      "---": 3375,
      "ịrụkọ": 3376,
      "minist": 3377,
      "ụkọchụ": 3378,
      "akwụsịla": 3379,
      "2003": 3380,
      "mbipụta": 3381,
      "ngwụsị": 3382,
      "ụtụisi": 3383,
      "ọdọahịa": 3384,
      "okpukpe": 3385,
      "states": 3386,
      "adighị": 3387,
      "efegharị": 3388,
      "anichukwu": 3389,
      "ajayi": 3390,
      "banky": 3391,
      "akure": 3392,
      "nzere": 3393,
      "iziga": 3394,
      "thailand": 3395,
      "etịtị": 3396,
      "nrụrụaka": 3397,
      "satọdee": 3398,
      "sdg": 3399,
      "odun": 3400,
      "mkpuchi": 3401,
      "àmà": 3402,
      "gwoju": 3403,
      "panther": 3404,
      "davido": 3405,
      "premium": 3406,
      "uduh": 3407,
      "benja": 3408,
      "nnọchiteanya": 3409,
      "stus": 3410,
      "ọsịsọ": 3411,
      "ọchụchụ": 3412,
      "imf": 3413,
      "ọgọst": 3414,
      "english": 3415,
      "heart": 3416,
      "nzọpụta": 3417,
      "oloko": 3418,
      "company": 3419,
      "progressive": 3420,
      "teknọlọji": 3421,
      "tọọzde": 3422,
      "ibadan": 3423,
      "nkwuchiteọnụ": 3424,
      "european": 3425,
      "ight": 3426,
      "amamikpe": 3427,
      "emerụọla": 3428,
      "omhole": 3429,
      "operation": 3430,
      "clinton": 3431,
      "kanada": 3432,
      "adegboruwa": 3433,
      "naptip": 3434,
      "pesent": 3435,
      "oshiomhole": 3436,
      "pinnick": 3437,
      "liverpool": 3438,
      "nsonaazụ": 3439,
      "joromi": 3440,
      "justice": 3441,
      "mexico": 3442,
      "bucknor": 3443,
      "church": 3444,
      "fụraịde": 3445,
      "economic": 3446,
      "uganda": 3447,
      "ọkọrọtọ": 3448,
      "yakubu": 3449,
      "onyekwuouche": 3450,
      "kọmputa": 3451,
      "nobraday": 3452,
      "marxist": 3453,
      "\".": 3454,
      "29": 3455,
      "34": 3456,
      "35": 3457,
      "46": 3458,
      "49": 3459,
      "400": 3460,
      "55": 3461,
      "?'": 3462,
      "ari": 3463,
      "akọrọ": 3464,
      "akere": 3465,
      "aghọta": 3466,
      "air": 3467,
      "austi": 3468,
      "ctu": 3469,
      "cus": 3470,
      "dc": 3471,
      "dk": 3472,
      "ege": 3473,
      "esiri": 3474,
      "eco": 3475,
      "epre": 3476,
      "ffi": 3477,
      "gere": 3478,
      "gọrọ": 3479,
      "inyere": 3480,
      "inwere": 3481,
      "ikpa": 3482,
      "jon": 3483,
      "km": 3484,
      "kra": 3485,
      "kla": 3486,
      "kko": 3487,
      "kraị": 3488,
      "mc": 3489,
      "mz": 3490,
      "nru": 3491,
      "ngha": 3492,
      "nọọ": 3493,
      "neme": 3494,
      "nsu": 3495,
      "nno": 3496,
      "njị": 3497,
      "ochi": 3498,
      "onwa": 3499,
      "opa": 3500,
      "odee": 3501,
      "oghe": 3502,
      "otele": 3503,
      "pra": 3504,
      "phar": 3505,
      "rwanda": 3506,
      "sto": 3507,
      "sley": 3508,
      "trị": 3509,
      "tre": 3510,
      "uzu": 3511,
      "ugbọ": 3512,
      "vy": 3513,
      "val": 3514,
      "xon": 3515,
      "zere": 3516,
      "ụntụ": 3517,
      "ụfụ": 3518,
      "ụgbụ": 3519,
      "ọkwụ": 3520,
      "ọkpa": 3521,
      "ọria": 3522,
      "ọwara": 3523,
      "ọbula": 3524,
      "ịnweta": 3525,
      "ịjị": 3526,
      "nasi": 3527,
      "napụ": 3528,
      "nagu": 3529,
      "nachukwu": 3530,
      "najiria": 3531,
      "nyon": 3532,
      "kayode": 3533,
      "maga": 3534,
      "maghị": 3535,
      "mani": 3536,
      "machie": 3537,
      "kene": 3538,
      "kelee": 3539,
      "eral": 3540,
      "tas": 3541,
      "tata": 3542,
      "tami": 3543,
      "meere": 3544,
      "megbu": 3545,
      "megharịa": 3546,
      "mejupụtara": 3547,
      "latara": 3548,
      "lawan": 3549,
      "latrị": 3550,
      "sirịa": 3551,
      "ries": 3552,
      "gan": 3553,
      "ganị": 3554,
      "kwudo": 3555,
      "ahmadu": 3556,
      "bas": 3557,
      "baga": 3558,
      "tish": 3559,
      "tela": 3560,
      "ihedioha": 3561,
      "gbal": 3562,
      "gbanwere": 3563,
      "gbaghara": 3564,
      "gbagbuo": 3565,
      "gbawara": 3566,
      "ahụrụ": 3567,
      "lea": 3568,
      "lekwa": 3569,
      "lele": 3570,
      "chịm": 3571,
      "tụfuru": 3572,
      "tụmadị": 3573,
      "beere": 3574,
      "bin": 3575,
      "bure": 3576,
      "zipuru": 3577,
      "akaụntụ": 3578,
      "godi": 3579,
      "gover": 3580,
      "otuto": 3581,
      "chibidoro": 3582,
      "chioma": 3583,
      "alabekee": 3584,
      "don": 3585,
      "dolu": 3586,
      "sal": 3587,
      "sanwo": 3588,
      "ikesa": 3589,
      "nwafọ": 3590,
      "wene": 3591,
      "wepu": 3592,
      "west": 3593,
      "wezụga": 3594,
      "weight": 3595,
      "sou": 3596,
      "solu": 3597,
      "chaghị": 3598,
      "diri": 3599,
      "ding": 3600,
      "irite": 3601,
      "boris": 3602,
      "dayo": 3603,
      "daura": 3604,
      "ebelata": 3605,
      "nwereonwe": 3606,
      "emecha": 3607,
      "emekpa": 3608,
      "emegharị": 3609,
      "emechu": 3610,
      "emechiela": 3611,
      "ijikọ": 3612,
      "abụba": 3613,
      "abụja": 3614,
      "akwụna": 3615,
      "imeụlọ": 3616,
      "kwekọrịtara": 3617,
      "gene": 3618,
      "agbamume": 3619,
      "agbakwụnye": 3620,
      "sekọ": 3621,
      "2000": 3622,
      "mpton": 3623,
      "amalitere": 3624,
      "enwetara": 3625,
      "enwebeghị": 3626,
      "mmeme": 3627,
      "mmeghari": 3628,
      "mmesike": 3629,
      "mit": 3630,
      "mita": 3631,
      "mila": 3632,
      "agagharị": 3633,
      "erizi": 3634,
      "anapụ": 3635,
      "tom": 3636,
      "tosy": 3637,
      "nwụchị": 3638,
      "festus": 3639,
      "ekwughi": 3640,
      "jenu": 3641,
      "ndlea": 3642,
      "alton": 3643,
      "pace": 3644,
      "peeji": 3645,
      "petro": 3646,
      "information": 3647,
      "ụbọ": 3648,
      "ọkà": 3649,
      "ọkamụta": 3650,
      "gir": 3651,
      "okpokoro": 3652,
      "ejidere": 3653,
      "hiv": 3654,
      "enyeghị": 3655,
      "kwadoo": 3656,
      "thy": 3657,
      "eleghara": 3658,
      "ntakịrị": 3659,
      "ekwenye": 3660,
      "abara": 3661,
      "abawanye": 3662,
      "uchechi": 3663,
      "iwebata": 3664,
      "iweghachi": 3665,
      "cameroon": 3666,
      "nlegharị": 3667,
      "nlekwasị": 3668,
      "offa": 3669,
      "isoro": 3670,
      "achọpụtala": 3671,
      "ịgbasa": 3672,
      "adams": 3673,
      "ewetara": 3674,
      "chukwuma": 3675,
      "tinyekwara": 3676,
      "ekenye": 3677,
      "ekene": 3678,
      "nkwalite": 3679,
      "lịaka": 3680,
      "okiri": 3681,
      "oktoba": 3682,
      "zaky": 3683,
      "ezughị": 3684,
      "ntụgharị": 3685,
      "cia": 3686,
      "ọmụrụ": 3687,
      "okporoìgwè": 3688,
      "nzuzu": 3689,
      "ozuzo": 3690,
      "ozubulu": 3691,
      "ohu": 3692,
      "fashola": 3693,
      "adeyeye": 3694,
      "frank": 3695,
      "osimiri": 3696,
      "akwadoghị": 3697,
      "obafemi": 3698,
      "ọgụgụisi": 3699,
      "amụrụ": 3700,
      "ford": 3701,
      "marx": 3702,
      "unice": 3703,
      "great": 3704,
      "ọtọmegbu": 3705,
      "hen": 3706,
      "health": 3707,
      "british": 3708,
      "kpuchie": 3709,
      "achụpụ": 3710,
      "mgberede": 3711,
      "ministri": 3712,
      "edochie": 3713,
      "etolite": 3714,
      "presi": 3715,
      "akwụsịghị": 3716,
      "2006": 3717,
      "2008": 3718,
      "nnọkọ": 3719,
      "asd": 3720,
      "ịnara": 3721,
      "1993": 3722,
      "tors": 3723,
      "nhazigharị": 3724,
      "abdula": 3725,
      "karịsịa": 3726,
      "igbuichi": 3727,
      "monde": 3728,
      "chinedu": 3729,
      "tics": 3730,
      "ifeanyị": 3731,
      "syria": 3732,
      "nkụzi": 3733,
      "atma": 3734,
      "ohaneze": 3735,
      "centre": 3736,
      "elections": 3737,
      "odibo": 3738,
      "emebiela": 3739,
      "germa": 3740,
      "....": 3741,
      "harcourt": 3742,
      "nnọchianya": 3743,
      "chelles": 3744,
      "cross": 3745,
      "crown": 3746,
      "heavy": 3747,
      "iguzosi": 3748,
      "surulere": 3749,
      "kingsley": 3750,
      "nations": 3751,
      "ahọpụta": 3752,
      "ority": 3753,
      "otito": 3754,
      "ịhazi": 3755,
      "ọṅụṅụ": 3756,
      "awolowo": 3757,
      "technolo": 3758,
      "ṅụrụ": 3759,
      "okija": 3760,
      "ranozie": 3761,
      "warriors": 3762,
      "agamniihu": 3763,
      "spurs": 3764,
      "kpọmkwem": 3765,
      "allah": 3766,
      "abeokuta": 3767,
      "authority": 3768,
      "nnyefe": 3769,
      "white": 3770,
      "gassama": 3771,
      "injinia": 3772,
      "regina": 3773,
      "zakzaky": 3774,
      "ụkọchụkwụ": 3775,
      "benjamin": 3776,
      "akeredolu": 3777,
      "austin": 3778,
      "dkt": 3779,
      "kraịst": 3780,
      "oparanozie": 3781,
      "pharma": 3782,
      "latrịk": 3783,
      "bureau": 3784,
      "soludo": 3785,
      "tosyn": 3786,
      "ọtọmegbum": 3787,
      "heavyweight": 3788,
      "%),": 3789,
      "07": 3790,
      "39": 3791,
      "80": 3792,
      "86": 3793,
      "88": 3794,
      "ay": 3795,
      "aru": 3796,
      "adụ": 3797,
      "amaka": 3798,
      "arọ": 3799,
      "abo": 3800,
      "ami": 3801,
      "ako": 3802,
      "ace": 3803,
      "aus": 3804,
      "anwu": 3805,
      "agboro": 3806,
      "akị": 3807,
      "akpụrụ": 3808,
      "azara": 3809,
      "alex": 3810,
      "azik": 3811,
      "bah": 3812,
      "bbi": 3813,
      "dg": 3814,
      "ekw": 3815,
      "ete": 3816,
      "ene": 3817,
      "emo": 3818,
      "ence": 3819,
      "ejula": 3820,
      "fg": 3821,
      "fm": 3822,
      "fara": 3823,
      "fore": 3824,
      "hr": 3825,
      "ib": 3826,
      "iya": 3827,
      "ilu": 3828,
      "ize": 3829,
      "izo": 3830,
      "ikwere": 3831,
      "ikwalite": 3832,
      "isonyere": 3833,
      "iwụ": 3834,
      "jrịa": 3835,
      "jani": 3836,
      "kristi": 3837,
      "lc": 3838,
      "lge": 3839,
      "lden": 3840,
      "mkwụ": 3841,
      "mobi": 3842,
      "mbụrụ": 3843,
      "ñ": 3844,
      "nme": 3845,
      "nkọ": 3846,
      "nọchị": 3847,
      "nkpa": 3848,
      "nkwo": 3849,
      "oga": 3850,
      "otụ": 3851,
      "owe": 3852,
      "otụtụ": 3853,
      "olụ": 3854,
      "ogwe": 3855,
      "opi": 3856,
      "pala": 3857,
      "sde": 3858,
      "spor": 3859,
      "span": 3860,
      "tv": 3861,
      "uchi": 3862,
      "uber": 3863,
      "utical": 3864,
      "van": 3865,
      "wọk": 3866,
      "ụọ": 3867,
      "ọkpụrụ": 3868,
      "ịsa": 3869,
      "ịsị": 3870,
      "ịjụ": 3871,
      "ịhọpụta": 3872,
      "ịghọta": 3873,
      "ịchekwa": 3874,
      "nauche": 3875,
      "dịzị": 3876,
      "kau": 3877,
      "kali": 3878,
      "kaadị": 3879,
      "kariri": 3880,
      "mah": 3881,
      "mal": 3882,
      "makwa": 3883,
      "maria": 3884,
      "maatụ": 3885,
      "chala": 3886,
      "chog": 3887,
      "key": 3888,
      "mekwu": 3889,
      "melu": 3890,
      "megawa": 3891,
      "mechaa": 3892,
      "lation": 3893,
      "nyekwa": 3894,
      "nyekwara": 3895,
      "nyefere": 3896,
      "simba": 3897,
      "sidy": 3898,
      "ritue": 3899,
      "rụpụtara": 3900,
      "rụtụrụ": 3901,
      "kpor": 3902,
      "gari": 3903,
      "jikere": 3904,
      "jibri": 3905,
      "yamo": 3906,
      "kwukwa": 3907,
      "rugo": 3908,
      "ruola": 3909,
      "ahọrọ": 3910,
      "bawanye": 3911,
      "timo": 3912,
      "tijani": 3913,
      "tute": 3914,
      "tunde": 3915,
      "tef": 3916,
      "gbagara": 3917,
      "gbapụrụ": 3918,
      "gbadara": 3919,
      "gbaturu": 3920,
      "gwon": 3921,
      "pụisi": 3922,
      "chịa": 3923,
      "chịkọta": 3924,
      "chịkọtara": 3925,
      "nwekwaa": 3926,
      "bio": 3927,
      "zina": 3928,
      "zighi": 3929,
      "organi": 3930,
      "chee": 3931,
      "lọtọ": 3932,
      "depo": 3933,
      "aṅ": 3934,
      "anọchị": 3935,
      "anọrọla": 3936,
      "godu": 3937,
      "golden": 3938,
      "was": 3939,
      "wayo": 3940,
      "isioche": 3941,
      "dole": 3942,
      "dozzy": 3943,
      "mmad": 3944,
      "sav": 3945,
      "sali": 3946,
      "sambi": 3947,
      "mụtara": 3948,
      "wela": 3949,
      "soko": 3950,
      "sowere": 3951,
      "sovie": 3952,
      "chapụrụ": 3953,
      "nixon": 3954,
      "din": 3955,
      "dili": 3956,
      "irinyemi": 3957,
      "dari": 3958,
      "dakwa": 3959,
      "emechi": 3960,
      "emenwu": 3961,
      "ijikwa": 3962,
      "wuji": 3963,
      "mbane": 3964,
      "abụbọ": 3965,
      "ongwo": 3966,
      "stem": 3967,
      "ụmụnne": 3968,
      "ụmụada": 3969,
      "tọhapụ": 3970,
      "akwụkwo": 3971,
      "nema": 3972,
      "neetị": 3973,
      "zute": 3974,
      "nọchiri": 3975,
      "agbakọ": 3976,
      "see": 3977,
      "secon": 3978,
      "2030": 3979,
      "iwuli": 3980,
      "amata": 3981,
      "okè": 3982,
      "mmezi": 3983,
      "mmegbu": 3984,
      "mmechu": 3985,
      "okwuchite": 3986,
      "okwudili": 3987,
      "misa": 3988,
      "mimi": 3989,
      "agala": 3990,
      "egosiri": 3991,
      "pula": 3992,
      "nulge": 3993,
      "koko": 3994,
      "ichekwa": 3995,
      "ileta": 3996,
      "ileba": 3997,
      "obiora": 3998,
      "tola": 3999
    },
    "merges": [
      [
        "u",
        "̣"
      ],
      [
        "o",
        "̣"
      ],
      [
        "i",
        "̣"
      ],
      [
        "n",
        "a"
      ],
      [
        "d",
        "ị"
      ],
      [
        "k",
        "w"
      ],
      [
        "n",
        "y"
      ],
      [
        "k",
        "a"
      ],
      [
        "m",
        "a"
      ],
      [
        "c",
        "h"
      ],
      [
        "k",
        "e"
      ],
      [
        "e",
        "r"
      ],
      [
        "g",
        "b"
      ],
      [
        "h",
        "a"
      ],
      [
        "n",
        "dị"
      ],
      [
        "r",
        "a"
      ],
      [
        "n",
        "w"
      ],
      [
        "b",
        "ụ"
      ],
      [
        "t",
        "a"
      ],
      [
        "er",
        "e"
      ],
      [
        "m",
        "e"
      ],
      [
        "l",
        "a"
      ],
      [
        "ny",
        "e"
      ],
      [
        "s",
        "i"
      ],
      [
        "n",
        "ke"
      ],
      [
        "r",
        "i"
      ],
      [
        "r",
        "ụ"
      ],
      [
        "k",
        "p"
      ],
      [
        "g",
        "a"
      ],
      [
        "j",
        "i"
      ],
      [
        "y",
        "a"
      ],
      [
        "kw",
        "u"
      ],
      [
        "r",
        "ị"
      ],
      [
        "i",
        "h"
      ],
      [
        "r",
        "u"
      ],
      [
        "a",
        "h"
      ],
      [
        "b",
        "a"
      ],
      [
        "t",
        "i"
      ],
      [
        "o",
        "nye"
      ],
      [
        "g",
        "h"
      ],
      [
        "t",
        "u"
      ],
      [
        "t",
        "e"
      ],
      [
        "ih",
        "e"
      ],
      [
        "gb",
        "a"
      ],
      [
        "ah",
        "ụ"
      ],
      [
        "g",
        "w"
      ],
      [
        "a",
        "ny"
      ],
      [
        "kw",
        "a"
      ],
      [
        "l",
        "e"
      ],
      [
        "p",
        "ụ"
      ],
      [
        "k",
        "ọ"
      ],
      [
        "ch",
        "ị"
      ],
      [
        "t",
        "ụ"
      ],
      [
        "gh",
        "ị"
      ],
      [
        "nw",
        "e"
      ],
      [
        "b",
        "e"
      ],
      [
        "b",
        "i"
      ],
      [
        "b",
        "u"
      ],
      [
        "z",
        "i"
      ],
      [
        "o",
        "r"
      ],
      [
        "ch",
        "e"
      ],
      [
        "l",
        "ọ"
      ],
      [
        "d",
        "ụ"
      ],
      [
        "a",
        "ka"
      ],
      [
        "d",
        "e"
      ],
      [
        "g",
        "ha"
      ],
      [
        "a",
        "n"
      ],
      [
        "g",
        "o"
      ],
      [
        "ụ",
        "lọ"
      ],
      [
        "w",
        "a"
      ],
      [
        "o",
        "tu"
      ],
      [
        "k",
        "ụ"
      ],
      [
        "ọ",
        "rụ"
      ],
      [
        "ch",
        "i"
      ],
      [
        "any",
        "ị"
      ],
      [
        "i",
        "si"
      ],
      [
        "ma",
        "ka"
      ],
      [
        "a",
        "la"
      ],
      [
        "d",
        "o"
      ],
      [
        "m",
        "ma"
      ],
      [
        "s",
        "a"
      ],
      [
        "m",
        "ụ"
      ],
      [
        "r",
        "ọ"
      ],
      [
        "z",
        "ọ"
      ],
      [
        "i",
        "ke"
      ],
      [
        "s",
        "ị"
      ],
      [
        "kw",
        "ụ"
      ],
      [
        "rị",
        "a"
      ],
      [
        "pụ",
        "ta"
      ],
      [
        "nw",
        "a"
      ],
      [
        "l",
        "i"
      ],
      [
        "a",
        "f"
      ],
      [
        "ọ",
        "rọ"
      ],
      [
        "w",
        "e"
      ],
      [
        "e",
        "ti"
      ],
      [
        "s",
        "o"
      ],
      [
        "gb",
        "u"
      ],
      [
        "ch",
        "a"
      ],
      [
        "kwu",
        "ru"
      ],
      [
        "n",
        "i"
      ],
      [
        "kp",
        "e"
      ],
      [
        "or",
        "o"
      ],
      [
        "d",
        "i"
      ],
      [
        "gw",
        "u"
      ],
      [
        "ny",
        "ere"
      ],
      [
        "i",
        "ri"
      ],
      [
        "a",
        "kụ"
      ],
      [
        "ị",
        "a"
      ],
      [
        "na",
        "ị"
      ],
      [
        "r",
        "e"
      ],
      [
        "b",
        "o"
      ],
      [
        "gb",
        "o"
      ],
      [
        "d",
        "a"
      ],
      [
        "ọ",
        "chị"
      ],
      [
        "e",
        "be"
      ],
      [
        "naị",
        "ji"
      ],
      [
        "nw",
        "ere"
      ],
      [
        "ọ",
        "ọ"
      ],
      [
        "n",
        "t"
      ],
      [
        "e",
        "me"
      ],
      [
        "i",
        "ji"
      ],
      [
        "gb",
        "e"
      ],
      [
        "naịji",
        "rịa"
      ],
      [
        "w",
        "u"
      ],
      [
        "m",
        "ba"
      ],
      [
        "n",
        "ụ"
      ],
      [
        "af",
        "ọ"
      ],
      [
        "d",
        "u"
      ],
      [
        "a",
        "bụ"
      ],
      [
        "a",
        "gha"
      ],
      [
        "o",
        "n"
      ],
      [
        "s",
        "te"
      ],
      [
        "ụ",
        "mụ"
      ],
      [
        "t",
        "ọ"
      ],
      [
        "a",
        "kwụ"
      ],
      [
        "i",
        "me"
      ],
      [
        "kp",
        "a"
      ],
      [
        "kw",
        "e"
      ],
      [
        "n",
        "e"
      ],
      [
        "g",
        "e"
      ],
      [
        "ste",
        "eti"
      ],
      [
        "z",
        "u"
      ],
      [
        "kw",
        "ọ"
      ],
      [
        "ụ",
        "rụ"
      ],
      [
        "mma",
        "dụ"
      ],
      [
        "any",
        "a"
      ],
      [
        "m",
        "gbe"
      ],
      [
        "m",
        "ere"
      ],
      [
        "n",
        "ọ"
      ],
      [
        "i",
        "kpe"
      ],
      [
        "dị",
        "ka"
      ],
      [
        "a",
        "gba"
      ],
      [
        "s",
        "e"
      ],
      [
        "ọ",
        "zọ"
      ],
      [
        "2",
        "0"
      ],
      [
        "ta",
        "ra"
      ],
      [
        "i",
        "wu"
      ],
      [
        "m",
        "p"
      ],
      [
        "a",
        "ma"
      ],
      [
        "o",
        "ke"
      ],
      [
        "e",
        "nwe"
      ],
      [
        "l",
        "u"
      ],
      [
        "m",
        "me"
      ],
      [
        "o",
        "kwu"
      ],
      [
        "m",
        "i"
      ],
      [
        "onye",
        "isi"
      ],
      [
        "ọ",
        "bụ"
      ],
      [
        "akwụ",
        "kwọ"
      ],
      [
        "g",
        "ụ"
      ],
      [
        "a",
        "ga"
      ],
      [
        "e",
        "go"
      ],
      [
        "p",
        "u"
      ],
      [
        "k",
        "u"
      ],
      [
        "er",
        "i"
      ],
      [
        "n",
        "u"
      ],
      [
        "z",
        "ụ"
      ],
      [
        "e",
        "zi"
      ],
      [
        "a",
        "na"
      ],
      [
        "akụ",
        "kọ"
      ],
      [
        "ọ",
        "nụ"
      ],
      [
        "e",
        "gwu"
      ],
      [
        "si",
        "te"
      ],
      [
        "k",
        "o"
      ],
      [
        "i",
        "che"
      ],
      [
        "si",
        "ri"
      ],
      [
        "i",
        "le"
      ],
      [
        "o",
        "bi"
      ],
      [
        "gw",
        "a"
      ],
      [
        "an",
        "ọ"
      ],
      [
        "o",
        "ge"
      ],
      [
        "nwa",
        "anyị"
      ],
      [
        "abụ",
        "ọ"
      ],
      [
        "ọchị",
        "chị"
      ],
      [
        "20",
        "1"
      ],
      [
        "nt",
        "ị"
      ],
      [
        "ụ",
        "zọ"
      ],
      [
        "i",
        "gbo"
      ],
      [
        "m",
        "u"
      ],
      [
        "gh",
        "i"
      ],
      [
        "ni",
        "ile"
      ],
      [
        "b",
        "ịa"
      ],
      [
        "tụ",
        "tụ"
      ],
      [
        "pụta",
        "ra"
      ],
      [
        "g",
        "ọọ"
      ],
      [
        "t",
        "o"
      ],
      [
        "gọọ",
        "me"
      ],
      [
        "bo",
        "do"
      ],
      [
        "m",
        "o"
      ],
      [
        "ma",
        "na"
      ],
      [
        "s",
        "h"
      ],
      [
        "nw",
        "ụ"
      ],
      [
        "f",
        "e"
      ],
      [
        "e",
        "kwu"
      ],
      [
        "o",
        "bodo"
      ],
      [
        "m",
        "gba"
      ],
      [
        "ọ",
        "tụtụ"
      ],
      [
        "j",
        "e"
      ],
      [
        "n",
        "d"
      ],
      [
        "kp",
        "ọ"
      ],
      [
        "a",
        "l"
      ],
      [
        "ny",
        "o"
      ],
      [
        "ri",
        "a"
      ],
      [
        "ga",
        "ra"
      ],
      [
        "m",
        "b"
      ],
      [
        "g",
        "u"
      ],
      [
        "t",
        "ere"
      ],
      [
        "ih",
        "u"
      ],
      [
        "p",
        "a"
      ],
      [
        "s",
        "ọ"
      ],
      [
        "bụ",
        "rụ"
      ],
      [
        "p",
        "e"
      ],
      [
        "g",
        "ị"
      ],
      [
        "e",
        "bu"
      ],
      [
        "o",
        "nwe"
      ],
      [
        "kp",
        "ọrọ"
      ],
      [
        "i",
        "n"
      ],
      [
        "ọ",
        "dụ"
      ],
      [
        "gb",
        "ọ"
      ],
      [
        "g",
        "ọ"
      ],
      [
        "u",
        "kwu"
      ],
      [
        "ọbụ",
        "la"
      ],
      [
        "ụ",
        "wa"
      ],
      [
        "u",
        "ru"
      ],
      [
        "m",
        "m"
      ],
      [
        "r",
        "o"
      ],
      [
        "o",
        "ji"
      ],
      [
        "ch",
        "ọ"
      ],
      [
        "ah",
        "ịa"
      ],
      [
        "ụ",
        "b"
      ],
      [
        "ọ",
        "ka"
      ],
      [
        "g",
        "i"
      ],
      [
        "u",
        "we"
      ],
      [
        "s",
        "u"
      ],
      [
        "ụb",
        "ọchị"
      ],
      [
        "o",
        "la"
      ],
      [
        "o",
        "kp"
      ],
      [
        "a",
        "zụ"
      ],
      [
        "e",
        "ji"
      ],
      [
        "o",
        "zi"
      ],
      [
        "a",
        "tọ"
      ],
      [
        "m",
        "kpa"
      ],
      [
        "gw",
        "ụ"
      ],
      [
        "bu",
        "ha"
      ],
      [
        "gọọme",
        "ntị"
      ],
      [
        "sa",
        "ra"
      ],
      [
        "l",
        "ụ"
      ],
      [
        "j",
        "ụ"
      ],
      [
        "u",
        "gbu"
      ],
      [
        "h",
        "i"
      ],
      [
        "gbu",
        "ru"
      ],
      [
        "o",
        "me"
      ],
      [
        "buha",
        "ri"
      ],
      [
        "c",
        "e"
      ],
      [
        "n",
        "na"
      ],
      [
        "m",
        "er"
      ],
      [
        "n",
        "ga"
      ],
      [
        "nw",
        "oke"
      ],
      [
        "u",
        "s"
      ],
      [
        "oji",
        "i"
      ],
      [
        "n",
        "so"
      ],
      [
        "c",
        "o"
      ],
      [
        "na",
        "iji"
      ],
      [
        "ba",
        "nyere"
      ],
      [
        "a",
        "tụ"
      ],
      [
        "nd",
        "ọrọ"
      ],
      [
        "kwa",
        "ra"
      ],
      [
        "n",
        "che"
      ],
      [
        "ụ",
        "gbọ"
      ],
      [
        "n",
        "di"
      ],
      [
        "eti",
        "ti"
      ],
      [
        "j",
        "a"
      ],
      [
        "l",
        "o"
      ],
      [
        "n",
        "ti"
      ],
      [
        "a",
        "ha"
      ],
      [
        "e",
        "nye"
      ],
      [
        "a",
        "rụ"
      ],
      [
        "h",
        "ụ"
      ],
      [
        "ọ",
        "kụ"
      ],
      [
        "a",
        "sa"
      ],
      [
        "ọ",
        "nwa"
      ],
      [
        "kwa",
        "do"
      ],
      [
        "gba",
        "ra"
      ],
      [
        "agha",
        "ra"
      ],
      [
        "s",
        "t"
      ],
      [
        "gha",
        "rị"
      ],
      [
        "t",
        "h"
      ],
      [
        "sị",
        "rị"
      ],
      [
        "f",
        "ọdụ"
      ],
      [
        "z",
        "e"
      ],
      [
        "h",
        "ụrụ"
      ],
      [
        "f",
        "u"
      ],
      [
        "naiji",
        "ria"
      ],
      [
        "a",
        "ra"
      ],
      [
        "e",
        "le"
      ],
      [
        "n",
        "dụ"
      ],
      [
        "li",
        "te"
      ],
      [
        "n",
        "ta"
      ],
      [
        "e",
        "kwe"
      ],
      [
        "z",
        "ị"
      ],
      [
        "e",
        "lu"
      ],
      [
        "ih",
        "i"
      ],
      [
        "n",
        "k"
      ],
      [
        "re",
        "gwu"
      ],
      [
        "ụ",
        "fọdụ"
      ],
      [
        "enwe",
        "ghị"
      ],
      [
        "egwu",
        "regwu"
      ],
      [
        "gọ",
        "v"
      ],
      [
        "kp",
        "o"
      ],
      [
        "i",
        "se"
      ],
      [
        "j",
        "o"
      ],
      [
        "me",
        "e"
      ],
      [
        "pụ",
        "rụ"
      ],
      [
        "a",
        "dị"
      ],
      [
        "j",
        "u"
      ],
      [
        "kọ",
        "wa"
      ],
      [
        "ugbu",
        "a"
      ],
      [
        "gọv",
        "anọ"
      ],
      [
        "y",
        "i"
      ],
      [
        "ụ",
        "ka"
      ],
      [
        "e",
        "tu"
      ],
      [
        "nw",
        "u"
      ],
      [
        "s",
        "ta"
      ],
      [
        "ọ",
        "gwụ"
      ],
      [
        "mp",
        "aghara"
      ],
      [
        "e",
        "la"
      ],
      [
        "ọ",
        "j"
      ],
      [
        "n",
        "ri"
      ],
      [
        "o",
        "lu"
      ],
      [
        "go",
        "si"
      ],
      [
        "ọ",
        "gụ"
      ],
      [
        "n",
        "ị"
      ],
      [
        "gw",
        "ọ"
      ],
      [
        "onyeisi",
        "ala"
      ],
      [
        "gba",
        "sara"
      ],
      [
        "b",
        "b"
      ],
      [
        "k",
        "ike"
      ],
      [
        "n",
        "tu"
      ],
      [
        "ọ",
        "gba"
      ],
      [
        "a",
        "ba"
      ],
      [
        "ch",
        "ọrọ"
      ],
      [
        "u",
        "che"
      ],
      [
        "b",
        "ere"
      ],
      [
        "n",
        "o"
      ],
      [
        "na",
        "kwa"
      ],
      [
        "ma",
        "ra"
      ],
      [
        "nyo",
        "cha"
      ],
      [
        "n",
        "gwa"
      ],
      [
        "n",
        "ne"
      ],
      [
        "ọ",
        "kwa"
      ],
      [
        "n",
        "je"
      ],
      [
        "i",
        "we"
      ],
      [
        "201",
        "9"
      ],
      [
        "c",
        "a"
      ],
      [
        "la",
        "ba"
      ],
      [
        "w",
        "ere"
      ],
      [
        "d",
        "ọ"
      ],
      [
        "mu",
        "me"
      ],
      [
        "ọ",
        "rịa"
      ],
      [
        "rị",
        "ta"
      ],
      [
        "gi",
        "de"
      ],
      [
        "n",
        "de"
      ],
      [
        "s",
        "s"
      ],
      [
        "z",
        "o"
      ],
      [
        "ch",
        "ụ"
      ],
      [
        "nga",
        "laba"
      ],
      [
        "bb",
        "c"
      ],
      [
        "b",
        "ọọ"
      ],
      [
        "m",
        "bụ"
      ],
      [
        "kọ",
        "ta"
      ],
      [
        "d",
        "ere"
      ],
      [
        "a",
        "p"
      ],
      [
        "kwu",
        "o"
      ],
      [
        "rị",
        "rị"
      ],
      [
        "ti",
        "on"
      ],
      [
        "ụlọ",
        "ikpe"
      ],
      [
        "uwe",
        "ojii"
      ],
      [
        "bọọ",
        "lụ"
      ],
      [
        "m",
        "kpe"
      ],
      [
        "n",
        "nu"
      ],
      [
        "a",
        "sọ"
      ],
      [
        "i",
        "kike"
      ],
      [
        "ọ",
        "ma"
      ],
      [
        "ọ",
        "dị"
      ],
      [
        "ba",
        "ta"
      ],
      [
        "mm",
        "iri"
      ],
      [
        "or",
        "e"
      ],
      [
        "ụmụ",
        "nwaanyị"
      ],
      [
        "ba",
        "ra"
      ],
      [
        "gwa",
        "ra"
      ],
      [
        "1",
        "9"
      ],
      [
        "e",
        "chi"
      ],
      [
        "t",
        "er"
      ],
      [
        "ny",
        "a"
      ],
      [
        "n",
        "le"
      ],
      [
        "o",
        "le"
      ],
      [
        "kp",
        "ụ"
      ],
      [
        "mb",
        "ra"
      ],
      [
        "k",
        "i"
      ],
      [
        "ana",
        "mbra"
      ],
      [
        "us",
        "oro"
      ],
      [
        "a",
        "chị"
      ],
      [
        "tu",
        "pu"
      ],
      [
        "nwe",
        "ta"
      ],
      [
        "f",
        "o"
      ],
      [
        "s",
        "ụ"
      ],
      [
        "cha",
        "ra"
      ],
      [
        "nnu",
        "kwu"
      ],
      [
        "a",
        "bu"
      ],
      [
        "e",
        "ze"
      ],
      [
        "o",
        "f"
      ],
      [
        "kwe",
        "siri"
      ],
      [
        "i",
        "s"
      ],
      [
        "v",
        "e"
      ],
      [
        "nso",
        "gbu"
      ],
      [
        "nche",
        "kwa"
      ],
      [
        "ta",
        "a"
      ],
      [
        "a",
        "chọ"
      ],
      [
        "j",
        "ọ"
      ],
      [
        "na",
        "l"
      ],
      [
        "a",
        "kpọ"
      ],
      [
        "m",
        "ị"
      ],
      [
        "ị",
        "gba"
      ],
      [
        "gw",
        "e"
      ],
      [
        "t",
        "ị"
      ],
      [
        "ụlọ",
        "ọrụ"
      ],
      [
        "a",
        "da"
      ],
      [
        "du",
        "m"
      ],
      [
        "ap",
        "c"
      ],
      [
        "e",
        "che"
      ],
      [
        "ka",
        "cha"
      ],
      [
        "gh",
        "ọ"
      ],
      [
        "mp",
        "i"
      ],
      [
        "a",
        "jụ"
      ],
      [
        "p",
        "o"
      ],
      [
        "ntu",
        "li"
      ],
      [
        "c",
        "on"
      ],
      [
        "ma",
        "ọbụ"
      ],
      [
        "e",
        "we"
      ],
      [
        "ma",
        "ha"
      ],
      [
        "ke",
        "e"
      ],
      [
        "d",
        "oro"
      ],
      [
        "a",
        "kpa"
      ],
      [
        "w",
        "i"
      ],
      [
        "gha",
        "ra"
      ],
      [
        "wa",
        "kpo"
      ],
      [
        "e",
        "si"
      ],
      [
        "m",
        "mụ"
      ],
      [
        "ụ",
        "gwọ"
      ],
      [
        "we",
        "e"
      ],
      [
        "ọ",
        "hụrụ"
      ],
      [
        "a",
        "gụ"
      ],
      [
        "i",
        "ne"
      ],
      [
        "y",
        "e"
      ],
      [
        "ch",
        "ukwu"
      ],
      [
        "abụ",
        "ghị"
      ],
      [
        "ama",
        "sị"
      ],
      [
        "maha",
        "dum"
      ],
      [
        "na",
        "an"
      ],
      [
        "be",
        "kee"
      ],
      [
        "ụmụ",
        "aka"
      ],
      [
        "i",
        "bu"
      ],
      [
        "ji",
        "ri"
      ],
      [
        "ti",
        "nye"
      ],
      [
        "mb",
        "ọ"
      ],
      [
        "ị",
        "rị"
      ],
      [
        "nọ",
        "dụ"
      ],
      [
        ".",
        "'"
      ],
      [
        "e",
        "ke"
      ],
      [
        "h",
        "ịa"
      ],
      [
        "ụgbọ",
        "ala"
      ],
      [
        "i",
        "nye"
      ],
      [
        "ni",
        "g"
      ],
      [
        "chi",
        "e"
      ],
      [
        "gọọme",
        "nti"
      ],
      [
        "a",
        "bịa"
      ],
      [
        "a",
        "nwụ"
      ],
      [
        "n",
        "kwa"
      ],
      [
        "ọ",
        "nọdụ"
      ],
      [
        "v",
        "i"
      ],
      [
        "ị",
        "ka"
      ],
      [
        "e",
        "l"
      ],
      [
        "i",
        "ko"
      ],
      [
        "p",
        "er"
      ],
      [
        "aga",
        "ghị"
      ],
      [
        "w",
        "ore"
      ],
      [
        "so",
        "wore"
      ],
      [
        "agba",
        "nye"
      ],
      [
        "l",
        "ị"
      ],
      [
        "o",
        "k"
      ],
      [
        "nk",
        "iri"
      ],
      [
        "o",
        "̀"
      ],
      [
        "kọ",
        "rịta"
      ],
      [
        "naan",
        "ị"
      ],
      [
        "o",
        "che"
      ],
      [
        "z",
        "a"
      ],
      [
        "ana",
        "ghị"
      ],
      [
        "n",
        "ka"
      ],
      [
        "kw",
        "ere"
      ],
      [
        "mma",
        "du"
      ],
      [
        "nje",
        "m"
      ],
      [
        "a",
        "zị"
      ],
      [
        "ụ",
        "dị"
      ],
      [
        "ru",
        "o"
      ],
      [
        "tu",
        "̀"
      ],
      [
        "ntuli",
        "aka"
      ],
      [
        "ha",
        "ra"
      ],
      [
        "e",
        "zu"
      ],
      [
        "m",
        "eri"
      ],
      [
        "n",
        "tụ"
      ],
      [
        "201",
        "8"
      ],
      [
        "c",
        "i"
      ],
      [
        "ọ",
        "mụ"
      ],
      [
        "ebu",
        "bo"
      ],
      [
        "okp",
        "oro"
      ],
      [
        "n",
        "zu"
      ],
      [
        "ru",
        "ru"
      ],
      [
        "bi",
        "a"
      ],
      [
        "okp",
        "uru"
      ],
      [
        "y",
        "o"
      ],
      [
        "ọj",
        "ị"
      ],
      [
        "m",
        "kp"
      ],
      [
        "er",
        "u"
      ],
      [
        "u",
        "gwu"
      ],
      [
        "adị",
        "ghị"
      ],
      [
        "nig",
        "eri"
      ],
      [
        "a",
        "ti"
      ],
      [
        "o",
        "zu"
      ],
      [
        "bi",
        "do"
      ],
      [
        "bu",
        "ru"
      ],
      [
        "chi",
        "ri"
      ],
      [
        "enwe",
        "ta"
      ],
      [
        "a",
        "mer"
      ],
      [
        "ọ",
        "la"
      ],
      [
        "pa",
        "ti"
      ],
      [
        "amer",
        "ịka"
      ],
      [
        "a",
        "kwa"
      ],
      [
        "e",
        "a"
      ],
      [
        "o",
        "h"
      ],
      [
        "f",
        "a"
      ],
      [
        "gb",
        "oro"
      ],
      [
        "nw",
        "ụrụ"
      ],
      [
        "mm",
        "eri"
      ],
      [
        "ò",
        "tù"
      ],
      [
        "a",
        "de"
      ],
      [
        "f",
        "i"
      ],
      [
        "ma",
        "tụ"
      ],
      [
        "ajụ",
        "jụ"
      ],
      [
        "i",
        "mo"
      ],
      [
        "le",
        "e"
      ],
      [
        "h",
        "ọ"
      ],
      [
        "n",
        "ha"
      ],
      [
        "ọ",
        "ha"
      ],
      [
        "e",
        "gbu"
      ],
      [
        "m",
        "wakpo"
      ],
      [
        "n",
        "g"
      ],
      [
        "n",
        "du"
      ],
      [
        "ome",
        "iwu"
      ],
      [
        "ny",
        "i"
      ],
      [
        "ezi",
        "gbo"
      ],
      [
        "ọgba",
        "kọ"
      ],
      [
        "ati",
        "ku"
      ],
      [
        "so",
        "te"
      ],
      [
        "le",
        "s"
      ],
      [
        "be",
        "ghị"
      ],
      [
        "kọwa",
        "ra"
      ],
      [
        "ọ",
        "nwụ"
      ],
      [
        "kọ",
        "rọ"
      ],
      [
        "nt",
        "oro"
      ],
      [
        "akụ",
        "kụ"
      ],
      [
        "anya",
        "nwụ"
      ],
      [
        "mgba",
        "sa"
      ],
      [
        "a",
        "gwa"
      ],
      [
        "e",
        "de"
      ],
      [
        "f",
        "ra"
      ],
      [
        "o",
        "si"
      ],
      [
        "af",
        "ri"
      ],
      [
        "n",
        "da"
      ],
      [
        "isi",
        "i"
      ],
      [
        "su",
        "per"
      ],
      [
        "mkpe",
        "bi"
      ],
      [
        "echi",
        "che"
      ],
      [
        "ka",
        "rịrị"
      ],
      [
        "ekwu",
        "ola"
      ],
      [
        "atụ",
        "matụ"
      ],
      [
        "a",
        "r"
      ],
      [
        "s",
        "an"
      ],
      [
        "v",
        "er"
      ],
      [
        "de",
        "e"
      ],
      [
        "oh",
        "ere"
      ],
      [
        "0",
        "0"
      ],
      [
        "e",
        "s"
      ],
      [
        "n",
        "ku"
      ],
      [
        "o",
        "go"
      ],
      [
        "me",
        "gide"
      ],
      [
        "co",
        "m"
      ],
      [
        "'",
        ","
      ],
      [
        "'",
        "."
      ],
      [
        "ọ",
        "na"
      ],
      [
        "an",
        "ụ"
      ],
      [
        "mu",
        "ha"
      ],
      [
        "mgba",
        "nwe"
      ],
      [
        "asa",
        "a"
      ],
      [
        "kacha",
        "sị"
      ],
      [
        "s",
        "si"
      ],
      [
        "w",
        "o"
      ],
      [
        "do",
        "zi"
      ],
      [
        "nigeri",
        "a"
      ],
      [
        "a",
        "kwado"
      ],
      [
        "e",
        "nu"
      ],
      [
        "e",
        "mume"
      ],
      [
        "i",
        "zu"
      ],
      [
        "l",
        "l"
      ],
      [
        "t",
        "y"
      ],
      [
        "ka",
        "rịa"
      ],
      [
        "kwụ",
        "sị"
      ],
      [
        "i",
        "gwe"
      ],
      [
        "o",
        "sote"
      ],
      [
        "gh",
        "e"
      ],
      [
        "n",
        "kwu"
      ],
      [
        "o",
        "ba"
      ],
      [
        "ụ",
        "ba"
      ],
      [
        "ma",
        "du"
      ],
      [
        "ga",
        "a"
      ],
      [
        "pu",
        "ta"
      ],
      [
        "ọj",
        "ọọ"
      ],
      [
        "a",
        "wa"
      ],
      [
        "o",
        "mume"
      ],
      [
        "u",
        "gbo"
      ],
      [
        "aka",
        "ra"
      ],
      [
        "go",
        "s"
      ],
      [
        "zu",
        "ru"
      ],
      [
        "ọka",
        "cha"
      ],
      [
        "o",
        "ku"
      ],
      [
        "na",
        "i"
      ],
      [
        "gbo",
        "chi"
      ],
      [
        "ndọrọ",
        "ndọrọ"
      ],
      [
        "asa",
        "tọ"
      ],
      [
        "d",
        "p"
      ],
      [
        "ma",
        "azị"
      ],
      [
        "ri",
        "s"
      ],
      [
        "rị",
        "ka"
      ],
      [
        "li",
        "tere"
      ],
      [
        "a",
        "b"
      ],
      [
        "zi",
        "ri"
      ],
      [
        "eti",
        "nye"
      ],
      [
        "bịa",
        "ra"
      ],
      [
        "c",
        "k"
      ],
      [
        "ị",
        "ma"
      ],
      [
        "ka",
        "n"
      ],
      [
        "nwe",
        "tara"
      ],
      [
        "gha",
        "chi"
      ],
      [
        "go",
        "siri"
      ],
      [
        "bo",
        "ko"
      ],
      [
        "s",
        "ha"
      ],
      [
        "u",
        "gboro"
      ],
      [
        "af",
        "rịka"
      ],
      [
        "enwe",
        "ghi"
      ],
      [
        "e",
        "wu"
      ],
      [
        "h",
        "o"
      ],
      [
        "m",
        "pụ"
      ],
      [
        "p",
        "dp"
      ],
      [
        "azụ",
        "ma"
      ],
      [
        "nta",
        "akụkọ"
      ],
      [
        "asọ",
        "mpi"
      ],
      [
        "hara",
        "m"
      ],
      [
        "n",
        "chị"
      ],
      [
        "nke",
        "ji"
      ],
      [
        "mme",
        "pe"
      ],
      [
        "ezi",
        "na"
      ],
      [
        "mmụ",
        "ta"
      ],
      [
        "ri",
        "ri"
      ],
      [
        "go",
        "olu"
      ],
      [
        "gụ",
        "nyere"
      ],
      [
        "nwu",
        "nye"
      ],
      [
        "ọgụ",
        "gụ"
      ],
      [
        "muha",
        "mmadu"
      ],
      [
        "a",
        "mụ"
      ],
      [
        "f",
        "or"
      ],
      [
        "o",
        "nyo"
      ],
      [
        "o",
        "bere"
      ],
      [
        "nwa",
        "ta"
      ],
      [
        "gburu",
        "gburu"
      ],
      [
        "e",
        "nwere"
      ],
      [
        "i",
        "nwe"
      ],
      [
        "n",
        "ji"
      ],
      [
        "n",
        "kwe"
      ],
      [
        "ma",
        "r"
      ],
      [
        "ch",
        "u"
      ],
      [
        "nw",
        "o"
      ],
      [
        "bụ",
        "la"
      ],
      [
        "mma",
        "nụ"
      ],
      [
        "al",
        "ụ"
      ],
      [
        "nku",
        "zi"
      ],
      [
        "ezina",
        "ụlọ"
      ],
      [
        "ọ",
        "w"
      ],
      [
        "na",
        "rị"
      ],
      [
        "bụ",
        "ghị"
      ],
      [
        "ahụ",
        "ike"
      ],
      [
        "sh",
        "i"
      ],
      [
        "n",
        "kwado"
      ],
      [
        "o",
        "fe"
      ],
      [
        "ụ",
        "kwụ"
      ],
      [
        "any",
        "i"
      ],
      [
        "an",
        "o"
      ],
      [
        "kwe",
        "sịrị"
      ],
      [
        "ok",
        "oro"
      ],
      [
        "ọw",
        "ụwa"
      ],
      [
        ")",
        ","
      ],
      [
        "e",
        "kp"
      ],
      [
        "j",
        "ị"
      ],
      [
        "u",
        "do"
      ],
      [
        "nwe",
        "e"
      ],
      [
        "ama",
        "ghị"
      ],
      [
        "sh",
        "u"
      ],
      [
        "ine",
        "c"
      ],
      [
        "agbanye",
        "ghị"
      ],
      [
        "e",
        "kwere"
      ],
      [
        "i",
        "kwu"
      ],
      [
        "n",
        "ce"
      ],
      [
        "u",
        "ni"
      ],
      [
        "ti",
        "nyere"
      ],
      [
        "pu",
        "ku"
      ],
      [
        "ea",
        "g"
      ],
      [
        "e",
        "nyere"
      ],
      [
        "e",
        "nyi"
      ],
      [
        "n",
        "gosi"
      ],
      [
        "ka",
        "ma"
      ],
      [
        "ke",
        "mgbe"
      ],
      [
        "mụ",
        "rụ"
      ],
      [
        "o",
        "nal"
      ],
      [
        "ọ",
        "kpụ"
      ],
      [
        "ke",
        "re"
      ],
      [
        "ba",
        "ka"
      ],
      [
        "ba",
        "nye"
      ],
      [
        "an",
        "d"
      ],
      [
        "a",
        "zọ"
      ],
      [
        "ch",
        "ere"
      ],
      [
        "bi",
        "ri"
      ],
      [
        "ntoro",
        "bịa"
      ],
      [
        "a",
        "sị"
      ],
      [
        "g",
        "re"
      ],
      [
        "i",
        "be"
      ],
      [
        "t",
        "ọrọ"
      ],
      [
        "che",
        "ta"
      ],
      [
        "ezi",
        "okwu"
      ],
      [
        "chọ",
        "pụta"
      ],
      [
        "mkpe",
        "sa"
      ],
      [
        "d",
        "ss"
      ],
      [
        "e",
        "nyo"
      ],
      [
        "f",
        "ụ"
      ],
      [
        "ọ",
        "tọ"
      ],
      [
        "abu",
        "ja"
      ],
      [
        "a",
        "sụ"
      ],
      [
        "e",
        "bo"
      ],
      [
        "o",
        "gbu"
      ],
      [
        "u",
        "th"
      ],
      [
        "̇",
        "ụ"
      ],
      [
        "me",
        "tụ"
      ],
      [
        "kp",
        "oro"
      ],
      [
        "ah",
        "u"
      ],
      [
        "ego",
        "si"
      ],
      [
        "gị",
        "nị"
      ],
      [
        ",",
        "'"
      ],
      [
        "h",
        "e"
      ],
      [
        "na",
        "ti"
      ],
      [
        "rụ",
        "rụ"
      ],
      [
        "bi",
        "doro"
      ],
      [
        "chi",
        "te"
      ],
      [
        "li",
        "e"
      ],
      [
        "di",
        "a"
      ],
      [
        "da",
        "ra"
      ],
      [
        "ebu",
        "m"
      ],
      [
        "aba",
        "lị"
      ],
      [
        "azụma",
        "hịa"
      ],
      [
        "maka",
        "na"
      ],
      [
        "ukwu",
        "u"
      ],
      [
        "eag",
        "les"
      ],
      [
        "nati",
        "onal"
      ],
      [
        "e",
        "so"
      ],
      [
        "j",
        "ụrụ"
      ],
      [
        "n",
        "c"
      ],
      [
        "t",
        "ru"
      ],
      [
        "kwu",
        "kwara"
      ],
      [
        "b",
        "ri"
      ],
      [
        "e",
        "fu"
      ],
      [
        "ị",
        "bụ"
      ],
      [
        "ị",
        "tụ"
      ],
      [
        "ha",
        "pụ"
      ],
      [
        "mer",
        "iri"
      ],
      [
        "mkp",
        "ụrụ"
      ],
      [
        "a",
        "gu"
      ],
      [
        "i",
        "po"
      ],
      [
        "p",
        "ro"
      ],
      [
        "u",
        "me"
      ],
      [
        "ere",
        "de"
      ],
      [
        "bi",
        "af"
      ],
      [
        "ụlọ",
        "akwụkwọ"
      ],
      [
        "mp",
        "e"
      ],
      [
        "ọdị",
        "da"
      ],
      [
        "ekwere",
        "madu"
      ],
      [
        "biaf",
        "ra"
      ],
      [
        "-",
        "-"
      ],
      [
        "m",
        "kpọrọ"
      ],
      [
        "o",
        "ka"
      ],
      [
        "v",
        "o"
      ],
      [
        "ị",
        "dị"
      ],
      [
        "ị",
        "ga"
      ],
      [
        "pụta",
        "la"
      ],
      [
        "nt",
        "ọ"
      ],
      [
        "ụmụ",
        "akwụkwọ"
      ],
      [
        "pa",
        "se"
      ],
      [
        "ipo",
        "b"
      ],
      [
        "a",
        "d"
      ],
      [
        "e",
        "hi"
      ],
      [
        "i",
        "tinye"
      ],
      [
        "m",
        "di"
      ],
      [
        "o",
        "de"
      ],
      [
        "ọ",
        "cha"
      ],
      [
        "ị",
        "rụ"
      ],
      [
        "ru",
        "e"
      ],
      [
        "mme",
        "kọrịta"
      ],
      [
        "ezi",
        "e"
      ],
      [
        "a",
        "kpọrọ"
      ],
      [
        "e",
        "gbe"
      ],
      [
        "la",
        "gos"
      ],
      [
        "d",
        "an"
      ],
      [
        "e",
        "kpe"
      ],
      [
        "j",
        "eri"
      ],
      [
        "t",
        "wi"
      ],
      [
        "ọ",
        "bara"
      ],
      [
        "ị",
        "hụ"
      ],
      [
        "ke",
        "dụ"
      ],
      [
        "nw",
        "anyị"
      ],
      [
        "kp",
        "u"
      ],
      [
        "kọ",
        "mi"
      ],
      [
        "on",
        "do"
      ],
      [
        "kpa",
        "tara"
      ],
      [
        "mme",
        "mme"
      ],
      [
        "ome",
        "na"
      ],
      [
        "agụ",
        "ma"
      ],
      [
        "f",
        "al"
      ],
      [
        "r",
        "s"
      ],
      [
        "nle",
        "kọta"
      ],
      [
        "họ",
        "pụta"
      ],
      [
        "baka",
        "r"
      ],
      [
        "a",
        "w"
      ],
      [
        "a",
        "chụ"
      ],
      [
        "g",
        "ra"
      ],
      [
        "m",
        "bu"
      ],
      [
        "ọ",
        "sọ"
      ],
      [
        "gb",
        "ụrụ"
      ],
      [
        "kwụ",
        "kwọ"
      ],
      [
        "obi",
        "ano"
      ],
      [
        "sh",
        "o"
      ],
      [
        "mị",
        "nị"
      ],
      [
        "enu",
        "gwu"
      ],
      [
        "ofe",
        "si"
      ],
      [
        "c",
        "an"
      ],
      [
        "i",
        "yi"
      ],
      [
        "ga",
        "ghị"
      ],
      [
        "te",
        "d"
      ],
      [
        "wa",
        "kporo"
      ],
      [
        "pu",
        "tara"
      ],
      [
        "sh",
        "ọna"
      ],
      [
        "mb",
        "erede"
      ],
      [
        "abu",
        "bakar"
      ],
      [
        "tru",
        "mp"
      ],
      [
        "fal",
        "con"
      ],
      [
        "1",
        "0"
      ],
      [
        "i",
        "chi"
      ],
      [
        "m",
        "gb"
      ],
      [
        "m",
        "ike"
      ],
      [
        "o",
        "mo"
      ],
      [
        "p",
        "i"
      ],
      [
        "t",
        "ri"
      ],
      [
        "ụlọ",
        "akụ"
      ],
      [
        "chi",
        "na"
      ],
      [
        "gu",
        "zo"
      ],
      [
        "mmụ",
        "ọ"
      ],
      [
        "asụ",
        "sụ"
      ],
      [
        "h",
        "u"
      ],
      [
        "r",
        "y"
      ],
      [
        "na",
        "ụba"
      ],
      [
        "kwa",
        "sị"
      ],
      [
        "tụ",
        "rụ"
      ],
      [
        "mi",
        "ni"
      ],
      [
        "okoro",
        "cha"
      ],
      [
        "l",
        "y"
      ],
      [
        "o",
        "hi"
      ],
      [
        "o",
        "yi"
      ],
      [
        "si",
        "tere"
      ],
      [
        "gba",
        "a"
      ],
      [
        "so",
        "uth"
      ],
      [
        "mp",
        "ị"
      ],
      [
        "nai",
        "ra"
      ],
      [
        "metụ",
        "tara"
      ],
      [
        "b",
        "ọ"
      ],
      [
        "b",
        "oro"
      ],
      [
        "i",
        "de"
      ],
      [
        "i",
        "nweta"
      ],
      [
        "l",
        "la"
      ],
      [
        "zi",
        "e"
      ],
      [
        "gbu",
        "o"
      ],
      [
        "akụ",
        "naụba"
      ],
      [
        "naịji",
        "ria"
      ],
      [
        "abụ",
        "rụ"
      ],
      [
        "mme",
        "d"
      ],
      [
        "su",
        "n"
      ],
      [
        "fo",
        "to"
      ],
      [
        "falcon",
        "s"
      ],
      [
        ")",
        "."
      ],
      [
        "e",
        "do"
      ],
      [
        "e",
        "to"
      ],
      [
        "n",
        "kwụ"
      ],
      [
        "n",
        "ihu"
      ],
      [
        "p",
        "re"
      ],
      [
        "t",
        "ra"
      ],
      [
        "ụ",
        "kọ"
      ],
      [
        "ọ",
        "n"
      ],
      [
        "ma",
        "litere"
      ],
      [
        "kwụ",
        "rụ"
      ],
      [
        "akwụ",
        "sị"
      ],
      [
        "20",
        "0"
      ],
      [
        "nu",
        "che"
      ],
      [
        "mo",
        "ha"
      ],
      [
        "in",
        "g"
      ],
      [
        "nga",
        "gharị"
      ],
      [
        "ụgbọ",
        "elu"
      ],
      [
        "nzu",
        "zo"
      ],
      [
        "oba",
        "san"
      ],
      [
        "amụ",
        "ma"
      ],
      [
        "f",
        "ere"
      ],
      [
        "m",
        "bi"
      ],
      [
        "n",
        "n"
      ],
      [
        "n",
        "nọ"
      ],
      [
        "o",
        "gbe"
      ],
      [
        "ụ",
        "tọ"
      ],
      [
        "ka",
        "nu"
      ],
      [
        "nw",
        "an"
      ],
      [
        "la",
        "ta"
      ],
      [
        "tụ",
        "ta"
      ],
      [
        "ụlọ",
        "omeiwu"
      ],
      [
        "chi",
        "tere"
      ],
      [
        "iche",
        "iche"
      ],
      [
        "pe",
        "ter"
      ],
      [
        "ọka",
        "mmụta"
      ],
      [
        "nzu",
        "kọ"
      ],
      [
        "vo",
        "otu"
      ],
      [
        "a",
        "s"
      ],
      [
        "k",
        "ị"
      ],
      [
        "u",
        "p"
      ],
      [
        "ọ",
        "hịa"
      ],
      [
        "ị",
        "na"
      ],
      [
        "kw",
        "o"
      ],
      [
        "be",
        "ghi"
      ],
      [
        "bi",
        "e"
      ],
      [
        "wa",
        "rị"
      ],
      [
        "chi",
        "ela"
      ],
      [
        "ọọ",
        "la"
      ],
      [
        "nle",
        "ta"
      ],
      [
        "ghọ",
        "ta"
      ],
      [
        "agbanye",
        "ghi"
      ],
      [
        "afri",
        "ca"
      ],
      [
        "ebum",
        "nuche"
      ],
      [
        "b",
        "n"
      ],
      [
        "l",
        "ere"
      ],
      [
        "o",
        "d"
      ],
      [
        "ọ",
        "zụ"
      ],
      [
        "ị",
        "kpọ"
      ],
      [
        "ka",
        "mgbe"
      ],
      [
        "si",
        "na"
      ],
      [
        "lo",
        "go"
      ],
      [
        "asọ",
        "mpị"
      ],
      [
        "19",
        "9"
      ],
      [
        "a",
        "rị"
      ],
      [
        "a",
        "pụta"
      ],
      [
        "a",
        "jọ"
      ],
      [
        "i",
        "re"
      ],
      [
        "i",
        "jeri"
      ],
      [
        "n",
        "gwụ"
      ],
      [
        "t",
        "ter"
      ],
      [
        "ọ",
        "bịa"
      ],
      [
        "me",
        "nt"
      ],
      [
        "ba",
        "tara"
      ],
      [
        "de",
        "be"
      ],
      [
        "mba",
        "ụwa"
      ],
      [
        "201",
        "5"
      ],
      [
        "wi",
        "l"
      ],
      [
        "meri",
        "e"
      ],
      [
        "ogo",
        "logo"
      ],
      [
        "moha",
        "mmed"
      ],
      [
        "3",
        "0"
      ],
      [
        "a",
        "kpụ"
      ],
      [
        "n",
        "jọ"
      ],
      [
        "o",
        "́"
      ],
      [
        "o",
        "gu"
      ],
      [
        "ụ",
        "tụ"
      ],
      [
        "ne",
        "w"
      ],
      [
        "gọ",
        "s"
      ],
      [
        "mịnị",
        "sta"
      ],
      [
        "a",
        "ta"
      ],
      [
        "e",
        "se"
      ],
      [
        "m",
        "gbochi"
      ],
      [
        "t",
        "or"
      ],
      [
        "ị",
        "kpa"
      ],
      [
        "ma",
        "n"
      ],
      [
        "bụ",
        "kwa"
      ],
      [
        "si",
        "n"
      ],
      [
        "kwu",
        "pụtara"
      ],
      [
        "bu",
        "tere"
      ],
      [
        "ana",
        "bata"
      ],
      [
        "nna",
        "mdi"
      ],
      [
        "ele",
        "c"
      ],
      [
        "ntụ",
        "li"
      ],
      [
        "nkwe",
        "nye"
      ],
      [
        "ekp",
        "ere"
      ],
      [
        "obasan",
        "jo"
      ],
      [
        "e",
        "bi"
      ],
      [
        "e",
        "mere"
      ],
      [
        "i",
        "to"
      ],
      [
        "n",
        "zụ"
      ],
      [
        "q",
        "u"
      ],
      [
        "t",
        "on"
      ],
      [
        "ọ",
        "dọ"
      ],
      [
        "ọ",
        "fụ"
      ],
      [
        "ị",
        "lụ"
      ],
      [
        "gb",
        "ụ"
      ],
      [
        "eme",
        "pụta"
      ],
      [
        "ro",
        "cha"
      ],
      [
        "nche",
        "ta"
      ],
      [
        "ndi",
        "gbo"
      ],
      [
        "th",
        "e"
      ],
      [
        "is",
        "ha"
      ],
      [
        "fra",
        "nce"
      ],
      [
        "ọkacha",
        "mara"
      ],
      [
        "abụrụ",
        "la"
      ],
      [
        "ọfụ",
        "ma"
      ],
      [
        "e",
        "gbochi"
      ],
      [
        "m",
        "ọdụ"
      ],
      [
        "o",
        "riri"
      ],
      [
        "u",
        "r"
      ],
      [
        "ọ",
        "kpọ"
      ],
      [
        "ị",
        "kwụ"
      ],
      [
        "ị",
        "tị"
      ],
      [
        "kp",
        "ụrụ"
      ],
      [
        "ga",
        "wa"
      ],
      [
        "so",
        "n"
      ],
      [
        "ikpe",
        "azụ"
      ],
      [
        "ama",
        "ra"
      ],
      [
        "mkpa",
        "rịta"
      ],
      [
        "sara",
        "ki"
      ],
      [
        "enye",
        "maka"
      ],
      [
        "onyo",
        "nyo"
      ],
      [
        "e",
        "je"
      ],
      [
        "i",
        "te"
      ],
      [
        "i",
        "je"
      ],
      [
        "n",
        "sọ"
      ],
      [
        "p",
        "or"
      ],
      [
        "v",
        "a"
      ],
      [
        "me",
        "chara"
      ],
      [
        "si",
        "e"
      ],
      [
        "kwa",
        "lite"
      ],
      [
        "kọ",
        "mị"
      ],
      [
        "nwe",
        "ghị"
      ],
      [
        "wa",
        "nye"
      ],
      [
        "mma",
        "sị"
      ],
      [
        "okp",
        "u"
      ],
      [
        "ndụ",
        "mọdụ"
      ],
      [
        "sta",
        "te"
      ],
      [
        "ịrị",
        "ka"
      ],
      [
        "ọmụ",
        "mụ"
      ],
      [
        "nha",
        "zi"
      ],
      [
        "ab",
        "du"
      ],
      [
        "agụma",
        "kwụkwọ"
      ],
      [
        "ogbe",
        "nye"
      ],
      [
        "a",
        "kọ"
      ],
      [
        "a",
        "di"
      ],
      [
        "a",
        "rịrị"
      ],
      [
        "c",
        "c"
      ],
      [
        "d",
        "r"
      ],
      [
        "e",
        "fe"
      ],
      [
        "e",
        "yi"
      ],
      [
        "e",
        "nyocha"
      ],
      [
        "f",
        "f"
      ],
      [
        "n",
        "sị"
      ],
      [
        "o",
        "pe"
      ],
      [
        "p",
        "h"
      ],
      [
        "u",
        "wa"
      ],
      [
        "ra",
        "l"
      ],
      [
        "la",
        "nd"
      ],
      [
        "ya",
        "na"
      ],
      [
        "af",
        "ịrịka"
      ],
      [
        "obi",
        "bi"
      ],
      [
        "twi",
        "tter"
      ],
      [
        "ọzụ",
        "zụ"
      ],
      [
        "i",
        "nt"
      ],
      [
        "m",
        "iri"
      ],
      [
        "n",
        "s"
      ],
      [
        "n",
        "or"
      ],
      [
        "o",
        "ny"
      ],
      [
        "o",
        "li"
      ],
      [
        "u",
        "k"
      ],
      [
        "u",
        "go"
      ],
      [
        "y",
        "u"
      ],
      [
        "ị",
        "me"
      ],
      [
        "ka",
        "rị"
      ],
      [
        "chị",
        "rị"
      ],
      [
        "an",
        "i"
      ],
      [
        "kan",
        "sa"
      ],
      [
        "nchị",
        "kwa"
      ],
      [
        "shu",
        "a"
      ],
      [
        "rocha",
        "s"
      ],
      [
        "a",
        "ja"
      ],
      [
        "a",
        "bia"
      ],
      [
        "a",
        "gbụrụ"
      ],
      [
        "b",
        "li"
      ],
      [
        "d",
        "er"
      ],
      [
        "n",
        "nyocha"
      ],
      [
        "y",
        "in"
      ],
      [
        "z",
        "dee"
      ],
      [
        "ụ",
        "tụtụ"
      ],
      [
        "ọ",
        "gbọ"
      ],
      [
        "ba",
        "nk"
      ],
      [
        "wa",
        "p"
      ],
      [
        "re",
        "e"
      ],
      [
        "mba",
        "ra"
      ],
      [
        "201",
        "7"
      ],
      [
        "ebu",
        "te"
      ],
      [
        "is",
        "wap"
      ],
      [
        "ọmụ",
        "ma"
      ],
      [
        "họ",
        "pụtara"
      ],
      [
        "nkwu",
        "pụta"
      ],
      [
        "agu",
        "e"
      ],
      [
        "nzụ",
        "kọ"
      ],
      [
        "a",
        "isha"
      ],
      [
        "e",
        "bido"
      ],
      [
        "s",
        "oro"
      ],
      [
        "ri",
        "n"
      ],
      [
        "kwa",
        "a"
      ],
      [
        "le",
        "ague"
      ],
      [
        "kpa",
        "ra"
      ],
      [
        "ekwu",
        "chitere"
      ],
      [
        "bụrụ",
        "kwa"
      ],
      [
        "ọka",
        "ikpe"
      ],
      [
        "ekwe",
        "ntị"
      ],
      [
        "ki",
        "ti"
      ],
      [
        "a",
        "kwu"
      ],
      [
        "a",
        "ku"
      ],
      [
        "e",
        "u"
      ],
      [
        "n",
        "z"
      ],
      [
        "n",
        "ọrọ"
      ],
      [
        "ị",
        "da"
      ],
      [
        "ị",
        "kwado"
      ],
      [
        "ma",
        "ara"
      ],
      [
        "bụ",
        "bu"
      ],
      [
        "gh",
        "ere"
      ],
      [
        "kọ",
        "tara"
      ],
      [
        "akụ",
        "rụ"
      ],
      [
        "agba",
        "ra"
      ],
      [
        "tara",
        "chi"
      ],
      [
        "ama",
        "lite"
      ],
      [
        "pu",
        "bli"
      ],
      [
        "sh",
        "e"
      ],
      [
        "al",
        "th"
      ],
      [
        "ome",
        "be"
      ],
      [
        "dọ",
        "kị"
      ],
      [
        "19",
        "6"
      ],
      [
        "ezu",
        "mike"
      ],
      [
        "ọna",
        "tarachi"
      ],
      [
        "sha",
        "l"
      ],
      [
        "sin",
        "eti"
      ],
      [
        "a",
        "u"
      ],
      [
        "a",
        "kọwa"
      ],
      [
        "e",
        "du"
      ],
      [
        "i",
        "zi"
      ],
      [
        "i",
        "gbu"
      ],
      [
        "m",
        "on"
      ],
      [
        "o",
        "s"
      ],
      [
        "t",
        "ha"
      ],
      [
        "u",
        "lo"
      ],
      [
        "dị",
        "rị"
      ],
      [
        "gha",
        "na"
      ],
      [
        "mi",
        "dia"
      ],
      [
        "ana",
        "mbara"
      ],
      [
        "co",
        "de"
      ],
      [
        "nk",
        "ịtị"
      ],
      [
        "jo",
        "shua"
      ],
      [
        "achọ",
        "ghị"
      ],
      [
        "ewe",
        "ta"
      ],
      [
        "ọkacha",
        "sị"
      ],
      [
        "1",
        "5"
      ],
      [
        "i",
        "̀"
      ],
      [
        "m",
        "bido"
      ],
      [
        "n",
        "go"
      ],
      [
        "o",
        "nwu"
      ],
      [
        "y",
        "ele"
      ],
      [
        "ke",
        "̀"
      ],
      [
        "si",
        "ne"
      ],
      [
        "nke",
        "a"
      ],
      [
        "pụ",
        "la"
      ],
      [
        "chi",
        "ne"
      ],
      [
        "we",
        "pụtara"
      ],
      [
        "so",
        "ci"
      ],
      [
        "da",
        "y"
      ],
      [
        "chọ",
        "pụtara"
      ],
      [
        "ọka",
        "iwu"
      ],
      [
        "dọ",
        "la"
      ],
      [
        "egbu",
        "ola"
      ],
      [
        "shu",
        "ga"
      ],
      [
        "ogbu",
        "gbu"
      ],
      [
        "omo",
        "yele"
      ],
      [
        "ito",
        "olu"
      ],
      [
        "a",
        "m"
      ],
      [
        "b",
        "ra"
      ],
      [
        "e",
        "tị"
      ],
      [
        "i",
        "gba"
      ],
      [
        "l",
        "d"
      ],
      [
        "m",
        "wu"
      ],
      [
        "n",
        "chọpụta"
      ],
      [
        "n",
        "rụrụ"
      ],
      [
        "o",
        "ma"
      ],
      [
        "r",
        "d"
      ],
      [
        "ọ",
        "k"
      ],
      [
        "ọ",
        "kwọ"
      ],
      [
        "ka",
        "ta"
      ],
      [
        "ka",
        "no"
      ],
      [
        "ji",
        "dere"
      ],
      [
        "tu",
        "ru"
      ],
      [
        "kwa",
        "doro"
      ],
      [
        "gha",
        "ri"
      ],
      [
        "wa",
        "ra"
      ],
      [
        "sa",
        "tọ"
      ],
      [
        "re",
        "publi"
      ],
      [
        "zu",
        "o"
      ],
      [
        "fe",
        "mi"
      ],
      [
        "gi",
        "dere"
      ],
      [
        "ve",
        "s"
      ],
      [
        "nchị",
        "kọta"
      ],
      [
        "nkwe",
        "kọrịta"
      ],
      [
        "nwo",
        "su"
      ],
      [
        "nc",
        "y"
      ],
      [
        "omena",
        "la"
      ],
      [
        "ụkọ",
        "chukwu"
      ],
      [
        "akụrụ",
        "ngwa"
      ],
      [
        "1",
        "7"
      ],
      [
        "a",
        "tion"
      ],
      [
        "e",
        "n"
      ],
      [
        "e",
        "mer"
      ],
      [
        "i",
        "du"
      ],
      [
        "n",
        "kọwa"
      ],
      [
        "o",
        "ko"
      ],
      [
        "s",
        "d"
      ],
      [
        "ụ",
        "nya"
      ],
      [
        "ọ",
        "ga"
      ],
      [
        "na",
        "nya"
      ],
      [
        "ka",
        "sị"
      ],
      [
        "ti",
        "c"
      ],
      [
        "ti",
        "i"
      ],
      [
        "te",
        "le"
      ],
      [
        "gbo",
        "o"
      ],
      [
        "eme",
        "ela"
      ],
      [
        "ụmụ",
        "nwoke"
      ],
      [
        "kwe",
        "nyere"
      ],
      [
        "20",
        "20"
      ],
      [
        "mme",
        "kọ"
      ],
      [
        "mme",
        "bi"
      ],
      [
        "pu",
        "ru"
      ],
      [
        "onwe",
        "ghị"
      ],
      [
        "nri",
        "te"
      ],
      [
        "eke",
        "le"
      ],
      [
        "ode",
        "akwụkwọ"
      ],
      [
        "mini",
        "sta"
      ],
      [
        "kọmị",
        "shọna"
      ],
      [
        "1",
        "1"
      ],
      [
        "e",
        "kwuru"
      ],
      [
        "h",
        "ọrọ"
      ],
      [
        "i",
        "bi"
      ],
      [
        "i",
        "fe"
      ],
      [
        "m",
        "ọtọ"
      ],
      [
        "n",
        "họpụta"
      ],
      [
        "o",
        "du"
      ],
      [
        "s",
        "y"
      ],
      [
        "ụ",
        "gha"
      ],
      [
        "ị",
        "nọ"
      ],
      [
        "ahụ",
        "hụ"
      ],
      [
        "le",
        "gosi"
      ],
      [
        "aka",
        "ebe"
      ],
      [
        "an",
        "̇ụ"
      ],
      [
        "go",
        "v"
      ],
      [
        "akụ",
        "nụ"
      ],
      [
        "naị",
        "ra"
      ],
      [
        "onwe",
        "ghi"
      ],
      [
        "ekwe",
        "si"
      ],
      [
        "mkp",
        "u"
      ],
      [
        "afri",
        "ka"
      ],
      [
        "pase",
        "nti"
      ],
      [
        "akụnụ",
        "ba"
      ],
      [
        "a",
        "̀"
      ],
      [
        "b",
        "er"
      ],
      [
        "b",
        "or"
      ],
      [
        "c",
        "bn"
      ],
      [
        "e",
        "f"
      ],
      [
        "g",
        "oro"
      ],
      [
        "k",
        "y"
      ],
      [
        "k",
        "iri"
      ],
      [
        "m",
        "kpọ"
      ],
      [
        "n",
        "rị"
      ],
      [
        "o",
        "kike"
      ],
      [
        "ọ",
        "tụ"
      ],
      [
        "ị",
        "ba"
      ],
      [
        "me",
        "s"
      ],
      [
        "gw",
        "o"
      ],
      [
        "we",
        "tara"
      ],
      [
        "so",
        "nyere"
      ],
      [
        "so",
        "shal"
      ],
      [
        "mme",
        "pụta"
      ],
      [
        "mi",
        "le"
      ],
      [
        "gharị",
        "rị"
      ],
      [
        "ọgba",
        "ghara"
      ],
      [
        "ci",
        "ty"
      ],
      [
        "enu",
        "gu"
      ],
      [
        "mgb",
        "ere"
      ],
      [
        "int",
        "er"
      ],
      [
        "yin",
        "ka"
      ],
      [
        "code",
        "ine"
      ],
      [
        "a",
        "c"
      ],
      [
        "b",
        "y"
      ],
      [
        "m",
        "okwu"
      ],
      [
        "n",
        "kụ"
      ],
      [
        "s",
        "sa"
      ],
      [
        "w",
        "ụ"
      ],
      [
        "w",
        "or"
      ],
      [
        "ụ",
        "kwa"
      ],
      [
        "ị",
        "zụ"
      ],
      [
        "ị",
        "chụ"
      ],
      [
        "ma",
        "ta"
      ],
      [
        "rụ",
        "ọ"
      ],
      [
        "ji",
        "de"
      ],
      [
        "rị",
        "ọ"
      ],
      [
        "le",
        "gọs"
      ],
      [
        "we",
        "pụ"
      ],
      [
        "di",
        "se"
      ],
      [
        "ọbụ",
        "ghị"
      ],
      [
        "ọnụ",
        "ọgụgụ"
      ],
      [
        "to",
        "ba"
      ],
      [
        "gu",
        "nyere"
      ],
      [
        "st",
        "er"
      ],
      [
        "ele",
        "kere"
      ],
      [
        "nje",
        "debe"
      ],
      [
        "ca",
        "r"
      ],
      [
        "ar",
        "se"
      ],
      [
        "ll",
        "y"
      ],
      [
        "ghe",
        "te"
      ],
      [
        "uni",
        "ted"
      ],
      [
        "ite",
        "ghete"
      ],
      [
        "ụnya",
        "ahụ"
      ],
      [
        "a",
        "t"
      ],
      [
        "a",
        "kp"
      ],
      [
        "a",
        "rịa"
      ],
      [
        "e",
        "meri"
      ],
      [
        "n",
        "ghọta"
      ],
      [
        "o",
        "dozi"
      ],
      [
        "p",
        "ere"
      ],
      [
        "z",
        "de"
      ],
      [
        "ọ",
        "da"
      ],
      [
        "ma",
        "lite"
      ],
      [
        "ch",
        "ọọ"
      ],
      [
        "ta",
        "in"
      ],
      [
        "ji",
        "kọrọ"
      ],
      [
        "ih",
        "ere"
      ],
      [
        "pụ",
        "ọ"
      ],
      [
        "nwe",
        "alth"
      ],
      [
        "ụlọ",
        "ụka"
      ],
      [
        "ge",
        "ncy"
      ],
      [
        "agba",
        "nwe"
      ],
      [
        "anọ",
        "ghị"
      ],
      [
        "mo",
        "nwealth"
      ],
      [
        "nna",
        "bata"
      ],
      [
        "naiji",
        "rịa"
      ],
      [
        "vi",
        "c"
      ],
      [
        "com",
        "monwealth"
      ],
      [
        "ngwụ",
        "cha"
      ],
      [
        "wil",
        "lie"
      ],
      [
        "a",
        "cha"
      ],
      [
        "a",
        "dọ"
      ],
      [
        "j",
        "uru"
      ],
      [
        "m",
        "pụtara"
      ],
      [
        "m",
        "fe"
      ],
      [
        "o",
        "ha"
      ],
      [
        "t",
        "s"
      ],
      [
        "u",
        "t"
      ],
      [
        "u",
        "nu"
      ],
      [
        "ọ",
        "me"
      ],
      [
        "ọ",
        "gara"
      ],
      [
        "ị",
        "chị"
      ],
      [
        "ru",
        "ssi"
      ],
      [
        "ba",
        "ba"
      ],
      [
        "tu",
        "tu"
      ],
      [
        "le",
        "gos"
      ],
      [
        "so",
        "yinka"
      ],
      [
        "gi",
        "ge"
      ],
      [
        "ce",
        "nt"
      ],
      [
        "gosi",
        "pụtara"
      ],
      [
        "ozu",
        "gbo"
      ],
      [
        "com",
        "mi"
      ],
      [
        "ebo",
        "nyi"
      ],
      [
        "kọmi",
        "tii"
      ],
      [
        "ese",
        "mokwu"
      ],
      [
        "elec",
        "tion"
      ],
      [
        "ony",
        "inye"
      ],
      [
        "akwu",
        "kwo"
      ],
      [
        "dise",
        "mba"
      ],
      [
        "russi",
        "a"
      ],
      [
        "a",
        "gw"
      ],
      [
        "e",
        "h"
      ],
      [
        "i",
        "di"
      ],
      [
        "l",
        "ondo"
      ],
      [
        "m",
        "bodo"
      ],
      [
        "n",
        "ụlọ"
      ],
      [
        "p",
        "an"
      ],
      [
        "s",
        "er"
      ],
      [
        "u",
        "mu"
      ],
      [
        "ụ",
        "kwara"
      ],
      [
        "ọ",
        "nị"
      ],
      [
        "ta",
        "ghị"
      ],
      [
        "me",
        "gidere"
      ],
      [
        "ga",
        "r"
      ],
      [
        "kwu",
        "nye"
      ],
      [
        "kwu",
        "putara"
      ],
      [
        "be",
        "lata"
      ],
      [
        "de",
        "l"
      ],
      [
        "sa",
        "hara"
      ],
      [
        "ni",
        "a"
      ],
      [
        "re",
        "n"
      ],
      [
        "da",
        "da"
      ],
      [
        "da",
        "vi"
      ],
      [
        "on",
        "u"
      ],
      [
        "mme",
        "tụta"
      ],
      [
        "ezi",
        "nụlọ"
      ],
      [
        "ọnụ",
        "ahịa"
      ],
      [
        "201",
        "6"
      ],
      [
        "fe",
        "der"
      ],
      [
        "enye",
        "la"
      ],
      [
        "asa",
        "mbodo"
      ],
      [
        "pụrụ",
        "iche"
      ],
      [
        "ju",
        "la"
      ],
      [
        "echi",
        "chi"
      ],
      [
        "nal",
        "d"
      ],
      [
        "ssi",
        "on"
      ],
      [
        "pre",
        "mi"
      ],
      [
        "nwan",
        "ne"
      ],
      [
        "yu",
        "su"
      ],
      [
        "bor",
        "no"
      ],
      [
        "arse",
        "nal"
      ],
      [
        "londo",
        "n"
      ],
      [
        "ọnị",
        "cha"
      ],
      [
        "1",
        "2"
      ],
      [
        "1",
        "6"
      ],
      [
        "2",
        "2"
      ],
      [
        "a",
        "meri"
      ],
      [
        "c",
        "u"
      ],
      [
        "e",
        "were"
      ],
      [
        "n",
        "la"
      ],
      [
        "o",
        "ni"
      ],
      [
        "o",
        "di"
      ],
      [
        "o",
        "sun"
      ],
      [
        "w",
        "an"
      ],
      [
        "ị",
        "kụ"
      ],
      [
        "ị",
        "zọ"
      ],
      [
        "ka",
        "lu"
      ],
      [
        "ma",
        "zị"
      ],
      [
        "ke",
        "du"
      ],
      [
        "ke",
        "lere"
      ],
      [
        "ri",
        "ver"
      ],
      [
        "any",
        "ere"
      ],
      [
        "gha",
        "rịa"
      ],
      [
        "do",
        "nald"
      ],
      [
        "di",
        "ka"
      ],
      [
        "eme",
        "bi"
      ],
      [
        "ọnụ",
        "ego"
      ],
      [
        "fe",
        "e"
      ],
      [
        "jo",
        "h"
      ],
      [
        "ve",
        "mba"
      ],
      [
        "anwụ",
        "ọla"
      ],
      [
        "ụdị",
        "rị"
      ],
      [
        "ris",
        "ti"
      ],
      [
        "omena",
        "ala"
      ],
      [
        "nkwụ",
        "mọtọ"
      ],
      [
        "ope",
        "kata"
      ],
      [
        "chine",
        "ke"
      ],
      [
        "satọ",
        "de"
      ],
      [
        "ef",
        "cc"
      ],
      [
        "ọgara",
        "nya"
      ],
      [
        "a",
        "za"
      ],
      [
        "e",
        "mma"
      ],
      [
        "f",
        "uru"
      ],
      [
        "g",
        "er"
      ],
      [
        "i",
        "z"
      ],
      [
        "i",
        "ru"
      ],
      [
        "i",
        "gosi"
      ],
      [
        "u",
        "n"
      ],
      [
        "ụ",
        "jọ"
      ],
      [
        "ọ",
        "wa"
      ],
      [
        "ị",
        "kwa"
      ],
      [
        "ị",
        "kwụsị"
      ],
      [
        "te",
        "k"
      ],
      [
        "ụlọ",
        "ọgwụ"
      ],
      [
        "mụ",
        "ta"
      ],
      [
        "li",
        "k"
      ],
      [
        "so",
        "la"
      ],
      [
        "cha",
        "r"
      ],
      [
        "nọ",
        "vemba"
      ],
      [
        "mp",
        "osi"
      ],
      [
        "hi",
        "e"
      ],
      [
        "19",
        "8"
      ],
      [
        "con",
        "gre"
      ],
      [
        "yo",
        "u"
      ],
      [
        "aw",
        "ụ"
      ],
      [
        "sho",
        "p"
      ],
      [
        "oli",
        "le"
      ],
      [
        "congre",
        "ss"
      ],
      [
        ")",
        "'"
      ],
      [
        ".",
        "."
      ],
      [
        "a",
        "pụ"
      ],
      [
        "a",
        "gbọ"
      ],
      [
        "a",
        "gwụ"
      ],
      [
        "a",
        "gency"
      ],
      [
        "e",
        "dere"
      ],
      [
        "g",
        "ro"
      ],
      [
        "n",
        "rụ"
      ],
      [
        "p",
        "la"
      ],
      [
        "s",
        "c"
      ],
      [
        "s",
        "ti"
      ],
      [
        "u",
        "m"
      ],
      [
        "w",
        "in"
      ],
      [
        "ụ",
        "t"
      ],
      [
        "ụ",
        "ta"
      ],
      [
        "na",
        "batara"
      ],
      [
        "ka",
        "ra"
      ],
      [
        "ka",
        "du"
      ],
      [
        "ka",
        "pa"
      ],
      [
        "ha",
        "r"
      ],
      [
        "ha",
        "pụrụ"
      ],
      [
        "ta",
        "la"
      ],
      [
        "ta",
        "nka"
      ],
      [
        "me",
        "t"
      ],
      [
        "kwu",
        "siri"
      ],
      [
        "te",
        "ch"
      ],
      [
        "bi",
        "shop"
      ],
      [
        "ụlọ",
        "ahịa"
      ],
      [
        "isi",
        "okwu"
      ],
      [
        "sa",
        "ụt"
      ],
      [
        "li",
        "b"
      ],
      [
        "naị",
        "jị"
      ],
      [
        "bo",
        "k"
      ],
      [
        "eme",
        "ka"
      ],
      [
        "ge",
        "e"
      ],
      [
        "zu",
        "tere"
      ],
      [
        "mme",
        "fu"
      ],
      [
        "nu",
        "el"
      ],
      [
        "mu",
        "el"
      ],
      [
        "mgba",
        "zi"
      ],
      [
        "us",
        "sd"
      ],
      [
        "nti",
        "nye"
      ],
      [
        "th",
        "er"
      ],
      [
        "ss",
        "s"
      ],
      [
        "19",
        "7"
      ],
      [
        "gwe",
        "̀"
      ],
      [
        "okporo",
        "ụzọ"
      ],
      [
        "fra",
        "ị"
      ],
      [
        "osi",
        "si"
      ],
      [
        "00",
        "0"
      ],
      [
        "es",
        "onye"
      ],
      [
        "awa",
        "ra"
      ],
      [
        "nji",
        "kere"
      ],
      [
        "bri",
        "tain"
      ],
      [
        "oka",
        "ikpe"
      ],
      [
        "tri",
        "k"
      ],
      [
        "new",
        "s"
      ],
      [
        "arịrị",
        "ọ"
      ],
      [
        "dọkị",
        "ta"
      ],
      [
        "del",
        "ta"
      ],
      [
        "yusu",
        "f"
      ],
      [
        "nla",
        "fo"
      ],
      [
        "gro",
        "up"
      ],
      [
        "e",
        "dozi"
      ],
      [
        "i",
        "a"
      ],
      [
        "i",
        "d"
      ],
      [
        "i",
        "r"
      ],
      [
        "k",
        "in"
      ],
      [
        "n",
        "ze"
      ],
      [
        "o",
        "g"
      ],
      [
        "o",
        "gige"
      ],
      [
        "p",
        "s"
      ],
      [
        "s",
        "ọọ"
      ],
      [
        "u",
        "du"
      ],
      [
        "w",
        "ole"
      ],
      [
        "z",
        "or"
      ],
      [
        "z",
        "ara"
      ],
      [
        "na",
        "́"
      ],
      [
        "na",
        "ri"
      ],
      [
        "ma",
        "d"
      ],
      [
        "me",
        "de"
      ],
      [
        "ga",
        "ara"
      ],
      [
        "ah",
        "ia"
      ],
      [
        "che",
        "kwa"
      ],
      [
        "chi",
        "bok"
      ],
      [
        "mma",
        "lite"
      ],
      [
        "sa",
        "ye"
      ],
      [
        "sa",
        "muel"
      ],
      [
        "sị",
        "ghị"
      ],
      [
        "kwụ",
        "sịrị"
      ],
      [
        "nwa",
        "anyi"
      ],
      [
        "af",
        "con"
      ],
      [
        "kpe",
        "biri"
      ],
      [
        "bo",
        "b"
      ],
      [
        "ama",
        "ala"
      ],
      [
        "ko",
        "me"
      ],
      [
        "ko",
        "la"
      ],
      [
        "201",
        "4"
      ],
      [
        "gu",
        "n"
      ],
      [
        "pa",
        "r"
      ],
      [
        "aba",
        "cha"
      ],
      [
        "ọdị",
        "na"
      ],
      [
        "eche",
        "ta"
      ],
      [
        "ntụ",
        "kwasị"
      ],
      [
        "ede",
        "mede"
      ],
      [
        "osi",
        "kapa"
      ],
      [
        "etinye",
        "la"
      ],
      [
        "aw",
        "ka"
      ],
      [
        "ó",
        "kè"
      ],
      [
        "ọga",
        "nihu"
      ],
      [
        "mile",
        "kan"
      ],
      [
        "ọda",
        "chi"
      ],
      [
        "ọme",
        "be"
      ],
      [
        "commi",
        "ssion"
      ],
      [
        "kadu",
        "na"
      ],
      [
        "a",
        "g"
      ],
      [
        "a",
        "tu"
      ],
      [
        "a",
        "so"
      ],
      [
        "f",
        "ọrọ"
      ],
      [
        "k",
        "ha"
      ],
      [
        "n",
        "tara"
      ],
      [
        "n",
        "̇ụ"
      ],
      [
        "o",
        "gba"
      ],
      [
        "o",
        "do"
      ],
      [
        "o",
        "chie"
      ],
      [
        "t",
        "te"
      ],
      [
        "t",
        "oro"
      ],
      [
        "x",
        "i"
      ],
      [
        "na",
        "ra"
      ],
      [
        "na",
        "bata"
      ],
      [
        "ka",
        "tọ"
      ],
      [
        "ta",
        "i"
      ],
      [
        "nye",
        "la"
      ],
      [
        "si",
        "li"
      ],
      [
        "ri",
        "e"
      ],
      [
        "ga",
        "sịrị"
      ],
      [
        "zi",
        "gara"
      ],
      [
        "de",
        "mo"
      ],
      [
        "an",
        "ge"
      ],
      [
        "kwụ",
        "ọ"
      ],
      [
        "af",
        "ụ"
      ],
      [
        "ni",
        "gwe"
      ],
      [
        "di",
        "bia"
      ],
      [
        "re",
        "s"
      ],
      [
        "da",
        "p"
      ],
      [
        "eme",
        "pe"
      ],
      [
        "ne",
        "t"
      ],
      [
        "ne",
        "y"
      ],
      [
        "agba",
        "ta"
      ],
      [
        "ọzọ",
        "kwa"
      ],
      [
        "nu",
        "e"
      ],
      [
        "jo",
        "se"
      ],
      [
        "ibu",
        "te"
      ],
      [
        "anwụ",
        "chiela"
      ],
      [
        "nka",
        "ta"
      ],
      [
        "wo",
        "od"
      ],
      [
        "dozi",
        "e"
      ],
      [
        "izu",
        "ụka"
      ],
      [
        "nai",
        "ja"
      ],
      [
        "nnọ",
        "chi"
      ],
      [
        "abdu",
        "lla"
      ],
      [
        "eu",
        "ro"
      ],
      [
        "sine",
        "tọ"
      ],
      [
        "wor",
        "ld"
      ],
      [
        "odozi",
        "akụ"
      ],
      [
        "olile",
        "anya"
      ],
      [
        "agbọ",
        "ghọ"
      ],
      [
        "a",
        "gh"
      ],
      [
        "a",
        "re"
      ],
      [
        "i",
        "bra"
      ],
      [
        "j",
        "ere"
      ],
      [
        "j",
        "ukwu"
      ],
      [
        "k",
        "ore"
      ],
      [
        "l",
        "t"
      ],
      [
        "p",
        "ri"
      ],
      [
        "s",
        "ere"
      ],
      [
        "s",
        "ala"
      ],
      [
        "v",
        "otu"
      ],
      [
        "na",
        "n"
      ],
      [
        "na",
        "nị"
      ],
      [
        "ma",
        "achị"
      ],
      [
        "ra",
        "ị"
      ],
      [
        "kp",
        "ọọ"
      ],
      [
        "rị",
        "ọrọ"
      ],
      [
        "ru",
        "iz"
      ],
      [
        "ba",
        "r"
      ],
      [
        "be",
        "n"
      ],
      [
        "bi",
        "ga"
      ],
      [
        "bi",
        "chi"
      ],
      [
        "che",
        "l"
      ],
      [
        "de",
        "n"
      ],
      [
        "wa",
        "y"
      ],
      [
        "zọ",
        "rọ"
      ],
      [
        "cha",
        "pụ"
      ],
      [
        "eme",
        "ghị"
      ],
      [
        "ime",
        "bi"
      ],
      [
        "mgbe",
        "de"
      ],
      [
        "mi",
        "n"
      ],
      [
        "al",
        "l"
      ],
      [
        "mm",
        "er"
      ],
      [
        "ọka",
        "ra"
      ],
      [
        "buha",
        "rị"
      ],
      [
        "ome",
        "kome"
      ],
      [
        "ele",
        "kọta"
      ],
      [
        "jo",
        "na"
      ],
      [
        "ọdị",
        "mma"
      ],
      [
        "ye",
        "mi"
      ],
      [
        "ntoro",
        "ọbịa"
      ],
      [
        "ar",
        "d"
      ],
      [
        "nnọ",
        "chite"
      ],
      [
        "ogu",
        "n"
      ],
      [
        "she",
        "hu"
      ],
      [
        "tele",
        "com"
      ],
      [
        "inter",
        "national"
      ],
      [
        "gar",
        "ba"
      ],
      [
        "emma",
        "nuel"
      ],
      [
        "sọọ",
        "sọ"
      ],
      [
        "ibra",
        "hi"
      ],
      [
        "1",
        "3"
      ],
      [
        "2",
        "4"
      ],
      [
        "5",
        "0"
      ],
      [
        "a",
        "́"
      ],
      [
        "a",
        "li"
      ],
      [
        "c",
        "ro"
      ],
      [
        "e",
        "m"
      ],
      [
        "e",
        "mi"
      ],
      [
        "e",
        "gburu"
      ],
      [
        "e",
        "bere"
      ],
      [
        "e",
        "kiti"
      ],
      [
        "k",
        "ịrị"
      ],
      [
        "n",
        "ff"
      ],
      [
        "o",
        "mi"
      ],
      [
        "o",
        "jukwu"
      ],
      [
        "s",
        "onye"
      ],
      [
        "s",
        "tu"
      ],
      [
        "u",
        "ju"
      ],
      [
        "̃",
        "ụ"
      ],
      [
        "ụ",
        "kpụrụ"
      ],
      [
        "ọ",
        "sị"
      ],
      [
        "ọ",
        "chụ"
      ],
      [
        "ọ",
        "ghọ"
      ],
      [
        "ị",
        "ta"
      ],
      [
        "kw",
        "anyere"
      ],
      [
        "ma",
        "nụ"
      ],
      [
        "ma",
        "hụ"
      ],
      [
        "ra",
        "ine"
      ],
      [
        "me",
        "d"
      ],
      [
        "ga",
        "na"
      ],
      [
        "ah",
        "med"
      ],
      [
        "tu",
        "zdee"
      ],
      [
        "te",
        "mba"
      ],
      [
        "le",
        "ta"
      ],
      [
        "gha",
        "chị"
      ],
      [
        "nwa",
        "le"
      ],
      [
        "da",
        "a"
      ],
      [
        "da",
        "ta"
      ],
      [
        "eme",
        "tụta"
      ],
      [
        "du",
        "ru"
      ],
      [
        "agha",
        "chi"
      ],
      [
        "on",
        "s"
      ],
      [
        "agba",
        "ala"
      ],
      [
        "agba",
        "sa"
      ],
      [
        "ama",
        "echi"
      ],
      [
        "ezi",
        "ghi"
      ],
      [
        "igbo",
        "chi"
      ],
      [
        "mu",
        "sa"
      ],
      [
        "gu",
        "ri"
      ],
      [
        "eji",
        "ghị"
      ],
      [
        "mer",
        "ụrụ"
      ],
      [
        "ju",
        "pụtara"
      ],
      [
        "gosi",
        "pụta"
      ],
      [
        "ada",
        "ma"
      ],
      [
        "nig",
        "er"
      ],
      [
        "azị",
        "za"
      ],
      [
        "nigeri",
        "an"
      ],
      [
        "wo",
        "l"
      ],
      [
        "ogbu",
        "nigwe"
      ],
      [
        "oka",
        "for"
      ],
      [
        "kọmi",
        "shọna"
      ],
      [
        "bọ",
        "je"
      ],
      [
        "as",
        "soci"
      ],
      [
        "uk",
        "raine"
      ],
      [
        "republi",
        "can"
      ],
      [
        "lly",
        "wood"
      ],
      [
        "agw",
        "ala"
      ],
      [
        "feder",
        "al"
      ],
      [
        "lib",
        "ya"
      ],
      [
        "dap",
        "chi"
      ],
      [
        "abdulla",
        "hi"
      ],
      [
        "ọghọ",
        "m"
      ],
      [
        "associ",
        "ation"
      ],
      [
        "1",
        "8"
      ],
      [
        "a",
        "gọ"
      ],
      [
        "a",
        "tọrọ"
      ],
      [
        "b",
        "ị"
      ],
      [
        "c",
        "ra"
      ],
      [
        "c",
        "up"
      ],
      [
        "i",
        "m"
      ],
      [
        "i",
        "so"
      ],
      [
        "i",
        "ro"
      ],
      [
        "i",
        "ce"
      ],
      [
        "l",
        "le"
      ],
      [
        "m",
        "ọ"
      ],
      [
        "m",
        "kpo"
      ],
      [
        "n",
        "kwụsị"
      ],
      [
        "o",
        "ra"
      ],
      [
        "o",
        "ru"
      ],
      [
        "o",
        "gbo"
      ],
      [
        "o",
        "nwere"
      ],
      [
        "o",
        "se"
      ],
      [
        "o",
        "ut"
      ],
      [
        "ụ",
        "bụrụ"
      ],
      [
        "ụ",
        "ghọ"
      ],
      [
        "ọ",
        "gọ"
      ],
      [
        "ị",
        "chọ"
      ],
      [
        "ma",
        "a"
      ],
      [
        "ch",
        "ụrụ"
      ],
      [
        "ke",
        "nya"
      ],
      [
        "ndị",
        "a"
      ],
      [
        "la",
        "trik"
      ],
      [
        "gba",
        "gburu"
      ],
      [
        "kọ",
        "ọ"
      ],
      [
        "be",
        "nue"
      ],
      [
        "bi",
        "ll"
      ],
      [
        "an",
        "ce"
      ],
      [
        "otu",
        "́"
      ],
      [
        "sa",
        "a"
      ],
      [
        "re",
        "si"
      ],
      [
        "gbo",
        "chie"
      ],
      [
        "nwere",
        "ike"
      ],
      [
        "oke",
        "nye"
      ],
      [
        "eri",
        "te"
      ],
      [
        "mu",
        "ni"
      ],
      [
        "co",
        "ur"
      ],
      [
        "ọgwụ",
        "gwọ"
      ],
      [
        "ter",
        "s"
      ],
      [
        "eche",
        "kwa"
      ],
      [
        "ọmụ",
        "gwọ"
      ],
      [
        "fa",
        "ce"
      ],
      [
        "afri",
        "can"
      ],
      [
        "es",
        "ere"
      ],
      [
        "anụ",
        "manụ"
      ],
      [
        "onyo",
        "onyo"
      ],
      [
        "nc",
        "c"
      ],
      [
        "mwu",
        "te"
      ],
      [
        "ọk",
        "toba"
      ],
      [
        "premi",
        "er"
      ],
      [
        "ameri",
        "ka"
      ],
      [
        "naịjị",
        "rịa"
      ],
      [
        "agh",
        "ụghọ"
      ],
      [
        "ibrahi",
        "m"
      ],
      [
        "adama",
        "wa"
      ],
      [
        "wol",
        "ves"
      ],
      [
        "cour",
        "t"
      ],
      [
        "a",
        "chọrọ"
      ],
      [
        "a",
        "chu"
      ],
      [
        "d",
        "ọrọ"
      ],
      [
        "e",
        "ng"
      ],
      [
        "h",
        "ea"
      ],
      [
        "i",
        "bo"
      ],
      [
        "i",
        "fo"
      ],
      [
        "i",
        "guzo"
      ],
      [
        "i",
        "miri"
      ],
      [
        "j",
        "an"
      ],
      [
        "l",
        "li"
      ],
      [
        "l",
        "on"
      ],
      [
        "m",
        "s"
      ],
      [
        "m",
        "pụta"
      ],
      [
        "n",
        "p"
      ],
      [
        "n",
        "zi"
      ],
      [
        "n",
        "zọ"
      ],
      [
        "o",
        "ria"
      ],
      [
        "o",
        "lo"
      ],
      [
        "p",
        "c"
      ],
      [
        "r",
        "on"
      ],
      [
        "u",
        "le"
      ],
      [
        "u",
        "di"
      ],
      [
        "v",
        "s"
      ],
      [
        "w",
        "er"
      ],
      [
        "y",
        "iri"
      ],
      [
        "ọ",
        "kọ"
      ],
      [
        "ị",
        "hapụ"
      ],
      [
        "na",
        "ta"
      ],
      [
        "me",
        "pụta"
      ],
      [
        "me",
        "biri"
      ],
      [
        "me",
        "bie"
      ],
      [
        "nke",
        "wa"
      ],
      [
        "ri",
        "ta"
      ],
      [
        "ga",
        "ni"
      ],
      [
        "kwu",
        "nyere"
      ],
      [
        "nwe",
        "ghi"
      ],
      [
        "nwe",
        "tere"
      ],
      [
        "be",
        "l"
      ],
      [
        "be",
        "ni"
      ],
      [
        "bu",
        "lu"
      ],
      [
        "lọ",
        "ta"
      ],
      [
        "go",
        "te"
      ],
      [
        "we",
        "ta"
      ],
      [
        "cha",
        "a"
      ],
      [
        "re",
        "por"
      ],
      [
        "tọ",
        "zdee"
      ],
      [
        "kwe",
        "nye"
      ],
      [
        "ne",
        "ze"
      ],
      [
        "nọ",
        "lọ"
      ],
      [
        "se",
        "s"
      ],
      [
        "mme",
        "kpa"
      ],
      [
        "ku",
        "ru"
      ],
      [
        "mo",
        "u"
      ],
      [
        "fe",
        "b"
      ],
      [
        "al",
        "li"
      ],
      [
        "okp",
        "ala"
      ],
      [
        "co",
        "mp"
      ],
      [
        "lo",
        "p"
      ],
      [
        "st",
        "ri"
      ],
      [
        "ekwe",
        "ghị"
      ],
      [
        "ọdị",
        "nihu"
      ],
      [
        "ghọ",
        "tara"
      ],
      [
        "nka",
        "tọ"
      ],
      [
        "nha",
        "ta"
      ],
      [
        "ris",
        "ky"
      ],
      [
        "nji",
        "kọ"
      ],
      [
        "uni",
        "ver"
      ],
      [
        "gre",
        "ssi"
      ],
      [
        "pro",
        "gressi"
      ],
      [
        "arị",
        "ọ"
      ],
      [
        "qu",
        "e"
      ],
      [
        "ịme",
        "pụta"
      ],
      [
        "ì",
        "gwè"
      ],
      [
        "vic",
        "tor"
      ],
      [
        "tek",
        "nọlọ"
      ],
      [
        "edere",
        "de"
      ],
      [
        "id",
        "ris"
      ],
      [
        "saye",
        "nsị"
      ],
      [
        "bob",
        "risky"
      ],
      [
        "ntara",
        "mahụ"
      ],
      [
        "demo",
        "cra"
      ],
      [
        "ney",
        "mar"
      ],
      [
        "esere",
        "se"
      ],
      [
        "imiri",
        "kiti"
      ],
      [
        "ntaramahụ",
        "hụ"
      ],
      [
        ".",
        "\""
      ],
      [
        "1",
        "4"
      ],
      [
        "2",
        "6"
      ],
      [
        "2",
        "7"
      ],
      [
        "3",
        "7"
      ],
      [
        "a",
        "wakpo"
      ],
      [
        "c",
        "y"
      ],
      [
        "d",
        "y"
      ],
      [
        "g",
        "ụrụ"
      ],
      [
        "h",
        "in"
      ],
      [
        "i",
        "k"
      ],
      [
        "i",
        "ti"
      ],
      [
        "l",
        "ụrụ"
      ],
      [
        "m",
        "gbọ"
      ],
      [
        "n",
        "cha"
      ],
      [
        "r",
        "t"
      ],
      [
        "s",
        "uru"
      ],
      [
        "t",
        "ọọ"
      ],
      [
        "z",
        "ụrụ"
      ],
      [
        "ụ",
        "ra"
      ],
      [
        "ọ",
        "hụ"
      ],
      [
        "ọ",
        "gọs"
      ],
      [
        "ọ",
        "gbụ"
      ],
      [
        "ị",
        "chọpụta"
      ],
      [
        "na",
        "ghị"
      ],
      [
        "na",
        "ole"
      ],
      [
        "ny",
        "ụ"
      ],
      [
        "ma",
        "idu"
      ],
      [
        "me",
        "tu"
      ],
      [
        "me",
        "pụtara"
      ],
      [
        "ga",
        "chara"
      ],
      [
        "ga",
        "fere"
      ],
      [
        "ah",
        "ị"
      ],
      [
        "ti",
        "mes"
      ],
      [
        "tụ",
        "ọ"
      ],
      [
        "bu",
        "kola"
      ],
      [
        "de",
        "ve"
      ],
      [
        "go",
        "d"
      ],
      [
        "wa",
        "l"
      ],
      [
        "kụ",
        "rụ"
      ],
      [
        "gbu",
        "ola"
      ],
      [
        "da",
        "c"
      ],
      [
        "nụ",
        "warị"
      ],
      [
        "ụmụ",
        "nwanyị"
      ],
      [
        "tọ",
        "ọrọ"
      ],
      [
        "mere",
        "nụ"
      ],
      [
        "se",
        "p"
      ],
      [
        "mme",
        "chi"
      ],
      [
        "mme",
        "ju"
      ],
      [
        "eri",
        "ma"
      ],
      [
        "zụ",
        "ọ"
      ],
      [
        "ana",
        "ta"
      ],
      [
        "sh",
        "ịa"
      ],
      [
        "sh",
        "ọn"
      ],
      [
        "mgba",
        "pụta"
      ],
      [
        "je",
        "nụwarị"
      ],
      [
        "uwe",
        "oji"
      ],
      [
        "eji",
        "ri"
      ],
      [
        "eji",
        "de"
      ],
      [
        "ozi",
        "gbo"
      ],
      [
        "mer",
        "uru"
      ],
      [
        "us",
        "ti"
      ],
      [
        "nso",
        "n"
      ],
      [
        "aha",
        "zi"
      ],
      [
        "jo",
        "e"
      ],
      [
        "kọwa",
        "a"
      ],
      [
        "nị",
        "ihu"
      ],
      [
        "aba",
        "li"
      ],
      [
        "ole",
        "naole"
      ],
      [
        "jọ",
        "gburu"
      ],
      [
        "ade",
        "sina"
      ],
      [
        "ekp",
        "erima"
      ],
      [
        "pase",
        "nt"
      ],
      [
        "nor",
        "way"
      ],
      [
        "tha",
        "n"
      ],
      [
        "ulo",
        "ikpe"
      ],
      [
        "river",
        "s"
      ],
      [
        "kha",
        "fi"
      ],
      [
        "sili",
        "nda"
      ],
      [
        "jose",
        "ph"
      ],
      [
        "jona",
        "than"
      ],
      [
        "lop",
        "ment"
      ],
      [
        "nhata",
        "nha"
      ],
      [
        "ọgọs",
        "tụ"
      ],
      [
        "ọgbụ",
        "gba"
      ],
      [
        "maidu",
        "guri"
      ],
      [
        "deve",
        "lopment"
      ],
      [
        "a",
        "to"
      ],
      [
        "a",
        "su"
      ],
      [
        "a",
        "gwọ"
      ],
      [
        "b",
        "ro"
      ],
      [
        "c",
        "le"
      ],
      [
        "e",
        "x"
      ],
      [
        "f",
        "ọ"
      ],
      [
        "f",
        "ada"
      ],
      [
        "f",
        "dac"
      ],
      [
        "i",
        "ba"
      ],
      [
        "i",
        "do"
      ],
      [
        "k",
        "ing"
      ],
      [
        "l",
        "s"
      ],
      [
        "m",
        "or"
      ],
      [
        "m",
        "ọrụ"
      ],
      [
        "n",
        "ba"
      ],
      [
        "n",
        "obi"
      ],
      [
        "u",
        "bi"
      ],
      [
        "w",
        "n"
      ],
      [
        "w",
        "oro"
      ],
      [
        "ọ",
        "pụ"
      ],
      [
        "ị",
        "nta"
      ],
      [
        "na",
        "tion"
      ],
      [
        "na",
        "fdac"
      ],
      [
        "dị",
        "kwa"
      ],
      [
        "dị",
        "ghị"
      ],
      [
        "ma",
        "la"
      ],
      [
        "ch",
        "afụ"
      ],
      [
        "ndị",
        "da"
      ],
      [
        "me",
        "si"
      ],
      [
        "me",
        "chie"
      ],
      [
        "la",
        "ni"
      ],
      [
        "la",
        "ssa"
      ],
      [
        "ga",
        "kwara"
      ],
      [
        "ih",
        "ụ"
      ],
      [
        "ru",
        "egwu"
      ],
      [
        "ah",
        "ọ"
      ],
      [
        "tu",
        "be"
      ],
      [
        "te",
        "n"
      ],
      [
        "ahụ",
        "ghị"
      ],
      [
        "le",
        "ke"
      ],
      [
        "or",
        "ji"
      ],
      [
        "kụ",
        "ba"
      ],
      [
        "mma",
        "nya"
      ],
      [
        "mụ",
        "ọ"
      ],
      [
        "af",
        "u"
      ],
      [
        "iri",
        "abụọ"
      ],
      [
        "re",
        "d"
      ],
      [
        "bo",
        "ok"
      ],
      [
        "nụ",
        "rụ"
      ],
      [
        "oke",
        "́"
      ],
      [
        "ku",
        "ka"
      ],
      [
        "egwu",
        "ruegwu"
      ],
      [
        "igbo",
        "kwe"
      ],
      [
        "to",
        "o"
      ],
      [
        "mo",
        "i"
      ],
      [
        "mo",
        "ses"
      ],
      [
        "sh",
        "ọ"
      ],
      [
        "nd",
        "oro"
      ],
      [
        "pa",
        "u"
      ],
      [
        "ebu",
        "ru"
      ],
      [
        "in",
        "dia"
      ],
      [
        "ro",
        "nal"
      ],
      [
        "mkpa",
        "mkpa"
      ],
      [
        "arụ",
        "mọrụ"
      ],
      [
        "adị",
        "beghị"
      ],
      [
        "nwu",
        "te"
      ],
      [
        "ọgba",
        "aghara"
      ],
      [
        "ngwa",
        "ọgụ"
      ],
      [
        "nde",
        "kọ"
      ],
      [
        "vi",
        "ce"
      ],
      [
        "ok",
        "on"
      ],
      [
        "gboro",
        "ja"
      ],
      [
        "fi",
        "a"
      ],
      [
        "nkwu",
        "chite"
      ],
      [
        "ịma",
        "lite"
      ],
      [
        "azụma",
        "ahịa"
      ],
      [
        "ebum",
        "nobi"
      ],
      [
        "ntọ",
        "ala"
      ],
      [
        "ịna",
        "bata"
      ],
      [
        "por",
        "t"
      ],
      [
        "izi",
        "zi"
      ],
      [
        "mmekọ",
        "ahụ"
      ],
      [
        "jula",
        "ị"
      ],
      [
        "sola",
        "rin"
      ],
      [
        "you",
        "tube"
      ],
      [
        "ọdịna",
        "la"
      ],
      [
        "katọ",
        "lik"
      ],
      [
        "euro",
        "pe"
      ],
      [
        "kore",
        "a"
      ],
      [
        "face",
        "book"
      ],
      [
        "beni",
        "n"
      ],
      [
        "univer",
        "si"
      ],
      [
        "ahị",
        "hịa"
      ],
      [
        "sep",
        "temba"
      ],
      [
        "ronal",
        "do"
      ],
      [
        "a",
        "chi"
      ],
      [
        "a",
        "nwa"
      ],
      [
        "a",
        "zu"
      ],
      [
        "c",
        "or"
      ],
      [
        "c",
        "ana"
      ],
      [
        "d",
        "ike"
      ],
      [
        "e",
        "d"
      ],
      [
        "e",
        "kpo"
      ],
      [
        "f",
        "ri"
      ],
      [
        "f",
        "ren"
      ],
      [
        "i",
        "t"
      ],
      [
        "i",
        "gh"
      ],
      [
        "i",
        "gha"
      ],
      [
        "m",
        "y"
      ],
      [
        "m",
        "bo"
      ],
      [
        "n",
        "gw"
      ],
      [
        "n",
        "jiri"
      ],
      [
        "o",
        "p"
      ],
      [
        "o",
        "ri"
      ],
      [
        "o",
        "ti"
      ],
      [
        "o",
        "ye"
      ],
      [
        "r",
        "ri"
      ],
      [
        "s",
        "ọrọ"
      ],
      [
        "s",
        "pa"
      ],
      [
        "t",
        "n"
      ],
      [
        "t",
        "ta"
      ],
      [
        "t",
        "sina"
      ],
      [
        "u",
        "nda"
      ],
      [
        "w",
        "on"
      ],
      [
        "ụ",
        "nụ"
      ],
      [
        "ọ",
        "gbara"
      ],
      [
        "ị",
        "ha"
      ],
      [
        "ị",
        "chafụ"
      ],
      [
        "na",
        "tara"
      ],
      [
        "ny",
        "sc"
      ],
      [
        "ka",
        "tọrọ"
      ],
      [
        "ka",
        "tsina"
      ],
      [
        "ma",
        "sịrị"
      ],
      [
        "ch",
        "risti"
      ],
      [
        "ke",
        "shi"
      ],
      [
        "er",
        "s"
      ],
      [
        "ndị",
        "agha"
      ],
      [
        "ra",
        "i"
      ],
      [
        "nw",
        "uru"
      ],
      [
        "me",
        "pere"
      ],
      [
        "la",
        "a"
      ],
      [
        "ri",
        "d"
      ],
      [
        "ri",
        "te"
      ],
      [
        "ri",
        "tere"
      ],
      [
        "ga",
        "la"
      ],
      [
        "kwu",
        "azị"
      ],
      [
        "rị",
        "ị"
      ],
      [
        "ru",
        "ba"
      ],
      [
        "ti",
        "nu"
      ],
      [
        "gba",
        "ta"
      ],
      [
        "gba",
        "kwunyere"
      ],
      [
        "kwa",
        "̀"
      ],
      [
        "le",
        "ice"
      ],
      [
        "bi",
        "nyere"
      ],
      [
        "de",
        "bere"
      ],
      [
        "go",
        "og"
      ],
      [
        "ala",
        "kụba"
      ],
      [
        "li",
        "m"
      ],
      [
        "kpe",
        "sa"
      ],
      [
        "di",
        "e"
      ],
      [
        "di",
        "an"
      ],
      [
        "re",
        "v"
      ],
      [
        "iji",
        "de"
      ],
      [
        "akwụ",
        "ghị"
      ],
      [
        "ne",
        "tị"
      ],
      [
        "mere",
        "la"
      ],
      [
        "agba",
        "kwunye"
      ],
      [
        "ama",
        "m"
      ],
      [
        "to",
        "tte"
      ],
      [
        "mgba",
        "gha"
      ],
      [
        "mgba",
        "go"
      ],
      [
        "al",
        "o"
      ],
      [
        "pa",
        "tri"
      ],
      [
        "ebu",
        "li"
      ],
      [
        "ebu",
        "so"
      ],
      [
        "mm",
        "ọnwụ"
      ],
      [
        "ola",
        "milekan"
      ],
      [
        "nna",
        "bu"
      ],
      [
        "co",
        "s"
      ],
      [
        "iwe",
        "ta"
      ],
      [
        "fo",
        "unda"
      ],
      [
        "ewe",
        "pụ"
      ],
      [
        "naan",
        "i"
      ],
      [
        "nka",
        "̀"
      ],
      [
        "eru",
        "ola"
      ],
      [
        "ea",
        "st"
      ],
      [
        "nha",
        "m"
      ],
      [
        "akwado",
        "ghi"
      ],
      [
        "oba",
        "ma"
      ],
      [
        "kan",
        "sụ"
      ],
      [
        "nji",
        "de"
      ],
      [
        "pase",
        "ntị"
      ],
      [
        "dan",
        "i"
      ],
      [
        "tra",
        "ns"
      ],
      [
        "ọn",
        "̇ụ"
      ],
      [
        "200",
        "7"
      ],
      [
        "199",
        "9"
      ],
      [
        "wil",
        "li"
      ],
      [
        "ntụli",
        "aka"
      ],
      [
        "emer",
        "ụ"
      ],
      [
        "aṅụ",
        "rị"
      ],
      [
        "akp",
        "ọọla"
      ],
      [
        "ser",
        "vice"
      ],
      [
        "davi",
        "d"
      ],
      [
        "ps",
        "g"
      ],
      [
        "mad",
        "rid"
      ],
      [
        "bọje",
        "tị"
      ],
      [
        "ụbụrụ",
        "isi"
      ],
      [
        "ọpụ",
        "pụ"
      ],
      [
        "fren",
        "ch"
      ],
      [
        "igha",
        "lo"
      ],
      [
        "tinu",
        "bu"
      ],
      [
        "leice",
        "ster"
      ],
      [
        "goog",
        "le"
      ],
      [
        "totte",
        "nham"
      ],
      [
        "founda",
        "tion"
      ],
      [
        "1",
        "00"
      ],
      [
        "2",
        "3"
      ],
      [
        "2",
        "8"
      ],
      [
        "a",
        "wo"
      ],
      [
        "e",
        "chere"
      ],
      [
        "e",
        "boro"
      ],
      [
        "i",
        "́"
      ],
      [
        "m",
        "we"
      ],
      [
        "n",
        "gwu"
      ],
      [
        "n",
        "se"
      ],
      [
        "n",
        "chọ"
      ],
      [
        "n",
        "chụ"
      ],
      [
        "o",
        "l"
      ],
      [
        "o",
        "m"
      ],
      [
        "o",
        "wu"
      ],
      [
        "o",
        "per"
      ],
      [
        "o",
        "sho"
      ],
      [
        "o",
        "ghere"
      ],
      [
        "p",
        "t"
      ],
      [
        "p",
        "hi"
      ],
      [
        "r",
        "hin"
      ],
      [
        "s",
        "r"
      ],
      [
        "t",
        "ti"
      ],
      [
        "u",
        "ma"
      ],
      [
        "u",
        "bo"
      ],
      [
        "z",
        "z"
      ],
      [
        "ị",
        "gụ"
      ],
      [
        "ị",
        "dọ"
      ],
      [
        "ị",
        "kwalite"
      ],
      [
        "na",
        "eze"
      ],
      [
        "ka",
        "ree"
      ],
      [
        "ch",
        "o"
      ],
      [
        "ra",
        "el"
      ],
      [
        "me",
        "dia"
      ],
      [
        "nye",
        "ghị"
      ],
      [
        "nye",
        "mi"
      ],
      [
        "si",
        "la"
      ],
      [
        "rị",
        "tara"
      ],
      [
        "tụ",
        "nyere"
      ],
      [
        "nwe",
        "kwara"
      ],
      [
        "bi",
        "g"
      ],
      [
        "bi",
        "shọ"
      ],
      [
        "or",
        "ge"
      ],
      [
        "lọ",
        "ghachi"
      ],
      [
        "dụ",
        "rụ"
      ],
      [
        "de",
        "pụtara"
      ],
      [
        "gha",
        "chiri"
      ],
      [
        "mma",
        "chi"
      ],
      [
        "rọ",
        "shịa"
      ],
      [
        "li",
        "a"
      ],
      [
        "li",
        "mi"
      ],
      [
        "we",
        "ah"
      ],
      [
        "cha",
        "d"
      ],
      [
        "re",
        "c"
      ],
      [
        "ọchị",
        "chọ"
      ],
      [
        "eme",
        "la"
      ],
      [
        "eme",
        "nt"
      ],
      [
        "eme",
        "gide"
      ],
      [
        "nụ",
        "zụ"
      ],
      [
        "kpa",
        "mkpa"
      ],
      [
        "ne",
        "s"
      ],
      [
        "ge",
        "n"
      ],
      [
        "ge",
        "orge"
      ],
      [
        "anya",
        "nwu"
      ],
      [
        "se",
        "a"
      ],
      [
        "se",
        "gun"
      ],
      [
        "mp",
        "u"
      ],
      [
        "mi",
        "cha"
      ],
      [
        "ọbụ",
        "na"
      ],
      [
        "nu",
        "j"
      ],
      [
        "201",
        "2"
      ],
      [
        "201",
        "3"
      ],
      [
        "bịa",
        "m"
      ],
      [
        "ekwu",
        "pụta"
      ],
      [
        "mgba",
        "li"
      ],
      [
        "gọ",
        "me"
      ],
      [
        "mkpa",
        "rị"
      ],
      [
        "mer",
        "u"
      ],
      [
        "ọkụ",
        "kọ"
      ],
      [
        "asa",
        "tara"
      ],
      [
        "fọdụ",
        "rụ"
      ],
      [
        "fu",
        "o"
      ],
      [
        "sta",
        "nda"
      ],
      [
        "nje",
        "gharị"
      ],
      [
        "iwe",
        "pụ"
      ],
      [
        "ca",
        "rs"
      ],
      [
        "asọ",
        "mụ"
      ],
      [
        "of",
        "or"
      ],
      [
        "is",
        "onye"
      ],
      [
        "is",
        "rael"
      ],
      [
        "mị",
        "rị"
      ],
      [
        "ewe",
        "pụta"
      ],
      [
        "akpa",
        "ra"
      ],
      [
        "eke",
        "resi"
      ],
      [
        "chie",
        "f"
      ],
      [
        "ci",
        "al"
      ],
      [
        "yo",
        "ruba"
      ],
      [
        "fa",
        "i"
      ],
      [
        "ọha",
        "naeze"
      ],
      [
        "shi",
        "a"
      ],
      [
        "ekp",
        "u"
      ],
      [
        "ọkpụ",
        "kpụ"
      ],
      [
        "baka",
        "re"
      ],
      [
        "egosi",
        "la"
      ],
      [
        "twi",
        "ta"
      ],
      [
        "kpu",
        "ghere"
      ],
      [
        "agụma",
        "akwụkwọ"
      ],
      [
        "mike",
        "l"
      ],
      [
        "abdu",
        "l"
      ],
      [
        "dọkị",
        "nta"
      ],
      [
        "196",
        "7"
      ],
      [
        "os",
        "cars"
      ],
      [
        "oko",
        "ye"
      ],
      [
        "ibi",
        "nye"
      ],
      [
        "mkpọ",
        "sa"
      ],
      [
        "joh",
        "nson"
      ],
      [
        "tech",
        "no"
      ],
      [
        "mmer",
        "ụ"
      ],
      [
        "ibo",
        "m"
      ],
      [
        "repor",
        "ters"
      ],
      [
        "ọhụ",
        "ụ"
      ],
      [
        "universi",
        "ty"
      ],
      [
        "nnabu",
        "ihe"
      ],
      [
        "willi",
        "am"
      ],
      [
        "rhin",
        "o"
      ],
      [
        "ubo",
        "chi"
      ],
      [
        "karee",
        "m"
      ],
      [
        "bishọ",
        "p"
      ],
      [
        "limi",
        "ted"
      ],
      [
        "kpamkpa",
        "m"
      ],
      [
        "standa",
        "rd"
      ],
      [
        "ekeresi",
        "mesi"
      ],
      [
        "2",
        "1"
      ],
      [
        "a",
        "a"
      ],
      [
        "a",
        "ji"
      ],
      [
        "a",
        "bi"
      ],
      [
        "a",
        "mị"
      ],
      [
        "b",
        "la"
      ],
      [
        "c",
        "li"
      ],
      [
        "e",
        "sote"
      ],
      [
        "e",
        "kiri"
      ],
      [
        "f",
        "ala"
      ],
      [
        "i",
        "tu"
      ],
      [
        "i",
        "kwe"
      ],
      [
        "i",
        "ku"
      ],
      [
        "i",
        "dozi"
      ],
      [
        "k",
        "on"
      ],
      [
        "n",
        "̇"
      ],
      [
        "n",
        "si"
      ],
      [
        "n",
        "do"
      ],
      [
        "n",
        "nwere"
      ],
      [
        "o",
        "kwa"
      ],
      [
        "o",
        "sa"
      ],
      [
        "o",
        "ki"
      ],
      [
        "s",
        "pe"
      ],
      [
        "s",
        "qu"
      ],
      [
        "t",
        "ro"
      ],
      [
        "u",
        "se"
      ],
      [
        "u",
        "zo"
      ],
      [
        "ị",
        "kọ"
      ],
      [
        "ị",
        "wa"
      ],
      [
        "ị",
        "pụta"
      ],
      [
        "ị",
        "nwụ"
      ],
      [
        "ị",
        "banye"
      ],
      [
        "na",
        "sara"
      ],
      [
        "dị",
        "bịa"
      ],
      [
        "ka",
        "na"
      ],
      [
        "ma",
        "dị"
      ],
      [
        "ma",
        "zi"
      ],
      [
        "ma",
        "kwụkwọ"
      ],
      [
        "ra",
        "n"
      ],
      [
        "me",
        "pe"
      ],
      [
        "me",
        "chiri"
      ],
      [
        "la",
        "i"
      ],
      [
        "la",
        "ghachi"
      ],
      [
        "ya",
        "ri"
      ],
      [
        "ru",
        "tere"
      ],
      [
        "tu",
        "m"
      ],
      [
        "gba",
        "la"
      ],
      [
        "gba",
        "ara"
      ],
      [
        "le",
        "y"
      ],
      [
        "chị",
        "buru"
      ],
      [
        "bi",
        "ko"
      ],
      [
        "bu",
        "r"
      ],
      [
        "bu",
        "la"
      ],
      [
        "zi",
        "a"
      ],
      [
        "gha",
        "pụ"
      ],
      [
        "an",
        "̃ụ"
      ],
      [
        "wa",
        "sh"
      ],
      [
        "wa",
        "ter"
      ],
      [
        "wa",
        "rri"
      ],
      [
        "kụ",
        "ọ"
      ],
      [
        "kwụ",
        "nye"
      ],
      [
        "nwa",
        "y"
      ],
      [
        "li",
        "ri"
      ],
      [
        "ọrọ",
        "la"
      ],
      [
        "ni",
        "ihu"
      ],
      [
        "ọchị",
        "agha"
      ],
      [
        "du",
        "ba"
      ],
      [
        "ste",
        "etị"
      ],
      [
        "ụmụ",
        "afọ"
      ],
      [
        "kpa",
        "chara"
      ],
      [
        "kwe",
        "tara"
      ],
      [
        "ama",
        "ara"
      ],
      [
        "mi",
        "li"
      ],
      [
        "ezi",
        "ghị"
      ],
      [
        "to",
        "ral"
      ],
      [
        "kpọ",
        "kuru"
      ],
      [
        "gu",
        "ar"
      ],
      [
        "ebu",
        "be"
      ],
      [
        "atụ",
        "nyere"
      ],
      [
        "ekwe",
        "nti"
      ],
      [
        "ihi",
        "e"
      ],
      [
        "ju",
        "ve"
      ],
      [
        "ju",
        "un"
      ],
      [
        "sta",
        "gra"
      ],
      [
        "ntu",
        "s"
      ],
      [
        "ca",
        "tion"
      ],
      [
        "ọdị",
        "nịihu"
      ],
      [
        "vi",
        "e"
      ],
      [
        "ezu",
        "te"
      ],
      [
        "ade",
        "gbo"
      ],
      [
        "nkwu",
        "wa"
      ],
      [
        "nwo",
        "ko"
      ],
      [
        "uni",
        "on"
      ],
      [
        "he",
        "̀"
      ],
      [
        "ịtụ",
        "nanya"
      ],
      [
        "--",
        "--"
      ],
      [
        "gra",
        "ce"
      ],
      [
        "mbi",
        "bi"
      ],
      [
        "elec",
        "toral"
      ],
      [
        "ebido",
        "la"
      ],
      [
        "nz",
        "aghachi"
      ],
      [
        "mon",
        "e"
      ],
      [
        "os",
        "car"
      ],
      [
        "ì",
        "hè"
      ],
      [
        "republi",
        "c"
      ],
      [
        "tic",
        "al"
      ],
      [
        "eh",
        "ihie"
      ],
      [
        "joh",
        "n"
      ],
      [
        "agwụ",
        "la"
      ],
      [
        "fraị",
        "de"
      ],
      [
        "aso",
        "mpi"
      ],
      [
        "sere",
        "na"
      ],
      [
        "republican",
        "s"
      ],
      [
        "mọ",
        "nde"
      ],
      [
        "bel",
        "lo"
      ],
      [
        "alli",
        "ance"
      ],
      [
        "kuka",
        "h"
      ],
      [
        "pau",
        "l"
      ],
      [
        "cana",
        "da"
      ],
      [
        "njiri",
        "mara"
      ],
      [
        "cos",
        "by"
      ],
      [
        "nchọ",
        "cha"
      ],
      [
        "micha",
        "el"
      ],
      [
        "asọmụ",
        "mpi"
      ],
      [
        "fala",
        "na"
      ],
      [
        "juve",
        "ntus"
      ],
      [
        ",",
        "\""
      ],
      [
        "a",
        "si"
      ],
      [
        "a",
        "kwanyere"
      ],
      [
        "e",
        "ghe"
      ],
      [
        "g",
        "y"
      ],
      [
        "i",
        "g"
      ],
      [
        "i",
        "kpo"
      ],
      [
        "i",
        "kpu"
      ],
      [
        "j",
        "er"
      ],
      [
        "k",
        "yari"
      ],
      [
        "m",
        "gbu"
      ],
      [
        "n",
        "ko"
      ],
      [
        "n",
        "gi"
      ],
      [
        "n",
        "jeri"
      ],
      [
        "n",
        "họrọ"
      ],
      [
        "n",
        "kpesa"
      ],
      [
        "o",
        "bo"
      ],
      [
        "o",
        "zo"
      ],
      [
        "t",
        "sha"
      ],
      [
        "u",
        "̀"
      ],
      [
        "u",
        "de"
      ],
      [
        "v",
        "c"
      ],
      [
        "ụ",
        "da"
      ],
      [
        "ụ",
        "bịam"
      ],
      [
        "ị",
        "nye"
      ],
      [
        "ị",
        "pụ"
      ],
      [
        "ị",
        "nụ"
      ],
      [
        "ị",
        "za"
      ],
      [
        "na",
[...]
